{
  "version": "1.0",
  "truncation": null,
  "padding": null,
  "added_tokens": [
    {
      "id": 0,
      "content": "<|doc|>",
      "single_word": false,
      "lstrip": false,
      "rstrip": false,
      "normalized": false,
      "special": true
    }
  ],
  "normalizer": null,
  "pre_tokenizer": {
    "type": "ByteLevel",
    "add_prefix_space": false,
    "trim_offsets": true,
    "use_regex": true
  },
  "post_processor": null,
  "decoder": {
    "type": "ByteLevel",
    "add_prefix_space": true,
    "trim_offsets": true,
    "use_regex": true
  },
  "model": {
    "type": "BPE",
    "dropout": null,
    "unk_token": null,
    "continuing_subword_prefix": null,
    "end_of_word_suffix": null,
    "fuse_unk": false,
    "byte_fallback": false,
    "ignore_merges": false,
    "vocab": {
      "<|doc|>": 0,
      "!": 1,
      "\"": 2,
      "#": 3,
      "$": 4,
      "%": 5,
      "&": 6,
      "'": 7,
      "(": 8,
      ")": 9,
      "*": 10,
      "+": 11,
      ",": 12,
      "-": 13,
      ".": 14,
      "/": 15,
      "0": 16,
      "1": 17,
      "2": 18,
      "3": 19,
      "4": 20,
      "5": 21,
      "6": 22,
      "7": 23,
      "8": 24,
      "9": 25,
      ":": 26,
      ";": 27,
      "<": 28,
      "=": 29,
      ">": 30,
      "?": 31,
      "@": 32,
      "A": 33,
      "B": 34,
      "C": 35,
      "D": 36,
      "E": 37,
      "F": 38,
      "G": 39,
      "H": 40,
      "I": 41,
      "J": 42,
      "K": 43,
      "L": 44,
      "M": 45,
      "N": 46,
      "O": 47,
      "P": 48,
      "Q": 49,
      "R": 50,
      "S": 51,
      "T": 52,
      "U": 53,
      "V": 54,
      "W": 55,
      "X": 56,
      "Y": 57,
      "Z": 58,
      "[": 59,
      "\\": 60,
      "]": 61,
      "^": 62,
      "_": 63,
      "`": 64,
      "a": 65,
      "b": 66,
      "c": 67,
      "d": 68,
      "e": 69,
      "f": 70,
      "g": 71,
      "h": 72,
      "i": 73,
      "j": 74,
      "k": 75,
      "l": 76,
      "m": 77,
      "n": 78,
      "o": 79,
      "p": 80,
      "q": 81,
      "r": 82,
      "s": 83,
      "t": 84,
      "u": 85,
      "v": 86,
      "w": 87,
      "x": 88,
      "y": 89,
      "z": 90,
      "{": 91,
      "|": 92,
      "}": 93,
      "~": 94,
      "¡": 95,
      "¢": 96,
      "£": 97,
      "¤": 98,
      "¥": 99,
      "¦": 100,
      "§": 101,
      "¨": 102,
      "©": 103,
      "ª": 104,
      "«": 105,
      "¬": 106,
      "®": 107,
      "¯": 108,
      "°": 109,
      "±": 110,
      "²": 111,
      "³": 112,
      "´": 113,
      "µ": 114,
      "¶": 115,
      "·": 116,
      "¸": 117,
      "¹": 118,
      "º": 119,
      "»": 120,
      "¼": 121,
      "½": 122,
      "¾": 123,
      "¿": 124,
      "À": 125,
      "Á": 126,
      "Â": 127,
      "Ã": 128,
      "Ä": 129,
      "Å": 130,
      "Æ": 131,
      "Ç": 132,
      "È": 133,
      "É": 134,
      "Ê": 135,
      "Ë": 136,
      "Ì": 137,
      "Í": 138,
      "Î": 139,
      "Ï": 140,
      "Ð": 141,
      "Ñ": 142,
      "Ò": 143,
      "Ó": 144,
      "Ô": 145,
      "Õ": 146,
      "Ö": 147,
      "×": 148,
      "Ø": 149,
      "Ù": 150,
      "Ú": 151,
      "Û": 152,
      "Ü": 153,
      "Ý": 154,
      "Þ": 155,
      "ß": 156,
      "à": 157,
      "á": 158,
      "â": 159,
      "ã": 160,
      "ä": 161,
      "å": 162,
      "æ": 163,
      "ç": 164,
      "è": 165,
      "é": 166,
      "ê": 167,
      "ë": 168,
      "ì": 169,
      "í": 170,
      "î": 171,
      "ï": 172,
      "ð": 173,
      "ñ": 174,
      "ò": 175,
      "ó": 176,
      "ô": 177,
      "õ": 178,
      "ö": 179,
      "÷": 180,
      "ø": 181,
      "ù": 182,
      "ú": 183,
      "û": 184,
      "ü": 185,
      "ý": 186,
      "þ": 187,
      "ÿ": 188,
      "Ā": 189,
      "ā": 190,
      "Ă": 191,
      "ă": 192,
      "Ą": 193,
      "ą": 194,
      "Ć": 195,
      "ć": 196,
      "Ĉ": 197,
      "ĉ": 198,
      "Ċ": 199,
      "ċ": 200,
      "Č": 201,
      "č": 202,
      "Ď": 203,
      "ď": 204,
      "Đ": 205,
      "đ": 206,
      "Ē": 207,
      "ē": 208,
      "Ĕ": 209,
      "ĕ": 210,
      "Ė": 211,
      "ė": 212,
      "Ę": 213,
      "ę": 214,
      "Ě": 215,
      "ě": 216,
      "Ĝ": 217,
      "ĝ": 218,
      "Ğ": 219,
      "ğ": 220,
      "Ġ": 221,
      "ġ": 222,
      "Ģ": 223,
      "ģ": 224,
      "Ĥ": 225,
      "ĥ": 226,
      "Ħ": 227,
      "ħ": 228,
      "Ĩ": 229,
      "ĩ": 230,
      "Ī": 231,
      "ī": 232,
      "Ĭ": 233,
      "ĭ": 234,
      "Į": 235,
      "į": 236,
      "İ": 237,
      "ı": 238,
      "Ĳ": 239,
      "ĳ": 240,
      "Ĵ": 241,
      "ĵ": 242,
      "Ķ": 243,
      "ķ": 244,
      "ĸ": 245,
      "Ĺ": 246,
      "ĺ": 247,
      "Ļ": 248,
      "ļ": 249,
      "Ľ": 250,
      "ľ": 251,
      "Ŀ": 252,
      "ŀ": 253,
      "Ł": 254,
      "ł": 255,
      "Ń": 256,
      "ĠĠ": 257,
      "ĠĠĠĠ": 258,
      "de": 259,
      "en": 260,
      "er": 261,
      "es": 262,
      "Ġa": 263,
      "Ġs": 264,
      "Ġl": 265,
      "Ġde": 266,
      "on": 267,
      "Ġp": 268,
      "Ġc": 269,
      "ar": 270,
      "os": 271,
      "el": 272,
      "an": 273,
      "or": 274,
      "as": 275,
      "in": 276,
      "ĠĠĠ": 277,
      "Ã³": 278,
      "Ġt": 279,
      "Ġm": 280,
      "un": 281,
      "ue": 282,
      "Ġy": 283,
      "ta": 284,
      "re": 285,
      "ÃŃ": 286,
      "ĊĠĠĠĠ": 287,
      "al": 288,
      "ci": 289,
      "te": 290,
      "Ġla": 291,
      "do": 292,
      "ti": 293,
      "di": 294,
      "Ġen": 295,
      "Ġun": 296,
      "que": 297,
      "am": 298,
      "Ġel": 299,
      "Ġf": 300,
      "Ġes": 301,
      "om": 302,
      "Ã¡": 303,
      "Ġn": 304,
      "ri": 305,
      "ra": 306,
      "da": 307,
      "Ġh": 308,
      "Ġque": 309,
      "ÃŃa": 310,
      "Ġv": 311,
      "is": 312,
      "ol": 313,
      "Ġsu": 314,
      "le": 315,
      "Ġse": 316,
      "ro": 317,
      "Ġcon": 318,
      "ĊĠĠĠĠĠĠĠ": 319,
      "ĠĠĠĠĠĠĠĠ": 320,
      "to": 321,
      "Ġb": 322,
      "ab": 323,
      "ĊĠĠĠ": 324,
      "ic": 325,
      "il": 326,
      "Ġ=": 327,
      "ĠL": 328,
      "Ġg": 329,
      "Ġdi": 330,
      "ĠE": 331,
      "Ã³n": 332,
      "Ġre": 333,
      "im": 334,
      "ĠS": 335,
      "Ã±": 336,
      "se": 337,
      "Ã©": 338,
      "ent": 339,
      "Ġo": 340,
      "Ġe": 341,
      "elf": 342,
      "Ġin": 343,
      "Ġ\"": 344,
      "Ġal": 345,
      "ch": 346,
      "Ġuna": 347,
      "us": 348,
      "ur": 349,
      "ĠT": 350,
      "Ġ1": 351,
      "tr": 352,
      "ba": 353,
      "ĠA": 354,
      "la": 355,
      "Ġ(": 356,
      "Ġd": 357,
      "qu": 358,
      "it": 359,
      "at": 360,
      "Ġpar": 361,
      "Ġlos": 362,
      "res": 363,
      "ec": 364,
      "ĠĠĠĠĠĠĠ": 365,
      "Ġ'": 366,
      "Ġcom": 367,
      "ig": 368,
      "ĠC": 369,
      "lo": 370,
      "Ġj": 371,
      "Ġdel": 372,
      "ul": 373,
      "ĠM": 374,
      "Ġno": 375,
      "ĠP": 376,
      "ce": 377,
      "ciÃ³n": 378,
      "ad": 379,
      "ĊĠĠĠĠĠĠĠĠĠĠĠ": 380,
      "et": 381,
      "ente": 382,
      "jo": 383,
      "Ġth": 384,
      "Ġself": 385,
      "era": 386,
      "ero": 387,
      "ran": 388,
      "Ġpor": 389,
      "co": 390,
      "##": 391,
      "Ġi": 392,
      "ut": 393,
      "taba": 394,
      "tion": 395,
      "Ġmu": 396,
      "ug": 397,
      "io": 398,
      "ac": 399,
      "ĊĠĠĠĠĠĠĠĠĠĠĠĠ": 400,
      "Ġto": 401,
      "--": 402,
      "):": 403,
      "ien": 404,
      "em": 405,
      "Ġlas": 406,
      "ing": 407,
      "Ġle": 408,
      "iz": 409,
      "ca": 410,
      "st": 411,
      "pe": 412,
      "vi": 413,
      "ĠB": 414,
      "ĠD": 415,
      "por": 416,
      "mo": 417,
      "ter": 418,
      "',": 419,
      "Ġthe": 420,
      "Ġan": 421,
      "ando": 422,
      "Ã¡s": 423,
      "ado": 424,
      "Ġr": 425,
      "Ġlo": 426,
      "dos": 427,
      "um": 428,
      "est": 429,
      "ĠN": 430,
      "eron": 431,
      "go": 432,
      "Ġpara": 433,
      "Ġhab": 434,
      "ap": 435,
      "Ġcu": 436,
      "con": 437,
      "Ġpro": 438,
      "ame": 439,
      "Ġex": 440,
      "ct": 441,
      "amÃ¡": 442,
      "ez": 443,
      "ada": 444,
      "Ġ19": 445,
      "self": 446,
      "ir": 447,
      "cion": 448,
      "Â¡": 449,
      "cu": 450,
      "port": 451,
      "ily": 452,
      "Ġas": 453,
      "Ġjug": 454,
      "Ġ2": 455,
      "aron": 456,
      "ver": 457,
      "ia": 458,
      "Ã±a": 459,
      "Ġdijo": 460,
      "ĠF": 461,
      "ed": 462,
      "den": 463,
      "Ġw": 464,
      "Ġam": 465,
      "id": 466,
      "),": 467,
      "Ġfor": 468,
      "Ġni": 469,
      "Ġdes": 470,
      "ras": 471,
      "\"\"": 472,
      "Ãº": 473,
      "Ġim": 474,
      "Ġ#": 475,
      "00": 476,
      "Ġqu": 477,
      "ag": 478,
      "ĠR": 479,
      "ida": 480,
      "ob": 481,
      "ist": 482,
      "ĊĊĠĠĠ": 483,
      "Ġest": 484,
      ").": 485,
      "ass": 486,
      "ĠI": 487,
      "ĠG": 488,
      "Un": 489,
      "cia": 490,
      "ĠEl": 491,
      "ĠJ": 492,
      "ma": 493,
      "Ġdef": 494,
      "par": 495,
      "ĠmamÃ¡": 496,
      "ĠdÃŃa": 497,
      "cl": 498,
      "ĠEs": 499,
      "der": 500,
      "vo": 501,
      "Ã±o": 502,
      "si": 503,
      "bi": 504,
      "Ġper": 505,
      "Ġpo": 506,
      "Ġif": 507,
      "urn": 508,
      "Ġestaba": 509,
      "ĠmÃ¡s": 510,
      "Ġar": 511,
      "fi": 512,
      "Ġsus": 513,
      "Ã¡n": 514,
      "Ġgran": 515,
      "tes": 516,
      "ĠLily": 517,
      "pa": 518,
      "####": 519,
      "Ġpe": 520,
      "Ġmuy": 521,
      "gu": 522,
      "du": 523,
      "()": 524,
      "per": 525,
      "rom": 526,
      "__": 527,
      "Ġor": 528,
      "ces": 529,
      "Ġvez": 530,
      "pl": 531,
      "ante": 532,
      "uer": 533,
      "Ġres": 534,
      "Ġesta": 535,
      "ĠV": 536,
      "Ġson": 537,
      "':": 538,
      "Ġcomo": 539,
      "ex": 540,
      "ica": 541,
      "turn": 542,
      "po": 543,
      "Ġll": 544,
      "unt": 545,
      "ĠSe": 546,
      "ve": 547,
      "ĠhabÃŃa": 548,
      "ĊĊ": 549,
      "Ġten": 550,
      "ĠH": 551,
      "ay": 552,
      "----": 553,
      "==": 554,
      "one": 555,
      "ĊĠĠĠĠĠĠĠĠĠĠĠĠĠĠĠ": 556,
      "Ġis": 557,
      "ten": 558,
      "Ġpeque": 559,
      "Ġmo": 560,
      "des": 561,
      "Ġera": 562,
      "Ġreturn": 563,
      "Ġpre": 564,
      "ales": 565,
      "Ã©n": 566,
      "pi": 567,
      "Ġme": 568,
      "mente": 569,
      "('": 570,
      "ano": 571,
      "Ġab": 572,
      "Ġpero": 573,
      "ĠLa": 574,
      "Ġimport": 575,
      "tal": 576,
      "tra": 577,
      "name": 578,
      "tu": 579,
      "Ġser": 580,
      "Ġtan": 581,
      "aba": 582,
      "ert": 583,
      "ib": 584,
      "ĠUn": 585,
      "Ġof": 586,
      "Ġha": 587,
      "\",": 588,
      "ĠO": 589,
      "Ġsi": 590,
      "my": 591,
      "ara": 592,
      "Ġfel": 593,
      "ub": 594,
      "tor": 595,
      "Ġmuch": 596,
      "Ġtra": 597,
      "th": 598,
      "ina": 599,
      "Ġcas": 600,
      "riÃ³": 601,
      "los": 602,
      "ui": 603,
      "ty": 604,
      "Ġ[": 605,
      "ÃŃan": 606,
      "diÃ³": 607,
      "Ġamig": 608,
      "get": 609,
      "Ġco": 610,
      "Ġ0": 611,
      "orm": 612,
      "Ã©s": 613,
      "ari": 614,
      "up": 615,
      "Ġpr": 616,
      "ke": 617,
      "ath": 618,
      "Ġver": 619,
      "Ġsal": 620,
      "Ġmi": 621,
      "')": 622,
      "ĠÂ¡": 623,
      "va": 624,
      "Ġcor": 625,
      "ico": 626,
      "ana": 627,
      "ult": 628,
      "!\"": 629,
      "ted": 630,
      "int": 631,
      "Ġac": 632,
      "ck": 633,
      "omb": 634,
      "ect": 635,
      "no": 636,
      "El": 637,
      "Ġ\"\"\"": 638,
      "Ġllam": 639,
      "Ġfue": 640,
      "ciones": 641,
      "Ġent": 642,
      "Ġcam": 643,
      "elo": 644,
      "ĠLe": 645,
      "Ġjugar": 646,
      "dad": 647,
      "can": 648,
      "data": 649,
      "if": 650,
      "Ġsin": 651,
      "ĊĊĠĠĠĠĠĠĠ": 652,
      "Ġcol": 653,
      "and": 654,
      "Ãī": 655,
      "ores": 656,
      "pen": 657,
      "ho": 658,
      "ĊĠĠĠĠĠĠĠĠĠĠĠĠĠĠĠĠĠĠĠĠ": 659,
      "ĠTim": 660,
      "pu": 661,
      "Ġob": 662,
      "Ġ%": 663,
      "']": 664,
      "ier": 665,
      "ĠEn": 666,
      "erm": 667,
      "Ġu": 668,
      "arg": 669,
      "Ġlle": 670,
      "ud": 671,
      "ja": 672,
      "\".": 673,
      "Ġhac": 674,
      "Ġnot": 675,
      "ĠniÃ±a": 676,
      "ista": 677,
      "from": 678,
      "ption": 679,
      "ble": 680,
      "bol": 681,
      "cri": 682,
      "enta": 683,
      "Ġand": 684,
      "pr": 685,
      "oso": 686,
      "til": 687,
      "sion": 688,
      "Ġvol": 689,
      "Ġ-": 690,
      "all": 691,
      "Ġnue": 692,
      "Ġcan": 693,
      "ris": 694,
      "Â¿": 695,
      "))": 696,
      "rim": 697,
      "ambi": 698,
      "La": 699,
      "ban": 700,
      "Ġfeliz": 701,
      "Ġca": 702,
      "tar": 703,
      "ase": 704,
      "tiÃ³": 705,
      "age": 706,
      "Ġsol": 707,
      "ambiÃ©n": 708,
      "val": 709,
      "Ġpue": 710,
      "rase": 711,
      "Ġpa": 712,
      "Ġman": 713,
      "def": 714,
      "ith": 715,
      "able": 716,
      "._": 717,
      "emp": 718,
      "Ãīrase": 719,
      "Ġval": 720,
      "pro": 721,
      "tem": 722,
      "ill": 723,
      "ror": 724,
      "ine": 725,
      "me": 726,
      "zÃ³": 727,
      "Ġro": 728,
      "Ġquer": 729,
      "na": 730,
      "eld": 731,
      "ser": 732,
      "Ġra": 733,
      "ora": 734,
      "pon": 735,
      "str": 736,
      "Ġgus": 737,
      "idad": 738,
      "ple": 739,
      "Ġus": 740,
      "og": 741,
      "tÃ³": 742,
      "cial": 743,
      "Ġ+": 744,
      "Ġag": 745,
      "['": 746,
      "rue": 747,
      "tic": 748,
      "ino": 749,
      "iÃ³n": 750,
      "Ã±os": 751,
      "iento": 752,
      "########": 753,
      "ĠBen": 754,
      "bu": 755,
      "**": 756,
      "tro": 757,
      "del": 758,
      "ĠW": 759,
      "ela": 760,
      "sta": 761,
      "Ġgrande": 762,
      "Ġvio": 763,
      "ht": 764,
      "gun": 765,
      "Ġ{": 766,
      "path": 767,
      "com": 768,
      "ĠTom": 769,
      "ĠpequeÃ±a": 770,
      "py": 771,
      "ĠNo": 772,
      "ile": 773,
      "ĠTimmy": 774,
      "jar": 775,
      "Ġencon": 776,
      "pos": 777,
      "ÃŃn": 778,
      "ens": 779,
      "Ġay": 780,
      "ici": 781,
      "lan": 782,
      "(\"": 783,
      "son": 784,
      "Ġso": 785,
      "fer": 786,
      "Ġhacer": 787,
      "pt": 788,
      "ient": 789,
      "Ġ\"Â¡": 790,
      "Ġch": 791,
      "Ġem": 792,
      "01": 793,
      "za": 794,
      "Ċĉ": 795,
      "Ġhas": 796,
      "tir": 797,
      "he": 798,
      "Ġpod": 799,
      "?\"": 800,
      "Ġcar": 801,
      "ados": 802,
      "amente": 803,
      "Ġamigos": 804,
      "eb": 805,
      ".\"": 806,
      "pres": 807,
      "iden": 808,
      "Ġcasa": 809,
      "ones": 810,
      "Ġvi": 811,
      "Ġcl": 812,
      "obre": 813,
      "ura": 814,
      "ĠÃ¡": 815,
      "Ġpas": 816,
      "das": 817,
      "ii": 818,
      "Ġdis": 819,
      "Ġ18": 820,
      "Ġ3": 821,
      "endo": 822,
      "ĠtambiÃ©n": 823,
      "ÃŃs": 824,
      "key": 825,
      "rea": 826,
      "====": 827,
      "ita": 828,
      "les": 829,
      "Ġsig": 830,
      "Ġdo": 831,
      "En": 832,
      "Ġcos": 833,
      "abÃŃa": 834,
      "ge": 835,
      "che": 836,
      "Ġtest": 837,
      "ĠIn": 838,
      "ĠĊ": 839,
      "tas": 840,
      "--------": 841,
      "ject": 842,
      "assert": 843,
      "ord": 844,
      "class": 845,
      "Ġtien": 846,
      "Ãºn": 847,
      "ack": 848,
      "Ġencontr": 849,
      "Ġ==": 850,
      "gr": 851,
      "so": 852,
      "Ġma": 853,
      "mas": 854,
      "Ġ_": 855,
      "ĠniÃ±o": 856,
      "set": 857,
      "ĠquerÃŃa": 858,
      "Ġci": 859,
      "Ġprim": 860,
      "Ġjugue": 861,
      "Ġmucho": 862,
      "Ġba": 863,
      "mos": 864,
      "ĠÃ©": 865,
      "ĠNone": 866,
      "ĠtenÃŃa": 867,
      "ll": 868,
      "Ġsobre": 869,
      "put": 870,
      "ĠQ": 871,
      "cal": 872,
      "xt": 873,
      "dor": 874,
      "ĊĠĠĠĠĠ": 875,
      "uso": 876,
      "tent": 877,
      "qui": 878,
      "ard": 879,
      "paÃ±": 880,
      "ĊĠ": 881,
      "Ġpap": 882,
      "Ġentre": 883,
      "Ġencan": 884,
      "fo": 885,
      "],": 886,
      "uel": 887,
      "Ġbe": 888,
      "Ġmay": 889,
      "Ġti": 890,
      "form": 891,
      "test": 892,
      "tri": 893,
      "eg": 894,
      "Ġpres": 895,
      "ĊĠĠĠĠĠĠĠĠĠĠĠĠĠĠĠĠĠĠĠ": 896,
      "Ġcuando": 897,
      "ER": 898,
      "ore": 899,
      "\")": 900,
      "inal": 901,
      "Ġmis": 902,
      "Ġescu": 903,
      "Ġespe": 904,
      "ido": 905,
      "Ġcomen": 906,
      "Ġmar": 907,
      "Ġreg": 908,
      "gunt": 909,
      "ru": 910,
      "Ġact": 911,
      "ot": 912,
      "Ġalgo": 913,
      "entes": 914,
      "ĠestÃ¡": 915,
      "ĠK": 916,
      "car": 917,
      "Ġer": 918,
      "icen": 919,
      "ew": 920,
      "Ġtu": 921,
      "Ġbri": 922,
      "type": 923,
      "pla": 924,
      "file": 925,
      "Ġpi": 926,
      "Ġhasta": 927,
      "Ġpregunt": 928,
      "iÃ³": 929,
      "Ġfuer": 930,
      "ombre": 931,
      "Ġcer": 932,
      "Âł": 933,
      "Ġtodos": 934,
      "osa": 935,
      "import": 936,
      "Ġale": 937,
      "onces": 938,
      "min": 939,
      "alse": 940,
      "Ġgen": 941,
      "ĠpequeÃ±o": 942,
      "Ġdeci": 943,
      "aciÃ³n": 944,
      "je": 945,
      "fig": 946,
      "Ġlleg": 947,
      "emb": 948,
      "ĠAl": 949,
      "encia": 950,
      "ction": 951,
      "Ġfu": 952,
      "ĠY": 953,
      "dir": 954,
      "stan": 955,
      "ĠPero": 956,
      "ys": 957,
      "tros": 958,
      "Ġ200": 959,
      "Ġestado": 960,
      "text": 961,
      "Ġnuevo": 962,
      "='": 963,
      "ĠAn": 964,
      "Ġayud": 965,
      "zo": 966,
      "ĠDe": 967,
      "ena": 968,
      "paÃ±ol": 969,
      "vent": 970,
      "Ġinter": 971,
      "cias": 972,
      "lic": 973,
      "Ġparque": 974,
      "pren": 975,
      "ield": 976,
      "Ġmej": 977,
      "arse": 978,
      "Ġhacia": 979,
      "Ġte": 980,
      "Ġwith": 981,
      "Ġbu": 982,
      "eces": 983,
      "rror": 984,
      "ĠSu": 985,
      "IN": 986,
      "ven": 987,
      "las": 988,
      "Ġos": 989,
      "bo": 990,
      "Ġaf": 991,
      "Ġpos": 992,
      "Ġbien": 993,
      "ĠsonriÃ³": 994,
      "ĠĠĠĠĠĠĠĠĠĠĠĠĠĠĠĠ": 995,
      "ax": 996,
      "tico": 997,
      "amos": 998,
      "ĠespaÃ±ol": 999,
      "ip": 1000,
      "ciÃ³": 1001,
      "gua": 1002,
      "Error": 1003,
      "vir": 1004,
      "ĠEsta": 1005,
      "av": 1006,
      "Lily": 1007,
      "Ġfun": 1008,
      "cho": 1009,
      "Ġdos": 1010,
      "Ġencantaba": 1011,
      "No": 1012,
      "\"\"\"": 1013,
      "icense": 1014,
      "url": 1015,
      "Ġemo": 1016,
      "Ġpol": 1017,
      "ĠÂ¿": 1018,
      "ment": 1019,
      "ÃŃas": 1020,
      "ĠsintiÃ³": 1021,
      "args": 1022,
      "tica": 1023,
      "ario": 1024,
      "Ġda": 1025,
      "Ġ:": 1026,
      "ĠpreguntÃ³": 1027,
      "ĠU": 1028,
      "ON": 1029,
      "Ġname": 1030,
      "dule": 1031,
      "ento": 1032,
      "Ġlib": 1033,
      "untos": 1034,
      "adas": 1035,
      "uego": 1036,
      "Ġir": 1037,
      "pec": 1038,
      "ĠasÃŃ": 1039,
      "ĠpÃ¡": 1040,
      "Ġtodo": 1041,
      "Ġdiver": 1042,
      "ry": 1043,
      "tido": 1044,
      "ĠquÃ©": 1045,
      "qual": 1046,
      "Ġpu": 1047,
      "ĠCon": 1048,
      "Ġcre": 1049,
      "cciÃ³n": 1050,
      "tos": 1051,
      "Ġemocion": 1052,
      "Ġescuch": 1053,
      "IT": 1054,
      "ĠÃ©l": 1055,
      "empre": 1056,
      "Ġllamada": 1057,
      "ault": 1058,
      "ito": 1059,
      "Ġcal": 1060,
      "Ġ201": 1061,
      "Ġad": 1062,
      "True": 1063,
      "ĠpodÃŃa": 1064,
      "ual": 1065,
      "jos": 1066,
      "ice": 1067,
      "are": 1068,
      "Ġdice": 1069,
      "ger": 1070,
      "ĠLos": 1071,
      "Ġorg": 1072,
      "AR": 1073,
      "In": 1074,
      "ĠCh": 1075,
      "Ġmedi": 1076,
      "Ġalgun": 1077,
      "Ġ__": 1078,
      "ador": 1079,
      "ES": 1080,
      "ĠEstaba": 1081,
      "=\"": 1082,
      "out": 1083,
      "riste": 1084,
      "ĠDi": 1085,
      "Ġdio": 1086,
      "ly": 1087,
      "Ġarg": 1088,
      "Ġcosas": 1089,
      "ber": 1090,
      "rbol": 1091,
      "ĠcomenzÃ³": 1092,
      "ĠRe": 1093,
      "Ġmon": 1094,
      "man": 1095,
      "Ġz": 1096,
      "ize": 1097,
      "Ġestaban": 1098,
      "cio": 1099,
      "ĠÃ¡rbol": 1100,
      "Ġit": 1101,
      "ĠpÃ¡jar": 1102,
      "eral": 1103,
      "tiv": 1104,
      "Es": 1105,
      "ĠpapÃ¡": 1106,
      "puÃ©s": 1107,
      "Ġgustaba": 1108,
      "ices": 1109,
      "Ġ4": 1110,
      "ĠaÃ±os": 1111,
      "Ġespecial": 1112,
      "uniden": 1113,
      "ctor": 1114,
      "ros": 1115,
      "ph": 1116,
      "Ġdata": 1117,
      "\"Â¡": 1118,
      "Ġna": 1119,
      "ie": 1120,
      "Ġella": 1121,
      "rig": 1122,
      "ular": 1123,
      "Ġelse": 1124,
      ",\"": 1125,
      "Ġmejor": 1126,
      "col": 1127,
      "cional": 1128,
      "aban": 1129,
      "Â»": 1130,
      "Â«": 1131,
      "ĠLicense": 1132,
      "Ġhe": 1133,
      "Ġeste": 1134,
      "cÃ³": 1135,
      "ype": 1136,
      "])": 1137,
      "Ġgra": 1138,
      "ess": 1139,
      "\":": 1140,
      "for": 1141,
      "Ġllev": 1142,
      "Ġtriste": 1143,
      "end": 1144,
      "ts": 1145,
      "Ġestadouniden": 1146,
      "AT": 1147,
      "ers": 1148,
      "Ġjuntos": 1149,
      "iendo": 1150,
      "tp": 1151,
      "add": 1152,
      "ure": 1153,
      "jan": 1154,
      "eros": 1155,
      "ff": 1156,
      "esta": 1157,
      "Ġayudar": 1158,
      "uc": 1159,
      "irÃ³": 1160,
      "arr": 1161,
      "Ġon": 1162,
      "eno": 1163,
      "Ġsiempre": 1164,
      "Ġherm": 1165,
      "Ġabra": 1166,
      "Ġese": 1167,
      "ĠMar": 1168,
      "âĢ": 1169,
      "antes": 1170,
      "ugar": 1171,
      "date": 1172,
      "sert": 1173,
      "Ġestu": 1174,
      "ÃŃo": 1175,
      "reg": 1176,
      "Ġ199": 1177,
      "ĠTen": 1178,
      "ĠÂ«": 1179,
      "Ġfile": 1180,
      "Ġllamado": 1181,
      "Ġk": 1182,
      "ĠTo": 1183,
      "Ġsub": 1184,
      "Ġtom": 1185,
      "Ġx": 1186,
      "Ġincl": 1187,
      "stri": 1188,
      "Ġcab": 1189,
      "uando": 1190,
      "Ġstr": 1191,
      "uda": 1192,
      "Ġfil": 1193,
      "fil": 1194,
      "19": 1195,
      "bar": 1196,
      "Ġlen": 1197,
      "ĠDes": 1198,
      "Ġlugar": 1199,
      "Ġthis": 1200,
      "De": 1201,
      "..": 1202,
      "sa": 1203,
      "Ġat": 1204,
      "Ġles": 1205,
      "ft": 1206,
      "Ġprin": 1207,
      "pre": 1208,
      "Ġ5": 1209,
      "Ġestadounidense": 1210,
      "Ġmun": 1211,
      "Ġ*": 1212,
      "Ġbo": 1213,
      "ĠSan": 1214,
      "Ġaut": 1215,
      "Ġthat": 1216,
      "ĠSam": 1217,
      "################": 1218,
      "atch": 1219,
      "ign": 1220,
      "ĠCom": 1221,
      "ĠThe": 1222,
      "None": 1223,
      "Equal": 1224,
      "ĠEra": 1225,
      "urante": 1226,
      "eck": 1227,
      "Ġprodu": 1228,
      "Ġall": 1229,
      "Ġrespon": 1230,
      "cept": 1231,
      "tin": 1232,
      "quest": 1233,
      "Ġhombre": 1234,
      "OR": 1235,
      "Ġden": 1236,
      "cur": 1237,
      "Ġrep": 1238,
      "time": 1239,
      "ion": 1240,
      "Ġreal": 1241,
      "eta": 1242,
      "istor": 1243,
      "EN": 1244,
      "Ġmal": 1245,
      "Ġ<": 1246,
      "ĠĠĠĠĠ": 1247,
      "Ġescri": 1248,
      "Ġtener": 1249,
      "low": 1250,
      "Ġentonces": 1251,
      "Ġgri": 1252,
      "Ġtran": 1253,
      "Ġsent": 1254,
      "ml": 1255,
      "Ċĉĉ": 1256,
      "Ġpel": 1257,
      "ĠrÃ¡": 1258,
      "Ġwh": 1259,
      "gra": 1260,
      "Ġparte": 1261,
      "iiii": 1262,
      "Ġsigui": 1263,
      "tel": 1264,
      "idos": 1265,
      "cre": 1266,
      "cos": 1267,
      "Ġdon": 1268,
      "urce": 1269,
      "Ġsolo": 1270,
      "db": 1271,
      "tado": 1272,
      "Ġhaber": 1273,
      "log": 1274,
      "Con": 1275,
      "Ġalre": 1276,
      "Ġpuso": 1277,
      "ary": 1278,
      "ument": 1279,
      "Ġuse": 1280,
      "cha": 1281,
      "ou": 1282,
      "Ġjuguetes": 1283,
      "vis": 1284,
      "Ġagra": 1285,
      "Ġexpl": 1286,
      "Ġtraba": 1287,
      "ext": 1288,
      "ise": 1289,
      "Ġ('": 1290,
      "Ġmayor": 1291,
      "Ġfut": 1292,
      "embre": 1293,
      "Ġya": 1294,
      "Ġfrom": 1295,
      "und": 1296,
      "dieron": 1297,
      "Ġve": 1298,
      "Ġpal": 1299,
      "Ġget": 1300,
      "Ġfl": 1301,
      "viÃ³": 1302,
      "Ġfr": 1303,
      "ork": 1304,
      "cul": 1305,
      "itar": 1306,
      "cess": 1307,
      "dedor": 1308,
      "Ġform": 1309,
      "iado": 1310,
      "Ġsegu": 1311,
      "oci": 1312,
      "ial": 1313,
      "Ġperson": 1314,
      "Ġperro": 1315,
      "lar": 1316,
      "cip": 1317,
      "code": 1318,
      "model": 1319,
      "Ġassert": 1320,
      "izo": 1321,
      "fa": 1322,
      "tions": 1323,
      "field": 1324,
      "Ġagua": 1325,
      "ues": 1326,
      "Ġdemas": 1327,
      "ha": 1328,
      "Ġfuerte": 1329,
      "========": 1330,
      "gen": 1331,
      "Ġby": 1332,
      "ĠpÃ¡jaro": 1333,
      "ĠQuer": 1334,
      "Ġbrill": 1335,
      "vol": 1336,
      "Ġvari": 1337,
      "ĠAs": 1338,
      "pend": 1339,
      "value": 1340,
      "Ġuno": 1341,
      "ader": 1342,
      "ior": 1343,
      "//": 1344,
      "jango": 1345,
      "Ġpoco": 1346,
      "assertEqual": 1347,
      "tre": 1348,
      "Ġcada": 1349,
      "Ġdesde": 1350,
      "param": 1351,
      "Ġpla": 1352,
      "cas": 1353,
      "list": 1354,
      "Ġdemasiado": 1355,
      "Ġanim": 1356,
      "ieron": 1357,
      "Ġter": 1358,
      "Ġcons": 1359,
      "Ġfam": 1360,
      "Ġ198": 1361,
      "stru": 1362,
      "ĠTrue": 1363,
      "red": 1364,
      "tieron": 1365,
      "Ġvuel": 1366,
      "ator": 1367,
      "roup": 1368,
      "__(": 1369,
      "ĠMax": 1370,
      "stance": 1371,
      "Ġho": 1372,
      "ĠAr": 1373,
      "bolista": 1374,
      "vel": 1375,
      "ona": 1376,
      "Ġol": 1377,
      "Ġfelices": 1378,
      "Ġotros": 1379,
      "Ġbus": 1380,
      "ere": 1381,
      "Ġotro": 1382,
      "unca": 1383,
      "uro": 1384,
      "Ġjugando": 1385,
      "quÃŃ": 1386,
      "Ġqued": 1387,
      "Ġalrededor": 1388,
      "Ġfueron": 1389,
      "ost": 1390,
      "SE": 1391,
      "Ġresult": 1392,
      "cen": 1393,
      "reate": 1394,
      "tura": 1395,
      "Ġven": 1396,
      "Ġvalue": 1397,
      "uan": 1398,
      "Ġmen": 1399,
      "Ġcuida": 1400,
      "ga": 1401,
      "Ġri": 1402,
      "trÃ³": 1403,
      "ĠCor": 1404,
      "Ġset": 1405,
      "Ġprint": 1406,
      "Ġsen": 1407,
      "op": 1408,
      "ren": 1409,
      "Pero": 1410,
      "Ã©r": 1411,
      "Ġlim": 1412,
      "ind": 1413,
      "Ġterm": 1414,
      "Ġpuede": 1415,
      "Ġrepente": 1416,
      "Ġfinal": 1417,
      "titu": 1418,
      "fic": 1419,
      "Ġap": 1420,
      "anos": 1421,
      "Ãºs": 1422,
      "ok": 1423,
      "udad": 1424,
      "Ġcomer": 1425,
      "ias": 1426,
      "tim": 1427,
      "Ġfutbolista": 1428,
      "Ġ)": 1429,
      "user": 1430,
      "ting": 1431,
      "Ġ\"Â¿": 1432,
      "AN": 1433,
      "tivo": 1434,
      "init": 1435,
      "ĠTh": 1436,
      "tras": 1437,
      "Ġamigo": 1438,
      "ĠLo": 1439,
      "Ġ6": 1440,
      "van": 1441,
      "entras": 1442,
      "Ġout": 1443,
      "Ġcompar": 1444,
      "Ġmientras": 1445,
      "Ġej": 1446,
      "fun": 1447,
      "Ġmos": 1448,
      "Ġporque": 1449,
      "ĠcÃ³": 1450,
      "hor": 1451,
      "iste": 1452,
      "Ġdonde": 1453,
      "'),": 1454,
      "ĠEst": 1455,
      "Ġhistor": 1456,
      "Ġsuper": 1457,
      "orar": 1458,
      "ĠsÃŃ": 1459,
      "Ġtar": 1460,
      "ime": 1461,
      "Ġjuguete": 1462,
      "Test": 1463,
      "unto": 1464,
      "Ġforma": 1465,
      "Ġdifer": 1466,
      "be": 1467,
      "ĠpolÃŃ": 1468,
      "dio": 1469,
      "dera": 1470,
      "ola": 1471,
      "jÃ³": 1472,
      "wn": 1473,
      "Ġlog": 1474,
      "onto": 1475,
      "Ġvis": 1476,
      "ild": 1477,
      "uera": 1478,
      "Ġnum": 1479,
      "len": 1480,
      "dex": 1481,
      "----------------": 1482,
      "Ġ197": 1483,
      "Ġbar": 1484,
      "ptions": 1485,
      "ĠpaÃŃs": 1486,
      "ust": 1487,
      "Ġencontrar": 1488,
      "iente": 1489,
      "ublic": 1490,
      "Ġagrade": 1491,
      "Ġcap": 1492,
      "pes": 1493,
      "ĠTenÃŃa": 1494,
      "ele": 1495,
      "ware": 1496,
      "AL": 1497,
      "Ġafuera": 1498,
      "vil": 1499,
      "append": 1500,
      "vÃŃa": 1501,
      "thon": 1502,
      "Ġorgul": 1503,
      "Ġpelo": 1504,
      "ato": 1505,
      "uras": 1506,
      "mi": 1507,
      "Ġdurante": 1508,
      "Ġlist": 1509,
      "://": 1510,
      "Ġsab": 1511,
      "ama": 1512,
      "Ġtrans": 1513,
      "Ġsta": 1514,
      "Field": 1515,
      "Ġfamil": 1516,
      "cer": 1517,
      "Ġgusta": 1518,
      "Ġprincip": 1519,
      "ĠElla": 1520,
      "Ġplan": 1521,
      "UT": 1522,
      "jas": 1523,
      "empo": 1524,
      "ang": 1525,
      "serv": 1526,
      "Ġdire": 1527,
      "dict": 1528,
      "ames": 1529,
      "object": 1530,
      "uto": 1531,
      "Ġtiene": 1532,
      "ĠFalse": 1533,
      "bos": 1534,
      "miento": 1535,
      "ĠLes": 1536,
      "Ġ{'": 1537,
      "hora": 1538,
      "Ġhizo": 1539,
      "ich": 1540,
      "ote": 1541,
      "uy": 1542,
      "Tom": 1543,
      "():": 1544,
      "Ġacer": 1545,
      "Ġne": 1546,
      "ĠSara": 1547,
      "Ġfav": 1548,
      "ĠdecidiÃ³": 1549,
      "ĊĊĠ": 1550,
      "****": 1551,
      "000": 1552,
      "TI": 1553,
      "Ġrec": 1554,
      "Ġsor": 1555,
      "Ġmuchos": 1556,
      "Ġciudad": 1557,
      "eza": 1558,
      "Ġtiempo": 1559,
      "ern": 1560,
      "Ġorgullos": 1561,
      "Ġcamin": 1562,
      "Ġ@": 1563,
      "Ġestar": 1564,
      "vieron": 1565,
      "ĠllegÃ³": 1566,
      "mand": 1567,
      "Ġrela": 1568,
      "ĠencontrÃ³": 1569,
      "Ġexcept": 1570,
      "ĠdÃŃas": 1571,
      "Ġ}": 1572,
      "ĠJack": 1573,
      "25": 1574,
      "info": 1575,
      "Ġtodas": 1576,
      "Ġapren": 1577,
      "Ġcuenta": 1578,
      "Ġcerca": 1579,
      "Ġmismo": 1580,
      "mÃ¡s": 1581,
      "sg": 1582,
      "10": 1583,
      "''": 1584,
      "iza": 1585,
      "ton": 1586,
      "stribu": 1587,
      "Ġfavor": 1588,
      "icos": 1589,
      "ww": 1590,
      "ne": 1591,
      "Ġ17": 1592,
      "ĠQuerÃŃa": 1593,
      "ate": 1594,
      "Ġestr": 1595,
      "RE": 1596,
      "Ġran": 1597,
      "Ġtres": 1598,
      "Ġpens": 1599,
      "Ġintent": 1600,
      "ĠLas": 1601,
      "HabÃŃa": 1602,
      "Ġutil": 1603,
      "fe": 1604,
      "util": 1605,
      "edo": 1606,
      "Ġneces": 1607,
      "ded": 1608,
      "etho": 1609,
      "fr": 1610,
      "Ġ8": 1611,
      "Se": 1612,
      "Ġdivir": 1613,
      "dido": 1614,
      "Ġellos": 1615,
      "ĠCo": 1616,
      "Ġreco": 1617,
      "Ġtry": 1618,
      "ray": 1619,
      "vers": 1620,
      "ethod": 1621,
      "dose": 1622,
      "ĠestÃ¡n": 1623,
      "Ġkey": 1624,
      "Ġpelota": 1625,
      "Ġcaja": 1626,
      "ĠsabÃŃa": 1627,
      "lin": 1628,
      "ST": 1629,
      "try": 1630,
      "Ġraise": 1631,
      "Ġ>": 1632,
      "20": 1633,
      "config": 1634,
      "right": 1635,
      "MamÃ¡": 1636,
      "Ġ194": 1637,
      "count": 1638,
      "Des": 1639,
      "ĠescuchÃ³": 1640,
      "Ġcual": 1641,
      "rÃŃa": 1642,
      "ĊĠĠĠĠĠĠĠĠĠĠĠĠĠĠĠĠĠĠĠĠĠĠĠĠĠĠĠĠ": 1643,
      "Ġmin": 1644,
      "illa": 1645,
      "tus": 1646,
      "ĠseÃ±": 1647,
      "Ġbrillante": 1648,
      "Ġantes": 1649,
      "ĠPar": 1650,
      "ĊĠĠĠĠĠĠĠĠĠĠĠĠĠĠĠĠĠĠĠĠĠĠĠ": 1651,
      "Ġrui": 1652,
      "mp": 1653,
      "ĠFran": 1654,
      "ira": 1655,
      "rica": 1656,
      "ong": 1657,
      "ĠcÃ³mo": 1658,
      "Ġins": 1659,
      "emos": 1660,
      "ull": 1661,
      "fici": 1662,
      "Ġeran": 1663,
      "Ġ7": 1664,
      "False": 1665,
      "ĠMan": 1666,
      "cep": 1667,
      "[\"": 1668,
      "Ġpuer": 1669,
      "Ġ196": 1670,
      "zaron": 1671,
      "Los": 1672,
      "ves": 1673,
      "Ġmundo": 1674,
      "essage": 1675,
      "uÃ©": 1676,
      "Ġasus": 1677,
      "Ġsys": 1678,
      "oma": 1679,
      "Ġpueden": 1680,
      "cription": 1681,
      "ismo": 1682,
      "Ġide": 1683,
      "Ġvo": 1684,
      "uld": 1685,
      "ĠDijo": 1686,
      "vas": 1687,
      "tiva": 1688,
      "Ġfran": 1689,
      "ps": 1690,
      "ĠnÃº": 1691,
      "var": 1692,
      "demos": 1693,
      "ree": 1694,
      "ome": 1695,
      "Ġfamilia": 1696,
      "rite": 1697,
      "atur": 1698,
      "Ġprimer": 1699,
      "ula": 1700,
      "arn": 1701,
      "Ġmodule": 1702,
      "Ġmuchas": 1703,
      "ement": 1704,
      "line": 1705,
      "Ġvuelta": 1706,
      "ell": 1707,
      "ques": 1708,
      "Al": 1709,
      "Ġare": 1710,
      "icas": 1711,
      "Ġnunca": 1712,
      "Ġbas": 1713,
      "Ġcontin": 1714,
      "Ġhabita": 1715,
      "zar": 1716,
      "ĠMamÃ¡": 1717,
      "Ġ20": 1718,
      "read": 1719,
      "Ġpes": 1720,
      "Ġbos": 1721,
      "ĠSo": 1722,
      "Ġ10": 1723,
      "Ġabri": 1724,
      "Ġrom": 1725,
      "Est": 1726,
      "Ġanimales": 1727,
      "12": 1728,
      "Ġbon": 1729,
      "use": 1730,
      "Ġmat": 1731,
      "amb": 1732,
      "ticas": 1733,
      "ĠEx": 1734,
      "Ex": 1735,
      "ins": 1736,
      "Ġfin": 1737,
      "ception": 1738,
      "Ġesper": 1739,
      "Ġtype": 1740,
      "ftware": 1741,
      "Lo": 1742,
      "Mo": 1743,
      "models": 1744,
      "Ġ15": 1745,
      "Ġmodel": 1746,
      "Ġpl": 1747,
      "Ġoso": 1748,
      "Ġpoder": 1749,
      "Ġ`": 1750,
      "Ġdefault": 1751,
      "ima": 1752,
      "ata": 1753,
      "lica": 1754,
      "Ġorig": 1755,
      "art": 1756,
      "siÃ³n": 1757,
      "ĠTodos": 1758,
      "Ãºl": 1759,
      "cil": 1760,
      "Ġmiedo": 1761,
      "LE": 1762,
      "lock": 1763,
      "Ġtuvo": 1764,
      "ĠaÃ±o": 1765,
      "Ġtanto": 1766,
      "Ġsim": 1767,
      "format": 1768,
      "olog": 1769,
      "http": 1770,
      "ciendo": 1771,
      "Ġdentro": 1772,
      "org": 1773,
      "ding": 1774,
      "by": 1775,
      "SÃŃ": 1776,
      "word": 1777,
      "Ġ193": 1778,
      "Ġgu": 1779,
      "paÃ±a": 1780,
      "Ġalgunos": 1781,
      "Ġjard": 1782,
      "Ġhi": 1783,
      "ĠdespuÃ©s": 1784,
      "Ġayuda": 1785,
      "Ġ16": 1786,
      "Ġcone": 1787,
      "ĠCar": 1788,
      "\"]": 1789,
      "ĠX": 1790,
      "Ġlan": 1791,
      "Ġhel": 1792,
      "ĠZ": 1793,
      "join": 1794,
      "ĠAna": 1795,
      "Ġcent": 1796,
      "Ġcielo": 1797,
      "unque": 1798,
      "fica": 1799,
      "Ġcorri": 1800,
      "AS": 1801,
      "pera": 1802,
      "Ġcontra": 1803,
      "ĠJo": 1804,
      "Ġ195": 1805,
      "ity": 1806,
      "uerra": 1807,
      "Su": 1808,
      "ea": 1809,
      "Ġversion": 1810,
      "QuÃ©": 1811,
      "Ġextra": 1812,
      "ĠmirÃ³": 1813,
      "Ġsho": 1814,
      "az": 1815,
      "cle": 1816,
      "ĠGen": 1817,
      "arrol": 1818,
      "iso": 1819,
      "ĠhabitaciÃ³n": 1820,
      "load": 1821,
      "ey": 1822,
      "ave": 1823,
      "Ġtor": 1824,
      "ally": 1825,
      "Ġtri": 1826,
      "Ġeno": 1827,
      "ĠjardÃŃn": 1828,
      "ĠsentÃŃa": 1829,
      "Ch": 1830,
      "module": 1831,
      "main": 1832,
      "Ġimportante": 1833,
      "ler": 1834,
      "ĠVio": 1835,
      "ĠVal": 1836,
      "Ġamable": 1837,
      "rero": 1838,
      "tÃ¡n": 1839,
      "ename": 1840,
      "Ġban": 1841,
      "ĠPor": 1842,
      "Ġpath": 1843,
      "arlo": 1844,
      "Ġmor": 1845,
      "laciÃ³n": 1846,
      "ĠSal": 1847,
      "ans": 1848,
      "ĠAm": 1849,
      "iones": 1850,
      "Ġline": 1851,
      "ĠmÃºs": 1852,
      "Ġanti": 1853,
      "jeron": 1854,
      "rÃŃ": 1855,
      "Ġconfig": 1856,
      "Ġcuidado": 1857,
      "Ġwill": 1858,
      "Ġalgunas": 1859,
      "od": 1860,
      "dia": 1861,
      "ĠThis": 1862,
      "Ġtermin": 1863,
      "ĠJuan": 1864,
      "Ġprimera": 1865,
      "ĠmÃ¡": 1866,
      "ole": 1867,
      "Ġuser": 1868,
      "Ġmano": 1869,
      "Ġalegr": 1870,
      "'}": 1871,
      "ĠSon": 1872,
      "ĠAsÃŃ": 1873,
      "tive": 1874,
      "back": 1875,
      "ĊĠĠĠĠĠĠĠĠĠĠĠĠĠĠĠĠĠĠĠĠĠĠĠĠĠĠĠĠĠĠĠĠĠĠĠĠ": 1876,
      "fields": 1877,
      "Ġ9": 1878,
      "acter": 1879,
      "base": 1880,
      "gs": 1881,
      "Re": 1882,
      "ĠJos": 1883,
      "mon": 1884,
      "Ã³g": 1885,
      "wargs": 1886,
      "Ġinf": 1887,
      "Ġhecho": 1888,
      "ant": 1889,
      "Ġ[]": 1890,
      "iciÃ³n": 1891,
      "pio": 1892,
      "ĠvolviÃ³": 1893,
      "riz": 1894,
      "Ġpass": 1895,
      "Ãºb": 1896,
      "Ġreci": 1897,
      "Ġtoda": 1898,
      "Ġnombre": 1899,
      "ientos": 1900,
      "ila": 1901,
      "ya": 1902,
      "ĠMe": 1903,
      "Ġcur": 1904,
      "ĠnÃºm": 1905,
      "Ġtras": 1906,
      "Cuando": 1907,
      "ight": 1908,
      "Ġsido": 1909,
      "ios": 1910,
      "default": 1911,
      "Ã±ec": 1912,
      "bas": 1913,
      "Ġdesarrol": 1914,
      "Ġatra": 1915,
      "Ġrepres": 1916,
      "pido": 1917,
      "Ġpresiden": 1918,
      "cuent": 1919,
      "ID": 1920,
      "cuer": 1921,
      "Ã³m": 1922,
      "mar": 1923,
      "illo": 1924,
      "Ġpob": 1925,
      "inas": 1926,
      "ĠniÃ±os": 1927,
      "ĠmuÃ±ec": 1928,
      "Ġwe": 1929,
      "Ġpon": 1930,
      "work": 1931,
      "biÃ³": 1932,
      "Ġbosque": 1933,
      "Ġapar": 1934,
      "Ġmil": 1935,
      "tener": 1936,
      "ema": 1937,
      "Ġ.": 1938,
      "Ġpy": 1939,
      "vos": 1940,
      "Ġluego": 1941,
      "ĠĠĠĠĠĠ": 1942,
      "dy": 1943,
      "rent": 1944,
      "Ġbajo": 1945,
      "Ġlu": 1946,
      "group": 1947,
      "18": 1948,
      "ny": 1949,
      "Ġlin": 1950,
      "ĠÃ": 1951,
      "Ġvolver": 1952,
      "Ġmom": 1953,
      "Ġcomple": 1954,
      "Ġdeb": 1955,
      "ther": 1956,
      "Ġdar": 1957,
      "ME": 1958,
      "ĠCuando": 1959,
      "trar": 1960,
      "iano": 1961,
      "Por": 1962,
      "ducciÃ³n": 1963,
      ".__": 1964,
      "max": 1965,
      "Ġgob": 1966,
      "Ġhistoria": 1967,
      "vin": 1968,
      "Ġ+=": 1969,
      "pid": 1970,
      "peci": 1971,
      "update": 1972,
      "Ãºlti": 1973,
      "Ġhay": 1974,
      "Ġgrandes": 1975,
      "Ġdivertido": 1976,
      "Ġalto": 1977,
      "ĠEstados": 1978,
      "aut": 1979,
      "ĠUnidos": 1980,
      "Pro": 1981,
      "cs": 1982,
      "cido": 1983,
      "Ġclass": 1984,
      "esto": 1985,
      "istema": 1986,
      "Ġmas": 1987,
      "ĠMia": 1988,
      "Ġconoci": 1989,
      "sor": 1990,
      "ĠrÃ¡pido": 1991,
      "Ġotras": 1992,
      "ientras": 1993,
      "Ġnew": 1994,
      "izaciÃ³n": 1995,
      "Ġconsi": 1996,
      "dis": 1997,
      "string": 1998,
      "size": 1999,
      "IC": 2000,
      "instance": 2001,
      ".\"\"\"": 2002,
      "NU": 2003,
      "Ġidea": 2004,
      "Ġsac": 2005,
      "ables": 2006,
      "quired": 2007,
      "Ġstring": 2008,
      "abel": 2009,
      "Ġdistribu": 2010,
      "Ġcoche": 2011,
      "version": 2012,
      "Ġ['": 2013,
      "tial": 2014,
      "Ġpin": 2015,
      "ĠNa": 2016,
      "terior": 2017,
      "([": 2018,
      "parse": 2019,
      "32": 2020,
      "())": 2021,
      "aria": 2022,
      "Ġsign": 2023,
      "arch": 2024,
      "Ġaz": 2025,
      "rag": 2026,
      "Ġbol": 2027,
      "Ġpad": 2028,
      "Ġgato": 2029,
      "Ġpartir": 2030,
      "Ġeso": 2031,
      "Ġencuent": 2032,
      "ocu": 2033,
      "Ġtime": 2034,
      "iiiiiiii": 2035,
      "oteo": 2036,
      "respon": 2037,
      "alle": 2038,
      "table": 2039,
      "Ġhum": 2040,
      "Ġint": 2041,
      "ĠTambiÃ©n": 2042,
      "rÃ³": 2043,
      "vice": 2044,
      "Ġotra": 2045,
      "ecu": 2046,
      "django": 2047,
      "Ġcolor": 2048,
      "Ġcant": 2049,
      "Ġfield": 2050,
      "tern": 2051,
      "Ġunder": 2052,
      "RO": 2053,
      "Ã¡l": 2054,
      "ĠbritÃ¡n": 2055,
      "Ġdelici": 2056,
      "ĠâĢ": 2057,
      "Ġexist": 2058,
      "ses": 2059,
      "Ġescritor": 2060,
      "uct": 2061,
      "trol": 2062,
      "gram": 2063,
      "tÃ³n": 2064,
      "cina": 2065,
      "Com": 2066,
      "Tim": 2067,
      "ĠTien": 2068,
      "Ġ|": 2069,
      "Ġavent": 2070,
      "ĠAN": 2071,
      "ick": 2072,
      "mis": 2073,
      "ence": 2074,
      "Ġbuen": 2075,
      "Pue": 2076,
      "error": 2077,
      "Ġmes": 2078,
      "Ġ**": 2079,
      "Ġsuelo": 2080,
      "ds": 2081,
      "trib": 2082,
      "16": 2083,
      "Ġpreocu": 2084,
      "Ġtienen": 2085,
      "iter": 2086,
      "čĊĠĠĠĠĠĠĠ": 2087,
      "item": 2088,
      "bal": 2089,
      "ivers": 2090,
      "DE": 2091,
      "tain": 2092,
      "Ġpudo": 2093,
      "Ġhan": 2094,
      "ĠIf": 2095,
      "sub": 2096,
      "utils": 2097,
      "pli": 2098,
      "Ġcel": 2099,
      "pan": 2100,
      "Ġfa": 2101,
      "Ġfo": 2102,
      "Ġsur": 2103,
      "Ġpuerta": 2104,
      "racias": 2105,
      "Ġgru": 2106,
      "ĠrespondiÃ³": 2107,
      "Ġelif": 2108,
      "run": 2109,
      "cto": 2110,
      "Ġht": 2111,
      "ierno": 2112,
      "gÃºn": 2113,
      "ages": 2114,
      "ierra": 2115,
      "ĠallÃŃ": 2116,
      "gth": 2117,
      "ticos": 2118,
      "Ġcuer": 2119,
      "idades": 2120,
      "num": 2121,
      "ĠLuc": 2122,
      "'],": 2123,
      "Ġparam": 2124,
      "ĠEspaÃ±a": 2125,
      "].": 2126,
      "ved": 2127,
      "Ġconstru": 2128,
      "ĠcorriÃ³": 2129,
      "Ġdoc": 2130,
      "Ġ192": 2131,
      "ance": 2132,
      "tad": 2133,
      "Ġfi": 2134,
      "Ġ{}": 2135,
      "plica": 2136,
      "gos": 2137,
      "Ben": 2138,
      "Ġpronto": 2139,
      "Ġ->": 2140,
      "ĠpolÃŃtico": 2141,
      "una": 2142,
      "bajo": 2143,
      "forma": 2144,
      "11": 2145,
      "Ġgeneral": 2146,
      "Ġ/": 2147,
      "Ġruido": 2148,
      "rado": 2149,
      "tonces": 2150,
      "Ġurl": 2151,
      "Ġnp": 2152,
      "Ġnada": 2153,
      "Ġtarde": 2154,
      "Ġveces": 2155,
      "Ġmomento": 2156,
      "Ġprom": 2157,
      "Ġpersonas": 2158,
      "yo": 2159,
      "jer": 2160,
      "erg": 2161,
      "sible": 2162,
      "bido": 2163,
      "Ġobject": 2164,
      "ĠGeneral": 2165,
      "ep": 2166,
      "Ġactor": 2167,
      "Ġerror": 2168,
      "tien": 2169,
      "Ġnueva": 2170,
      "tuvo": 2171,
      "ecciÃ³n": 2172,
      "tivos": 2173,
      "lib": 2174,
      "Ġdibu": 2175,
      "ĠSus": 2176,
      "Ġshould": 2177,
      "atro": 2178,
      "Ġexplorar": 2179,
      "md": 2180,
      "ample": 2181,
      "UR": 2182,
      "čĊĠĠĠ": 2183,
      "vier": 2184,
      "write": 2185,
      "ĠagradeciÃ³": 2186,
      "cula": 2187,
      "uela": 2188,
      "Ġcolum": 2189,
      "pyright": 2190,
      "ĠÃºlti": 2191,
      "AB": 2192,
      "emplo": 2193,
      "edad": 2194,
      "nec": 2195,
      "ĠaÃºn": 2196,
      "To": 2197,
      "Ġsistema": 2198,
      "Ġtrabajo": 2199,
      "Ġoutput": 2200,
      "Ġbal": 2201,
      "ĊĠĠĠĠĠĠĠĠĠ": 2202,
      "ologÃŃa": 2203,
      "EstÃ¡": 2204,
      "As": 2205,
      "tada": 2206,
      "Ġcomun": 2207,
      "ĠMa": 2208,
      "amiento": 2209,
      "ĠAb": 2210,
      "rer": 2211,
      "taciÃ³n": 2212,
      "Ġrel": 2213,
      "arios": 2214,
      "Ġbase": 2215,
      "play": 2216,
      "tan": 2217,
      "Ġesto": 2218,
      "čĊ": 2219,
      "Ġemocionada": 2220,
      "create": 2221,
      "ĠJosÃ©": 2222,
      "index": 2223,
      "Ġdiferentes": 2224,
      "rid": 2225,
      "Ġrequest": 2226,
      "Ġlocal": 2227,
      "Ġvida": 2228,
      "yn": 2229,
      "ĠDesde": 2230,
      "Ġutiliz": 2231,
      "Par": 2232,
      "quier": 2233,
      "Ġembar": 2234,
      "(),": 2235,
      "Ġfuera": 2236,
      "Ġfe": 2237,
      "plit": 2238,
      "ire": 2239,
      "Ġesp": 2240,
      "ose": 2241,
      "ĊĊĠĠĠĠĠĠĠĠĠĠĠ": 2242,
      "eja": 2243,
      "ress": 2244,
      "itor": 2245,
      "Ġactriz": 2246,
      "Ġrecord": 2247,
      "Ġ\\": 2248,
      "Ġvieron": 2249,
      "demÃ¡s": 2250,
      "Ġorgan": 2251,
      "fix": 2252,
      "adores": 2253,
      "Ġyou": 2254,
      "dil": 2255,
      "ilar": 2256,
      "ĠsaliÃ³": 2257,
      "Ġpri": 2258,
      "ini": 2259,
      "cÃŃa": 2260,
      "request": 2261,
      "actor": 2262,
      "eter": 2263,
      "vid": 2264,
      "IL": 2265,
      "hape": 2266,
      "Ġtem": 2267,
      "Ġvaliente": 2268,
      "ĠSi": 2269,
      "cÃ©s": 2270,
      "ciden": 2271,
      "result": 2272,
      "udo": 2273,
      "Ġindi": 2274,
      "Ġcompartir": 2275,
      "Ġref": 2276,
      "Ġgan": 2277,
      "Ġexten": 2278,
      "ifica": 2279,
      "fec": 2280,
      "ello": 2281,
      "uri": 2282,
      "IS": 2283,
      "ks": 2284,
      "Ġcabeza": 2285,
      "dades": 2286,
      "with": 2287,
      "Ġactual": 2288,
      "AC": 2289,
      "ĠPro": 2290,
      "ĠpensÃ³": 2291,
      "ella": 2292,
      "Ġnor": 2293,
      "olÃ³g": 2294,
      "mit": 2295,
      "pios": 2296,
      "tio": 2297,
      "return": 2298,
      "cado": 2299,
      "ilo": 2300,
      "Ã¡r": 2301,
      "Ġhici": 2302,
      "top": 2303,
      "Ġemocionado": 2304,
      "ĠabrazÃ³": 2305,
      "trÃ¡s": 2306,
      "ible": 2307,
      "rieron": 2308,
      "Ġproble": 2309,
      "ram": 2310,
      "ĠCas": 2311,
      "Ġedi": 2312,
      "params": 2313,
      "pected": 2314,
      "ED": 2315,
      "ET": 2316,
      "ĠnÃºmero": 2317,
      "json": 2318,
      "Ġflores": 2319,
      "tales": 2320,
      "Ġcul": 2321,
      "ĠGu": 2322,
      "arÃŃa": 2323,
      "tribu": 2324,
      "map": 2325,
      "chas": 2326,
      "ken": 2327,
      "Ġespeci": 2328,
      "Ġlibro": 2329,
      "\"Â¿": 2330,
      "ĠBob": 2331,
      "rÃ¡": 2332,
      "sh": 2333,
      "Ġ12": 2334,
      "Ġpapel": 2335,
      "Ġobserv": 2336,
      "state": 2337,
      "Ġauto": 2338,
      "================": 2339,
      "teg": 2340,
      "Ġglo": 2341,
      "Ġpat": 2342,
      "pidamente": 2343,
      "Ġqui": 2344,
      "Ġrun": 2345,
      "ĠEm": 2346,
      "Ġconse": 2347,
      "ĠllevÃ³": 2348,
      "net": 2349,
      "Ġ!": 2350,
      "Ġvia": 2351,
      "print": 2352,
      "Po": 2353,
      "ped": 2354,
      "vÃ©s": 2355,
      "Ġ14": 2356,
      "Ċĉĉĉ": 2357,
      "Ġcono": 2358,
      "our": 2359,
      "ĠTimoteo": 2360,
      "led": 2361,
      "Ġenoj": 2362,
      "Ġhaciendo": 2363,
      "obj": 2364,
      "Ġpastel": 2365,
      "estra": 2366,
      "gar": 2367,
      "Ã¡m": 2368,
      "Ġtienda": 2369,
      "almente": 2370,
      "Ġdese": 2371,
      "Ġhace": 2372,
      "ulti": 2373,
      "AquÃŃ": 2374,
      "Ġsegun": 2375,
      "Ġpresidente": 2376,
      "cuerdo": 2377,
      "Ã©ndose": 2378,
      "Ġvoz": 2379,
      "ĠhabÃŃan": 2380,
      "ĠMo": 2381,
      "ĠAle": 2382,
      "ĠOR": 2383,
      "tle": 2384,
      "Ġdist": 2385,
      "tings": 2386,
      "Ġembargo": 2387,
      "Ġquier": 2388,
      "li": 2389,
      "loat": 2390,
      "ron": 2391,
      "ĠIm": 2392,
      "ource": 2393,
      "Ġequi": 2394,
      "Ġaunque": 2395,
      "Ġmode": 2396,
      "Ġfir": 2397,
      "fon": 2398,
      "tados": 2399,
      "rando": 2400,
      "################################": 2401,
      "ĠGNU": 2402,
      "Ġsiendo": 2403,
      "ws": 2404,
      "eturn": 2405,
      "Ġunos": 2406,
      "kwargs": 2407,
      "ĠtravÃ©s": 2408,
      "Ġneg": 2409,
      "Ġcrea": 2410,
      "Ġojos": 2411,
      "Ġcuri": 2412,
      "Ġoc": 2413,
      "Ġmanera": 2414,
      "ÃŃr": 2415,
      "Ġrealiz": 2416,
      "MP": 2417,
      "html": 2418,
      "15": 2419,
      "Ġargs": 2420,
      "Ġ!=": 2421,
      "itas": 2422,
      "ece": 2423,
      "dida": 2424,
      "char": 2425,
      "output": 2426,
      "node": 2427,
      "ĠSin": 2428,
      "Ġcomp": 2429,
      "Ġcomida": 2430,
      "Ġdivirtieron": 2431,
      "'s": 2432,
      "tis": 2433,
      "Ġdescu": 2434,
      "Ġig": 2435,
      "TER": 2436,
      "Ġcheck": 2437,
      "ĠsiguiÃ³": 2438,
      "ach": 2439,
      "Ġproces": 2440,
      "cor": 2441,
      "Ġquien": 2442,
      "Ġspeci": 2443,
      "Ġtemp": 2444,
      "Ġmir": 2445,
      "ĠfrancÃ©s": 2446,
      "Ġrecog": 2447,
      "pol": 2448,
      "cios": 2449,
      "api": 2450,
      "Ġlado": 2451,
      "ĠtraducciÃ³n": 2452,
      "idas": 2453,
      "ĠacercÃ³": 2454,
      "its": 2455,
      "ĠCan": 2456,
      "check": 2457,
      "ĠquedÃ³": 2458,
      "host": 2459,
      "0000": 2460,
      "cel": 2461,
      "64": 2462,
      "Ġargent": 2463,
      "Ġnatur": 2464,
      "atura": 2465,
      "men": 2466,
      "blo": 2467,
      "Ġescon": 2468,
      "tring": 2469,
      "ner": 2470,
      "gan": 2471,
      "ude": 2472,
      "sys": 2473,
      "Ġazul": 2474,
      "Qui": 2475,
      "orro": 2476,
      "ulio": 2477,
      "dial": 2478,
      "Ġsiguiente": 2479,
      "Ġdul": 2480,
      "Ġ,": 2481,
      "pti": 2482,
      "Ġasin": 2483,
      "ING": 2484,
      "ish": 2485,
      "view": 2486,
      "Ġincluso": 2487,
      "Ġahora": 2488,
      "ecÃŃa": 2489,
      "ĠpoblaciÃ³n": 2490,
      "Ġsentir": 2491,
      "Ġ[],": 2492,
      "Ġmol": 2493,
      "tamente": 2494,
      "Ġhor": 2495,
      "Ġcontext": 2496,
      "cript": 2497,
      "Ġgol": 2498,
      "Gracias": 2499,
      "().": 2500,
      "depen": 2501,
      "Ġcompu": 2502,
      "ĠpidiÃ³": 2503,
      "CH": 2504,
      "ral": 2505,
      "urse": 2506,
      "ĠÃī": 2507,
      "status": 2508,
      "late": 2509,
      "bin": 2510,
      "Ġecon": 2511,
      "Ġadd": 2512,
      "Ġhave": 2513,
      "dd": 2514,
      "ĠPue": 2515,
      "ĠTe": 2516,
      "Ġtal": 2517,
      "ĠSol": 2518,
      "Name": 2519,
      "visiÃ³n": 2520,
      "Ġelec": 2521,
      "Ġdjango": 2522,
      "zas": 2523,
      "Ġagu": 2524,
      "argo": 2525,
      "Ġpalab": 2526,
      "Ġalcan": 2527,
      "Ġdirector": 2528,
      "Vamos": 2529,
      "ĠLuego": 2530,
      "anas": 2531,
      "place": 2532,
      "Ġorden": 2533,
      "via": 2534,
      "ĠPublic": 2535,
      "client": 2536,
      "Ġtipo": 2537,
      "Ġblo": 2538,
      "Ġconten": 2539,
      "'])": 2540,
      "nos": 2541,
      "input": 2542,
      "Ġhttp": 2543,
      "Ġacuerdo": 2544,
      "Ġdif": 2545,
      "ais": 2546,
      "oy": 2547,
      "Ġresponse": 2548,
      "Â».": 2549,
      "ĠmÃ©": 2550,
      "Ġdijeron": 2551,
      "Ġrey": 2552,
      "istas": 2553,
      "Ġcantante": 2554,
      "Ġmisma": 2555,
      "Ġcorriendo": 2556,
      "Ġenero": 2557,
      "pack": 2558,
      "Ġprogram": 2559,
      "inalmente": 2560,
      "usto": 2561,
      "volu": 2562,
      "jero": 2563,
      "tag": 2564,
      "ĠdÃ©": 2565,
      "context": 2566,
      "Ġcolores": 2567,
      "ĠPo": 2568,
      "ĠÃģ": 2569,
      "Ġdescription": 2570,
      "core": 2571,
      "jari": 2572,
      "ĠBa": 2573,
      "mÃ¡n": 2574,
      "Ġpan": 2575,
      "Ġencontra": 2576,
      "msg": 2577,
      "cket": 2578,
      "Ġing": 2579,
      "www": 2580,
      "Ġusar": 2581,
      "seÃ±": 2582,
      "zos": 2583,
      "jarito": 2584,
      "ki": 2585,
      "'t": 2586,
      "ĠCol": 2587,
      "remo": 2588,
      "ume": 2589,
      "ĠOF": 2590,
      "Ġsoftware": 2591,
      "Ġher": 2592,
      "Ġital": 2593,
      "Ġiba": 2594,
      "Type": 2595,
      "'\\": 2596,
      "Ġves": 2597,
      "Ġejemplo": 2598,
      "Ġlejos": 2599,
      "uen": 2600,
      "xim": 2601,
      "viera": 2602,
      "Ġcorre": 2603,
      "ENT": 2604,
      "Ġcopy": 2605,
      "ĠgritÃ³": 2606,
      "ION": 2607,
      "...": 2608,
      "UL": 2609,
      "Ġsiento": 2610,
      "Ġany": 2611,
      "Ġexpres": 2612,
      "Ġpajarito": 2613,
      "Ġfuerza": 2614,
      "Ġconsidera": 2615,
      "fÃŃa": 2616,
      "start": 2617,
      "aran": 2618,
      "Ġcorrer": 2619,
      "tart": 2620,
      "ĠmÃºsica": 2621,
      "Ġparti": 2622,
      "Ã¼": 2623,
      "Ġbuscar": 2624,
      "Ġcin": 2625,
      "********": 2626,
      "ua": 2627,
      "II": 2628,
      "Ġprop": 2629,
      "culo": 2630,
      "method": 2631,
      "Ġmilitar": 2632,
      "ĠCada": 2633,
      "itos": 2634,
      "Ġopen": 2635,
      "14": 2636,
      "exic": 2637,
      "AP": 2638,
      "Ġhora": 2639,
      "Ġsuave": 2640,
      "Ġgrupo": 2641,
      "ÃŃm": 2642,
      "Ġgobierno": 2643,
      "tando": 2644,
      "ilidad": 2645,
      "Ġpartes": 2646,
      "Ġorgullosa": 2647,
      "Ġrequired": 2648,
      "Ġlargo": 2649,
      "AD": 2650,
      "Ġblan": 2651,
      "cis": 2652,
      "Ġsalvo": 2653,
      "ĠrÃ¡pidamente": 2654,
      "Ġamiga": 2655,
      "sions": 2656,
      "Ġjuego": 2657,
      "Hola": 2658,
      "17": 2659,
      "Ġbeb": 2660,
      "ĠÃºn": 2661,
      "tab": 2662,
      "ebrero": 2663,
      "Las": 2664,
      "split": 2665,
      "Ġcode": 2666,
      "Ġterri": 2667,
      "Ġsel": 2668,
      "lado": 2669,
      "PO": 2670,
      "Ġbut": 2671,
      "length": 2672,
      "Res": 2673,
      "~~": 2674,
      "inter": 2675,
      "ustri": 2676,
      "ples": 2677,
      "igui": 2678,
      "Ġ25": 2679,
      "Ġgente": 2680,
      "cidad": 2681,
      "content": 2682,
      "Ġcamino": 2683,
      "Ġestos": 2684,
      "perty": 2685,
      "ye": 2686,
      "raciÃ³n": 2687,
      "Ġdici": 2688,
      "osto": 2689,
      "inos": 2690,
      "'.": 2691,
      "30": 2692,
      "Val": 2693,
      "don": 2694,
      "hi": 2695,
      "label": 2696,
      "IG": 2697,
      "Ġcall": 2698,
      "ging": 2699,
      "Ġcontent": 2700,
      "Ġjun": 2701,
      "cent": 2702,
      "Ġelement": 2703,
      "Ġused": 2704,
      "eo": 2705,
      "Ġ190": 2706,
      "ĠEuro": 2707,
      "has": 2708,
      "Ġcompr": 2709,
      "Ġren": 2710,
      "Ġtomar": 2711,
      "AsÃŃ": 2712,
      "Ġperio": 2713,
      "An": 2714,
      "ĊĠĠĠĠĠĠĠĠ": 2715,
      "Ġnoche": 2716,
      "Ġsa": 2717,
      "Ġrecon": 2718,
      "Ġmanos": 2719,
      "Ġprovin": 2720,
      "Ġmad": 2721,
      "22": 2722,
      "lay": 2723,
      "Ġcompos": 2724,
      "Ġcama": 2725,
      "HE": 2726,
      "ĠbritÃ¡nico": 2727,
      "ĠveÃŃa": 2728,
      "ix": 2729,
      "Ġguerra": 2730,
      "ptiembre": 2731,
      "Ġdest": 2732,
      "Ġpuedes": 2733,
      "pas": 2734,
      "ific": 2735,
      "Ã³r": 2736,
      "ector": 2737,
      "Ġtext": 2738,
      "we": 2739,
      "tail": 2740,
      "ĠANY": 2741,
      "Ġdict": 2742,
      "nection": 2743,
      "Ġdiciembre": 2744,
      "RAN": 2745,
      "ubre": 2746,
      "Timmy": 2747,
      "ĠEste": 2748,
      "Ġestudi": 2749,
      "ueva": 2750,
      "trans": 2751,
      "ĠĊĊ": 2752,
      "ĠhacÃŃa": 2753,
      "Ġup": 2754,
      "Ġmayo": 2755,
      "ĠTest": 2756,
      "Ġmujer": 2757,
      "ĠVen": 2758,
      "Ġtotal": 2759,
      "types": 2760,
      "Ġbusc": 2761,
      "Mira": 2762,
      "ies": 2763,
      "lor": 2764,
      "Ġind": 2765,
      "Ġsomb": 2766,
      "python": 2767,
      "ĠFue": 2768,
      "frut": 2769,
      "Ġdistributed": 2770,
      "imiento": 2771,
      "ĠPa": 2772,
      "Ġitem": 2773,
      "posa": 2774,
      "row": 2775,
      "eso": 2776,
      "*-": 2777,
      "event": 2778,
      "plic": 2779,
      "Ġdecir": 2780,
      "Ġlab": 2781,
      "Ġfunction": 2782,
      "isa": 2783,
      "terna": 2784,
      "Cl": 2785,
      "Ġcris": 2786,
      "Ã¡c": 2787,
      "Ġlevan": 2788,
      "ctubre": 2789,
      "HO": 2790,
      "header": 2791,
      "app": 2792,
      "ĠmuÃ±eca": 2793,
      "Ġagosto": 2794,
      "deo": 2795,
      "Ġsit": 2796,
      "Ġmill": 2797,
      "cimiento": 2798,
      "ĠÃīl": 2799,
      "Ġescal": 2800,
      "Ġcondu": 2801,
      "andler": 2802,
      "eric": 2803,
      "'):": 2804,
      "CO": 2805,
      "aca": 2806,
      "ĠMon": 2807,
      "Ġmer": 2808,
      "env": 2809,
      "Ġfol": 2810,
      "hn": 2811,
      "ĠMarÃŃa": 2812,
      "ĠabriÃ³": 2813,
      "Ãºblica": 2814,
      "Ġder": 2815,
      "Ġfebrero": 2816,
      "ĠMirÃ³": 2817,
      "Ġestable": 2818,
      "presa": 2819,
      "Ġapro": 2820,
      "ĠintentÃ³": 2821,
      "Ġprote": 2822,
      "ĠaquÃŃ": 2823,
      "Ġmater": 2824,
      "ĠcamiÃ³n": 2825,
      "Ġllegaron": 2826,
      "DespuÃ©s": 2827,
      "Ġinten": 2828,
      "Set": 2829,
      "Ġestan": 2830,
      "Ġlimpi": 2831,
      "ĠrÃŃo": 2832,
      "Ġenf": 2833,
      "Ġpub": 2834,
      "ĠmostrÃ³": 2835,
      "sho": 2836,
      "ĠLu": 2837,
      "Ġmarzo": 2838,
      "valid": 2839,
      "ĠIN": 2840,
      "Ġ-*-": 2841,
      "options": 2842,
      "ESS": 2843,
      "pace": 2844,
      "title": 2845,
      "Ġflor": 2846,
      "Ġevent": 2847,
      "igo": 2848,
      "erte": 2849,
      "rup": 2850,
      "ĠEstaban": 2851,
      "File": 2852,
      "200": 2853,
      "fy": 2854,
      "Ġmexic": 2855,
      "rc": 2856,
      "arning": 2857,
      "sol": 2858,
      "raba": 2859,
      "Ġsup": 2860,
      "Ġmodi": 2861,
      "chos": 2862,
      "gel": 2863,
      "cada": 2864,
      "Ġobj": 2865,
      "Ã±as": 2866,
      "rap": 2867,
      "ĠasintiÃ³": 2868,
      "</": 2869,
      "Ġnode": 2870,
      "array": 2871,
      "ares": 2872,
      "Ġcaracter": 2873,
      "Ġabuela": 2874,
      "ĠdetrÃ¡s": 2875,
      "ĠCam": 2876,
      "Ġchar": 2877,
      "Ġur": 2878,
      "Ġjulio": 2879,
      "Ġmari": 2880,
      "Ġmalo": 2881,
      "Ġimag": 2882,
      "Ġley": 2883,
      "ĠCopyright": 2884,
      "Ana": 2885,
      "Ġfinalmente": 2886,
      "Ġjunto": 2887,
      "fico": 2888,
      "13": 2889,
      "risa": 2890,
      "ĠGran": 2891,
      "Ġseptiembre": 2892,
      "Ġocu": 2893,
      "ĠtenÃŃan": 2894,
      "indo": 2895,
      "Ġmatch": 2896,
      "Ġge": 2897,
      "taron": 2898,
      "Ar": 2899,
      "Ġmethod": 2900,
      "201": 2901,
      "Ġconf": 2902,
      "eters": 2903,
      "Sara": 2904,
      "sed": 2905,
      "ĠSee": 2906,
      "tillo": 2907,
      "ĠLucÃŃa": 2908,
      "ĠMÃ©": 2909,
      "ait": 2910,
      "erto": 2911,
      "Ġmantener": 2912,
      "Puedo": 2913,
      "xico": 2914,
      "Ġase": 2915,
      "Ġpersona": 2916,
      ">>": 2917,
      "Ġhu": 2918,
      "ĠriÃ³": 2919,
      "Ġbot": 2920,
      "pass": 2921,
      "Ġsorpren": 2922,
      "Ġpublic": 2923,
      "oro": 2924,
      "entos": 2925,
      "Ġinput": 2926,
      "Ġop": 2927,
      "Ġjue": 2928,
      "Ġ189": 2929,
      "unda": 2930,
      "ef": 2931,
      "ĠMad": 2932,
      "ister": 2933,
      "40": 2934,
      "dencia": 2935,
      "Ġcontinu": 2936,
      "dr": 2937,
      "Ġcocina": 2938,
      "AG": 2939,
      "Ġsh": 2940,
      "tista": 2941,
      "ĠRo": 2942,
      "ĠOr": 2943,
      "Ġdin": 2944,
      "ĠBar": 2945,
      "rada": 2946,
      "Ġoctubre": 2947,
      "utf": 2948,
      "Ġabril": 2949,
      "viembre": 2950,
      "ĠQui": 2951,
      "arla": 2952,
      "Ġmodels": 2953,
      "Ġmenos": 2954,
      "tivi": 2955,
      "bog": 2956,
      "attr": 2957,
      "ami": 2958,
      "Ġpase": 2959,
      "ref": 2960,
      "ĠCON": 2961,
      "Ġtocar": 2962,
      "Ġrefer": 2963,
      "process": 2964,
      "Ġincluy": 2965,
      "lete": 2966,
      "Key": 2967,
      "Ġbarco": 2968,
      "Ã©rica": 2969,
      "Ġcontrol": 2970,
      "'))": 2971,
      "ĠWAR": 2972,
      "Ġvisto": 2973,
      "Ġjunio": 2974,
      "Ġtro": 2975,
      "Ġanci": 2976,
      "Ġconej": 2977,
      "ann": 2978,
      "Ġmejores": 2979,
      "Ġlengua": 2980,
      "ĠlÃŃ": 2981,
      "Ġaventura": 2982,
      "Ġnatural": 2983,
      "Ġconver": 2984,
      "ĠPer": 2985,
      "dilla": 2986,
      "Ġcommand": 2987,
      "tera": 2988,
      "Ġdespi": 2989,
      "Ġvolar": 2990,
      "atos": 2991,
      "cito": 2992,
      "ns": 2993,
      "Ġalta": 2994,
      "ĠPens": 2995,
      "Ġterritor": 2996,
      "new": 2997,
      "ask": 2998,
      "ala": 2999,
      "Ġhicieron": 3000,
      "Ġpadres": 3001,
      "her": 3002,
      "--------------------------------": 3003,
      "Ġstate": 3004,
      "objects": 3005,
      "pÃ³": 3006,
      "ĊĠĠĠĠĠĠĠĠĠĠĠĠĠĠĠĠĠĠĠĠĠĠĠĠĠĠĠ": 3007,
      "cionales": 3008,
      "Ġpop": 3009,
      "Ġpermi": 3010,
      "Co": 3011,
      "\"),": 3012,
      "plo": 3013,
      "filter": 3014,
      "Me": 3015,
      "Ġrojo": 3016,
      "die": 3017,
      "Ġdisfrut": 3018,
      "Ã¡ndose": 3019,
      "ow": 3020,
      "ĠCl": 3021,
      "ĠIs": 3022,
      "ĠtomÃ³": 3023,
      "Ġrange": 3024,
      "response": 3025,
      "call": 3026,
      "Ġdescub": 3027,
      "tÃŃ": 3028,
      "rio": 3029,
      "rico": 3030,
      "Ġgo": 3031,
      "Ġpueblo": 3032,
      "ither": 3033,
      "Ġnumber": 3034,
      "sel": 3035,
      "ĠCorriÃ³": 3036,
      "ĠHabÃŃa": 3037,
      "Ġargentino": 3038,
      "Ġcho": 3039,
      "tig": 3040,
      "Ġsource": 3041,
      "mientos": 3042,
      "Case": 3043,
      "ange": 3044,
      "tribut": 3045,
      "Ġisinstance": 3046,
      "Ġrepresenta": 3047,
      "coding": 3048,
      "jes": 3049,
      "Ġport": 3050,
      "ITY": 3051,
      "Ġnorm": 3052,
      "ric": 3053,
      "Ġtobog": 3054,
      "Ġoption": 3055,
      "Ġamar": 3056,
      "Ġnuevas": 3057,
      "ĠMun": 3058,
      "asta": 3059,
      "ĠDespuÃ©s": 3060,
      "ĠmayorÃŃa": 3061,
      "Ġmsg": 3062,
      "Ġid": 3063,
      "Ġobra": 3064,
      "auth": 3065,
      "ĠvivÃŃa": 3066,
      "inaciÃ³n": 3067,
      "Ġother": 3068,
      "Ġet": 3069,
      "quer": 3070,
      "Ġtele": 3071,
      "Ġeleg": 3072,
      "doc": 3073,
      "ĠalegrÃ³": 3074,
      "ĠWARRAN": 3075,
      "ĠpÃ¡jaros": 3076,
      "Ġsuce": 3077,
      "Ġdate": 3078,
      "Ġgenera": 3079,
      "Ġfiles": 3080,
      "Ġcuidados": 3081,
      "olly": 3082,
      "mio": 3083,
      "Ġsos": 3084,
      "Ġestuvo": 3085,
      "ĠJa": 3086,
      "ste": 3087,
      "ancia": 3088,
      "ficial": 3089,
      "ite": 3090,
      "ĠalemÃ¡n": 3091,
      "Ġconejo": 3092,
      "filename": 3093,
      "50": 3094,
      "Ġst": 3095,
      "gre": 3096,
      "Ġini": 3097,
      "Ġavi": 3098,
      "Ġarri": 3099,
      "Ġ13": 3100,
      "alo": 3101,
      "ĠpodrÃŃa": 3102,
      "Ġindepen": 3103,
      "Ġ188": 3104,
      "dire": 3105,
      "Ġarreg": 3106,
      "Ġtierra": 3107,
      "ĠRa": 3108,
      "ital": 3109,
      "zan": 3110,
      "verse": 3111,
      "Ġpied": 3112,
      "eve": 3113,
      "ĠDeci": 3114,
      "Ġrelig": 3115,
      "command": 3116,
      "TY": 3117,
      "uration": 3118,
      "Ġgi": 3119,
      "((": 3120,
      "cn": 3121,
      "diendo": 3122,
      "Data": 3123,
      "ory": 3124,
      "Era": 3125,
      "OT": 3126,
      "fied": 3127,
      "Ġhermoso": 3128,
      "ĠWIT": 3129,
      "Ġta": 3130,
      "Ġnoviembre": 3131,
      "lu": 3132,
      "ĠApren": 3133,
      "tup": 3134,
      "tiendo": 3135,
      "Ġllorar": 3136,
      "ym": 3137,
      "icode": 3138,
      "files": 3139,
      "ules": 3140,
      "Ġceleb": 3141,
      "xml": 3142,
      "Ġwhich": 3143,
      "Ġesa": 3144,
      "Ġvent": 3145,
      "Ġnacional": 3146,
      "Ġintel": 3147,
      "umb": 3148,
      "Ġdenom": 3149,
      "omÃŃa": 3150,
      "Ġponer": 3151,
      "23": 3152,
      "Ġdesta": 3153,
      "denti": 3154,
      "[:": 3155,
      "Ġmov": 3156,
      "dri": 3157,
      "match": 3158,
      "names": 3159,
      "Ġespa": 3160,
      "ĠquerÃŃan": 3161,
      "Ġprimero": 3162,
      "Ġpunto": 3163,
      "Ġincre": 3164,
      "ĠdejÃ³": 3165,
      "Ġaire": 3166,
      "cesa": 3167,
      "ĠÃ¡rboles": 3168,
      "Ġcampo": 3169,
      "Ġdebido": 3170,
      "cla": 3171,
      "gur": 3172,
      "Ġcondi": 3173,
      "edro": 3174,
      "Ġdefin": 3175,
      "Ġcay": 3176,
      "hout": 3177,
      "TR": 3178,
      "Ġesti": 3179,
      "mail": 3180,
      "Ġmedio": 3181,
      "source": 3182,
      "ĠdemÃ¡s": 3183,
      "LO": 3184,
      "Ġheader": 3185,
      "ols": 3186,
      "idth": 3187,
      "point": 3188,
      "Ġorgulloso": 3189,
      "ciales": 3190,
      "Ġrato": 3191,
      "ĠDice": 3192,
      "message": 3193,
      "sum": 3194,
      "sign": 3195,
      "Ġremo": 3196,
      "ĠmaÃ±": 3197,
      "Ġdorm": 3198,
      "ĠtobogÃ¡n": 3199,
      "Ġcaus": 3200,
      "Ġcurrent": 3201,
      "oc": 3202,
      "ĠMÃ©xico": 3203,
      "Ġvarios": 3204,
      "dado": 3205,
      "apÃ¡": 3206,
      "Ġconejito": 3207,
      "Ġning": 3208,
      "apa": 3209,
      "21": 3210,
      "Ġasomb": 3211,
      "shape": 3212,
      "Ġlibros": 3213,
      "tiÃ©ndose": 3214,
      "ĠEsto": 3215,
      "ature": 3216,
      "face": 3217,
      "Ġgalle": 3218,
      "ĠYou": 3219,
      "talla": 3220,
      "Ġcuatro": 3221,
      "ithout": 3222,
      "zado": 3223,
      "Ġapo": 3224,
      "Ġnu": 3225,
      "Ġ'''": 3226,
      "ĠvolÃ³": 3227,
      "Ġcans": 3228,
      "Ã©l": 3229,
      "Ġolvid": 3230,
      "encias": 3231,
      "ental": 3232,
      "arga": 3233,
      "Ġmillones": 3234,
      "Ġtradi": 3235,
      "tribute": 3236,
      "sos": 3237,
      "ĠMientras": 3238,
      "Ġnivel": 3239,
      "Ġ'%": 3240,
      "ĠUnivers": 3241,
      "Ġmessage": 3242,
      "Ġconvir": 3243,
      "Ġargument": 3244,
      "Ġgracias": 3245,
      "Ġinforma": 3246,
      "bir": 3247,
      "ĠcÃ¡l": 3248,
      "ker": 3249,
      "Ġnuevos": 3250,
      "Ġcosa": 3251,
      "osos": 3252,
      "Ã³nde": 3253,
      "plied": 3254,
      "Ġfla": 3255,
      "open": 3256,
      "Ġbuena": 3257,
      "Ġantigu": 3258,
      "ĠmaÃ±ana": 3259,
      "Ġmus": 3260,
      "ĠtÃ©r": 3261,
      "stra": 3262,
      "andle": 3263,
      "IP": 3264,
      "ĠFo": 3265,
      "Ġnad": 3266,
      "Ġestas": 3267,
      "Ġobje": 3268,
      "Ġ(\"": 3269,
      "Ġformat": 3270,
      "ittest": 3271,
      "ĠEntonces": 3272,
      "Ġdejar": 3273,
      "Ã³lo": 3274,
      "ĠGuerra": 3275,
      "Ġdeter": 3276,
      "Ġexpected": 3277,
      "Ġ30": 3278,
      "Ġopera": 3279,
      "Ġlastim": 3280,
      "24": 3281,
      "este": 3282,
      "Ġvino": 3283,
      "umenta": 3284,
      "anza": 3285,
      "Ġenferm": 3286,
      "Ġdere": 3287,
      "ĠpodÃŃan": 3288,
      "ĠpelÃŃ": 3289,
      "Ġitaliano": 3290,
      "not": 3291,
      "ĠnotÃ³": 3292,
      "Ġpatio": 3293,
      "ĠsegÃºn": 3294,
      "ches": 3295,
      "Ġdb": 3296,
      "Model": 3297,
      "bles": 3298,
      "of": 3299,
      "'}),": 3300,
      "Ġcomenzaron": 3301,
      "Ġquiero": 3302,
      "Ġeither": 3303,
      "Ġexper": 3304,
      "Ġservi": 3305,
      "Ġmore": 3306,
      "ager": 3307,
      "Ġnorte": 3308,
      "Ġrieron": 3309,
      "Ġstart": 3310,
      "entro": 3311,
      "Ġboca": 3312,
      "ane": 3313,
      "ĠaprendiÃ³": 3314,
      "Ġsalir": 3315,
      "ython": 3316,
      "ĠEstÃ¡": 3317,
      "Ġestanque": 3318,
      "Ġpregun": 3319,
      "Ġend": 3320,
      "ms": 3321,
      "Ġdescri": 3322,
      "Ã¡ndo": 3323,
      "Ġoptions": 3324,
      "enses": 3325,
      "tivas": 3326,
      "Ġsaltar": 3327,
      "Ġarriba": 3328,
      "oll": 3329,
      "Ġcualquier": 3330,
      "Ġdej": 3331,
      "Ġregres": 3332,
      "Ġempe": 3333,
      "ĠRec": 3334,
      "ĠtÃ©": 3335,
      "Ġenerg": 3336,
      "cation": 3337,
      "eres": 3338,
      "ties": 3339,
      "iiiiiiiiiiiiiiii": 3340,
      "Mientras": 3341,
      "terra": 3342,
      "Ġmucha": 3343,
      "Ġinstance": 3344,
      "Ġesperar": 3345,
      "Sam": 3346,
      "ning": 3347,
      "Ġuso": 3348,
      "ĠVi": 3349,
      "Ġvalues": 3350,
      "pic": 3351,
      "Ġcreate": 3352,
      "Ġviento": 3353,
      "ĠVer": 3354,
      "Ġpresent": 3355,
      ".,": 3356,
      "Sta": 3357,
      "Ġresul": 3358,
      "Ġvestido": 3359,
      "ĠPre": 3360,
      "Ġconj": 3361,
      "Ġsonrisa": 3362,
      "find": 3363,
      "Ġprof": 3364,
      "azÃ³n": 3365,
      "ĠrecogiÃ³": 3366,
      "TP": 3367,
      "estro": 3368,
      "Ġformas": 3369,
      "DO": 3370,
      "Ġsil": 3371,
      "ĠVieron": 3372,
      "ML": 3373,
      "TestCase": 3374,
      "Ġbloques": 3375,
      "meta": 3376,
      "Ġgener": 3377,
      "ĠPr": 3378,
      "templa": 3379,
      "Ġencuentra": 3380,
      "ush": 3381,
      "ĠUna": 3382,
      "Â»,": 3383,
      "ĠEres": 3384,
      "items": 3385,
      "Char": 3386,
      "Ġpropi": 3387,
      "illas": 3388,
      "Ġcaso": 3389,
      "foo": 3390,
      "ĠReturn": 3391,
      "guien": 3392,
      "ĠFin": 3393,
      "Ġrecoger": 3394,
      "Ġsan": 3395,
      "arias": 3396,
      "ĠAll": 3397,
      "Ġcaminando": 3398,
      "Ġestruct": 3399,
      "Ġcir": 3400,
      "Ġambos": 3401,
      "ments": 3402,
      "dico": 3403,
      "ĠEstÃ¡n": 3404,
      "Ġdesarrollo": 3405,
      "ueÃ±o": 3406,
      "Ã¡tico": 3407,
      "mod": 3408,
      "Ã©tica": 3409,
      "ĠMadrid": 3410,
      "flow": 3411,
      "spec": 3412,
      "Ġbra": 3413,
      "page": 3414,
      "cir": 3415,
      "Ġperten": 3416,
      "ĠespaÃ±ola": 3417,
      "sing": 3418,
      "gres": 3419,
      "ute": 3420,
      "anged": 3421,
      "Ġbanda": 3422,
      "guage": 3423,
      "Ġorigen": 3424,
      "Ġros": 3425,
      "untas": 3426,
      "Ġpopular": 3427,
      "Ġabrazo": 3428,
      "Ġcri": 3429,
      "ĠIS": 3430,
      "Ġwhen": 3431,
      "ĠpaÃŃses": 3432,
      "dent": 3433,
      "elos": 3434,
      "esti": 3435,
      "Ġpodemos": 3436,
      "ĠsaltÃ³": 3437,
      "Ġ]": 3438,
      "Ġ--": 3439,
      "viron": 3440,
      "ĠNacional": 3441,
      "Ġdecl": 3442,
      "raw": 3443,
      "Ġcasi": 3444,
      "tom": 3445,
      "ĠmÃ¡g": 3446,
      "option": 3447,
      "Ġwithout": 3448,
      "perio": 3449,
      "Ġsitu": 3450,
      "Ġbonita": 3451,
      "culos": 3452,
      "close": 3453,
      "su": 3454,
      "Ġluz": 3455,
      "Ġread": 3456,
      "ĠVol": 3457,
      "Ġpul": 3458,
      "ciente": 3459,
      "Ġgolpe": 3460,
      "Ġdirig": 3461,
      "cr": 3462,
      "Ġmust": 3463,
      "eciÃ³": 3464,
      "ĠlÃŃn": 3465,
      "Ġhost": 3466,
      "Te": 3467,
      "ĠSabÃŃa": 3468,
      "Ġlogging": 3469,
      "af": 3470,
      "lam": 3471,
      "Th": 3472,
      "imo": 3473,
      "stas": 3474,
      "ĠSoftware": 3475,
      "Ġisla": 3476,
      "``": 3477,
      "Ġone": 3478,
      "irse": 3479,
      "plemente": 3480,
      "Ġhelp": 3481,
      "][": 3482,
      "fla": 3483,
      "taban": 3484,
      "ĠseÃ±al": 3485,
      "produ": 3486,
      "Ġroca": 3487,
      "Ġconstitu": 3488,
      "Ġprincipal": 3489,
      "Ġva": 3490,
      "Ġsecre": 3491,
      "Ġmariposa": 3492,
      "Get": 3493,
      "Ġ',": 3494,
      "Ġoscu": 3495,
      "Base": 3496,
      "ombres": 3497,
      "Ġhabit": 3498,
      "Ġmadre": 3499,
      "Ġdebajo": 3500,
      "Ġprepar": 3501,
      "server": 3502,
      "EST": 3503,
      "Ġcentro": 3504,
      "ueError": 3505,
      "Ġinterna": 3506,
      "Ġ11": 3507,
      "equal": 3508,
      "chi": 3509,
      "zÃ³n": 3510,
      "Ġtit": 3511,
      "})": 3512,
      "Ġsize": 3513,
      "tran": 3514,
      "Ġaden": 3515,
      "Ġsepar": 3516,
      "Ġindex": 3517,
      "Ġfre": 3518,
      "Ġjson": 3519,
      "Ġtrabaj": 3520,
      "Ġinici": 3521,
      "local": 3522,
      "Estaba": 3523,
      "US": 3524,
      "Ġcru": 3525,
      "ural": 3526,
      "Ġsonido": 3527,
      "tirse": 3528,
      "Ġverde": 3529,
      "Ġmet": 3530,
      "ĠJohn": 3531,
      "hÃŃ": 3532,
      "ĠBill": 3533,
      "ĠserÃŃa": 3534,
      "Ġsem": 3535,
      "mode": 3536,
      "Ġllor": 3537,
      "Ġhacerlo": 3538,
      "CL": 3539,
      "ched": 3540,
      "ĠSer": 3541,
      "izar": 3542,
      "Ġapla": 3543,
      "diente": 3544,
      "ĠFrancis": 3545,
      "Ġpaseo": 3546,
      "ik": 3547,
      "ux": 3548,
      "orÃŃa": 3549,
      "cieron": 3550,
      "ensa": 3551,
      "ev": 3552,
      "Ġmara": 3553,
      "Ġwork": 3554,
      "ĠCal": 3555,
      "ezas": 3556,
      "iga": 3557,
      "Ġmax": 3558,
      "Podemos": 3559,
      "ĠenseÃ±": 3560,
      "ĠAg": 3561,
      "guir": 3562,
      "project": 3563,
      "Ġpudi": 3564,
      "dÃŃa": 3565,
      "Ġfal": 3566,
      "HT": 3567,
      "Ġjo": 3568,
      "ellas": 3569,
      "porte": 3570,
      "ĠPedro": 3571,
      "Ġagarr": 3572,
      "IB": 3573,
      "istra": 3574,
      "ĠJu": 3575,
      "Ġtel": 3576,
      "Ġhoy": 3577,
      "Ġaprender": 3578,
      "Ġmoder": 3579,
      "DI": 3580,
      "ĠlecciÃ³n": 3581,
      "Ġhermosa": 3582,
      "ILITY": 3583,
      "iguiÃ³": 3584,
      "order": 3585,
      "ragÃ³n": 3586,
      "Ġalguien": 3587,
      "ĠAnna": 3588,
      "root": 3589,
      "EX": 3590,
      "Ġjugaron": 3591,
      "Ġprovincia": 3592,
      "roso": 3593,
      "erÃŃa": 3594,
      "Ġllu": 3595,
      "Ġmiemb": 3596,
      "Ġmostrar": 3597,
      "tÃŃn": 3598,
      "teger": 3599,
      "fail": 3600,
      "Ġviaje": 3601,
      "Ġvista": 3602,
      "ĠregiÃ³n": 3603,
      "ĠFrancia": 3604,
      "Juan": 3605,
      "wer": 3606,
      "inado": 3607,
      "Ġtarget": 3608,
      "ĠademÃ¡s": 3609,
      "Ġprovi": 3610,
      "ĠpasÃ³": 3611,
      "Ġ100": 3612,
      "itÃ³": 3613,
      "ĠÃ©po": 3614,
      "Ġfuncion": 3615,
      "Ġsorpresa": 3616,
      "fecto": 3617,
      "eras": 3618,
      "Ġdesap": 3619,
      "Ġarm": 3620,
      "teri": 3621,
      "80": 3622,
      "Eso": 3623,
      "Ġ187": 3624,
      "Ġmediante": 3625,
      "Ġcastillo": 3626,
      "Ġllen": 3627,
      "aro": 3628,
      "caciÃ³n": 3629,
      "Ġdeber": 3630,
      "Ġnames": 3631,
      "description": 3632,
      "ĠeconÃ³m": 3633,
      "ĠJug": 3634,
      "ĠEuropa": 3635,
      "tual": 3636,
      "Ġencontraron": 3637,
      "link": 3638,
      "cy": 3639,
      "ĠAhora": 3640,
      "ĠRep": 3641,
      "Ġmunici": 3642,
      "Ġcara": 3643,
      "rera": 3644,
      "Ġedu": 3645,
      "Ġnieve": 3646,
      "Ġtienes": 3647,
      "List": 3648,
      "stitu": 3649,
      "Ġidenti": 3650,
      "ĠterminÃ³": 3651,
      "EC": 3652,
      "onas": 3653,
      "Ġresp": 3654,
      "ĠdifÃŃ": 3655,
      "Ġdiverti": 3656,
      "ates": 3657,
      "ĠEstado": 3658,
      "Ġparser": 3659,
      "Ġhojas": 3660,
      "etas": 3661,
      "Ġencontrado": 3662,
      "pac": 3663,
      "Ġcomien": 3664,
      "ugin": 3665,
      "Ġtes": 3666,
      "Una": 3667,
      "exten": 3668,
      "block": 3669,
      "action": 3670,
      "cta": 3671,
      "gon": 3672,
      "np": 3673,
      "ĠTomÃ¡s": 3674,
      "Ġautor": 3675,
      "Ġ'\\": 3676,
      "Ġleg": 3677,
      "Ġpen": 3678,
      "Ġgroup": 3679,
      "Ġintelig": 3680,
      "Ġindustri": 3681,
      "ful": 3682,
      "lish": 3683,
      "eran": 3684,
      "Ġamaba": 3685,
      "search": 3686,
      "Ġinves": 3687,
      "rans": 3688,
      "ĠIntent": 3689,
      "Ġalm": 3690,
      "ĠTHE": 3691,
      "ectos": 3692,
      "func": 3693,
      "AM": 3694,
      "Ġarena": 3695,
      "ĠasustÃ³": 3696,
      "Ġruidos": 3697,
      "Ġpalabras": 3698,
      "Ġprobar": 3699,
      "kip": 3700,
      "Ġmaravil": 3701,
      "AME": 3702,
      "istem": 3703,
      "HOUT": 3704,
      "bio": 3705,
      "ÃŃos": 3706,
      "ATE": 3707,
      "Ġpack": 3708,
      "Ġcambi": 3709,
      "Up": 3710,
      "cache": 3711,
      "Ġerr": 3712,
      "ĠalegrÃŃa": 3713,
      "distribu": 3714,
      "Ġigual": 3715,
      "deb": 3716,
      "dero": 3717,
      "Ġpelig": 3718,
      "Ġdelicioso": 3719,
      "Ġmag": 3720,
      "Ġhermano": 3721,
      "Ġbonito": 3722,
      "String": 3723,
      "ctos": 3724,
      "istÃ³": 3725,
      "Ġprome": 3726,
      "Im": 3727,
      "orden": 3728,
      "Ġproy": 3729,
      "ĠWITHOUT": 3730,
      "pri": 3731,
      "function": 3732,
      "ĠenergÃŃa": 3733,
      "pp": 3734,
      "cra": 3735,
      "mb": 3736,
      "rÃ¡n": 3737,
      "dout": 3738,
      "itaba": 3739,
      "orn": 3740,
      "dom": 3741,
      "Ġjap": 3742,
      "adamente": 3743,
      "Ġclas": 3744,
      "ĠseÃ±ora": 3745,
      "Ġdetuvo": 3746,
      "Ġpiso": 3747,
      "ĠratÃ³n": 3748,
      "Ġfields": 3749,
      "Ġpintor": 3750,
      "token": 3751,
      "aya": 3752,
      "ĠestÃ¡s": 3753,
      "values": 3754,
      "tiene": 3755,
      "cidental": 3756,
      "dic": 3757,
      "old": 3758,
      "Esta": 3759,
      "mento": 3760,
      "ĠcayÃ³": 3761,
      "pk": 3762,
      "Ġli": 3763,
      "Ġenc": 3764,
      "Ġmock": 3765,
      "Ġrepresent": 3766,
      "ĠCa": 3767,
      "Ġgas": 3768,
      "Ġonly": 3769,
      "Ġprincipales": 3770,
      "Ġpic": 3771,
      "Ġjuntas": 3772,
      "Ġlogr": 3773,
      "pul": 3774,
      "lex": 3775,
      "Ġzona": 3776,
      "Man": 3777,
      "Ġcum": 3778,
      "ĠentrÃ³": 3779,
      "ĠPapÃ¡": 3780,
      "lantes": 3781,
      "eren": 3782,
      "cida": 3783,
      "Ġgenial": 3784,
      "Ġunas": 3785,
      "ĠTal": 3786,
      "45": 3787,
      "Ġenten": 3788,
      "culas": 3789,
      "land": 3790,
      "exist": 3791,
      "Ġmeta": 3792,
      "ĠemocionÃ³": 3793,
      "range": 3794,
      "Entonces": 3795,
      "Ġbril": 3796,
      "Ġescuchar": 3797,
      "tails": 3798,
      "Ġbolsa": 3799,
      "ĠâĢĶ": 3800,
      "tall": 3801,
      "Ġasegur": 3802,
      "Ġpuedo": 3803,
      "lesia": 3804,
      "Ġcine": 3805,
      "Ġmesa": 3806,
      "{'": 3807,
      "Ġpez": 3808,
      "ĠpolÃŃtica": 3809,
      "Ġmexicano": 3810,
      "ear": 3811,
      "hel": 3812,
      "ttr": 3813,
      "Ġpelu": 3814,
      "pat": 3815,
      "Ġ``": 3816,
      "ĠÃ©poca": 3817,
      "conn": 3818,
      "the": 3819,
      "licenses": 3820,
      "udi": 3821,
      "Ġimplied": 3822,
      "strip": 3823,
      "(_": 3824,
      "33": 3825,
      "rar": 3826,
      "puesto": 3827,
      "Ġllevar": 3828,
      "liz": 3829,
      "Ġabajo": 3830,
      "Ġnadie": 3831,
      "Ġfrente": 3832,
      "tivamente": 3833,
      "=[": 3834,
      "ĠFrancisco": 3835,
      "property": 3836,
      "Ġventana": 3837,
      "xy": 3838,
      "ustom": 3839,
      "Ġcomprar": 3840,
      "Ġentrar": 3841,
      "tocol": 3842,
      "porta": 3843,
      "Ġcls": 3844,
      "ĠHa": 3845,
      "60": 3846,
      "ĠtelevisiÃ³n": 3847,
      "Ġobras": 3848,
      "tributes": 3849,
      "Le": 3850,
      "tral": 3851,
      "Ġcolina": 3852,
      "Ġalim": 3853,
      "OP": 3854,
      "Ġprob": 3855,
      "Ġprofun": 3856,
      "cin": 3857,
      "Ġvelo": 3858,
      "target": 3859,
      "posi": 3860,
      "Ġbici": 3861,
      "Ġrosa": 3862,
      "Ġencuentran": 3863,
      "keys": 3864,
      "Ġproblemas": 3865,
      "trÃ³n": 3866,
      "ids": 3867,
      "Ġfirst": 3868,
      "course": 3869,
      "Ob": 3870,
      "ĠBenny": 3871,
      "bus": 3872,
      "Ġtre": 3873,
      "ABILITY": 3874,
      "Ser": 3875,
      "ss": 3876,
      "Ġcier": 3877,
      "Ġmain": 3878,
      "Ġadentro": 3879,
      "rela": 3880,
      "level": 3881,
      "Ġproceso": 3882,
      "Ġhamb": 3883,
      "ĠTiene": 3884,
      "ide": 3885,
      "leg": 3886,
      "Ġbicicle": 3887,
      "Ġfon": 3888,
      "task": 3889,
      "Ġabrazaron": 3890,
      "Config": 3891,
      "graph": 3892,
      "tividad": 3893,
      "Ġacep": 3894,
      "lave": 3895,
      "uta": 3896,
      "Ġadmin": 3897,
      "Ġback": 3898,
      "ese": 3899,
      "Ġimportantes": 3900,
      "SS": 3901,
      "Ġtab": 3902,
      "build": 3903,
      "Ġseguir": 3904,
      "cls": 3905,
      "Ġmulti": 3906,
      "CON": 3907,
      "osas": 3908,
      "ĠfÃŃs": 3909,
      "image": 3910,
      "tional": 3911,
      "Bo": 3912,
      "Ġmake": 3913,
      "86": 3914,
      "FI": 3915,
      "Ġvec": 3916,
      "ĠLila": 3917,
      "cmd": 3918,
      "Ġens": 3919,
      "Ġpasa": 3920,
      "cei": 3921,
      "ĊĠĠĠĠĠĠĠĠĠĠĠĠĠ": 3922,
      "Ġplaya": 3923,
      "tia": 3924,
      "ĠComen": 3925,
      "way": 3926,
      "Ġconm": 3927,
      "Exception": 3928,
      "ĠbebÃ©": 3929,
      "Ġconta": 3930,
      "mock": 3931,
      "uales": 3932,
      "ego": 3933,
      "rec": 3934,
      "Ġcompositor": 3935,
      "edades": 3936,
      "čĊĠĠĠĠĠĠĠĠĠĠĠ": 3937,
      "ficiente": 3938,
      "umento": 3939,
      "Ġentr": 3940,
      "ĠseguÃŃa": 3941,
      "ĠUniversidad": 3942,
      "wo": 3943,
      "Ġnos": 3944,
      "ecer": 3945,
      "ĠJim": 3946,
      "ĊĠĠĠĠĠĠĠĠĠĠĠĠĠĠĠĠ": 3947,
      "istro": 3948,
      ")))": 3949,
      "Ġ},": 3950,
      "ĠRepÃºblica": 3951,
      "tform": 3952,
      "omo": 3953,
      "ponent": 3954,
      "UN": 3955,
      "ĠpÃºb": 3956,
      "ĠfÃ¡": 3957,
      "estos": 3958,
      "Col": 3959,
      "Ġcapital": 3960,
      "ĠparecÃŃa": 3961,
      "ĠSammy": 3962,
      "Ġvarias": 3963,
      "Ġlago": 3964,
      "ĠBo": 3965,
      "fut": 3966,
      "Ġfig": 3967,
      "older": 3968,
      "Ġsea": 3969,
      "orme": 3970,
      "Ġdoes": 3971,
      "Ġtag": 3972,
      "Ġmanz": 3973,
      "medi": 3974,
      "Ġexplic": 3975,
      "Ġmaravillos": 3976,
      "delete": 3977,
      "Ġcach": 3978,
      "Ġdetermin": 3979,
      "Ġdomin": 3980,
      "ĠMundial": 3981,
      "Ġdieron": 3982,
      "Ġabrir": 3983,
      "CharField": 3984,
      "Ġante": 3985,
      "Ġfilename": 3986,
      "Ġparams": 3987,
      "ql": 3988,
      "Ġ&": 3989,
      "Ġtex": 3990,
      "omas": 3991,
      "ĠFOR": 3992,
      "Ġarro": 3993,
      "Ġnave": 3994,
      "ALL": 3995,
      "Ġdulce": 3996,
      "âĢĶ": 3997,
      "ĠSanta": 3998,
      "erta": 3999,
      "ĠFor": 4000,
      "arÃ¡": 4001,
      "Ġtren": 4002,
      "Ġatrapar": 4003,
      "Ã³s": 4004,
      "ical": 4005,
      "Ġ2000": 4006,
      "Ġellas": 4007,
      "Ġesca": 4008,
      "tilla": 4009,
      "Desde": 4010,
      "Ġhabl": 4011,
      "Ġseguro": 4012,
      "Ġliter": 4013,
      "ĠAt": 4014,
      "ĠNor": 4015,
      "Ġbuscando": 4016,
      "Ġpropio": 4017,
      "Ġsino": 4018,
      "ientÃŃ": 4019,
      "lico": 4020,
      "pado": 4021,
      "rÃŃan": 4022,
      "ĠPensÃ³": 4023,
      "Jack": 4024,
      "Ġsee": 4025,
      "Ġrespec": 4026,
      "current": 4027,
      "gn": 4028,
      "ĠPara": 4029,
      "parent": 4030,
      "Ġpregunta": 4031,
      "replace": 4032,
      "ĠTra": 4033,
      "cidos": 4034,
      "quina": 4035,
      "ĠRob": 4036,
      "box": 4037,
      "Ġterritorio": 4038,
      "Ġred": 4039,
      "TIC": 4040,
      "Ġhablar": 4041,
      "less": 4042,
      "Ġyour": 4043,
      "Ġserie": 4044,
      "Ġlibre": 4045,
      "lines": 4046,
      "Ġdirectory": 4047,
      "Ġimagen": 4048,
      "ĠpelÃŃcula": 4049,
      "Time": 4050,
      "Ġmonta": 4051,
      "dum": 4052,
      "Ġdesorden": 4053,
      "Ã©rcito": 4054,
      "Ġvolvieron": 4055,
      "Max": 4056,
      "Ġsintieron": 4057,
      "ÃŃsticas": 4058,
      "99": 4059,
      "ete": 4060,
      "Ġespecialmente": 4061,
      "float": 4062,
      "The": 4063,
      "genes": 4064,
      "template": 4065,
      "debug": 4066,
      "Ġsignifica": 4067,
      "ĠtÃŃ": 4068,
      "ĠCarlos": 4069,
      "ĠTienen": 4070,
      "Ġcult": 4071,
      "clus": 4072,
      "Fin": 4073,
      "Ġlluvia": 4074,
      "ld": 4075,
      "ensor": 4076,
      "Ġmuerte": 4077,
      "Ġpage": 4078,
      "stes": 4079,
      "Text": 4080,
      "ertos": 4081,
      "idget": 4082,
      "Ġanciano": 4083,
      "dista": 4084,
      "Ãºt": 4085,
      "Ġtristes": 4086,
      "part": 4087,
      "Ġlabel": 4088,
      "Ġsuf": 4089,
      "Ġropa": 4090,
      "Ġespecies": 4091,
      "Ġinstr": 4092,
      "puesta": 4093,
      "ogle": 4094,
      "Ġirse": 4095,
      "Ġyield": 4096,
      "gent": 4097,
      "ĠRes": 4098,
      "Ġocur": 4099,
      "Ġemple": 4100,
      "Ġwhile": 4101,
      "dam": 4102,
      "orge": 4103,
      "Ġresto": 4104,
      "ĠprÃ³": 4105,
      "ines": 4106,
      "Ġoficial": 4107,
      "ĠEsper": 4108,
      "Ġvalor": 4109,
      "settings": 4110,
      "ĠÃ©x": 4111,
      "quite": 4112,
      "future": 4113,
      "df": 4114,
      "rac": 4115,
      "Ġarte": 4116,
      "pts": 4117,
      "Ġfollow": 4118,
      "Ġhog": 4119,
      "Ġposible": 4120,
      "ka": 4121,
      "Ġaten": 4122,
      "assertTrue": 4123,
      "ĠcomÃºn": 4124,
      "Ġ24": 4125,
      "igra": 4126,
      "Ġvie": 4127,
      "Ġsegundo": 4128,
      "ridad": 4129,
      "ĠdÃ³nde": 4130,
      "izer": 4131,
      "Ġdebe": 4132,
      "igh": 4133,
      "ĠFree": 4134,
      "Ġroja": 4135,
      "author": 4136,
      "Ġarreglar": 4137,
      "iencia": 4138,
      "Ġarti": 4139,
      "pile": 4140,
      "Ġmez": 4141,
      "Ġpeluche": 4142,
      "FA": 4143,
      "xima": 4144,
      "Ġquery": 4145,
      "Ġaplau": 4146,
      "Ġquiso": 4147,
      "Ġeres": 4148,
      "gas": 4149,
      "admin": 4150,
      "down": 4151,
      "cuencia": 4152,
      "caron": 4153,
      "ream": 4154,
      "Esto": 4155,
      "Ġdinero": 4156,
      "inÃ³": 4157,
      "Ġmatem": 4158,
      "sas": 4159,
      "Ġpresenta": 4160,
      "Ġdecidieron": 4161,
      "ĠsÃ©": 4162,
      "Ġnoti": 4163,
      "ĠcientÃŃ": 4164,
      "ĠgÃ©n": 4165,
      "Ġpreocupes": 4166,
      "ĠleÃ³n": 4167,
      "ibl": 4168,
      "Ġpython": 4169,
      "Form": 4170,
      "parser": 4171,
      "Ġpermis": 4172,
      "Ġlleno": 4173,
      "Ġcapa": 4174,
      "ĠPython": 4175,
      "Ġplantas": 4176,
      "fir": 4177,
      "Ġprofes": 4178,
      "Ġfound": 4179,
      "Ġweb": 4180,
      "Ġdepen": 4181,
      "Ġhere": 4182,
      "exit": 4183,
      "ĠpequeÃ±os": 4184,
      "Ġoriginal": 4185,
      "ĠJen": 4186,
      "color": 4187,
      "voluciÃ³n": 4188,
      "ĠGar": 4189,
      "ĠdifÃŃcil": 4190,
      "Ġali": 4191,
      "ĠaviÃ³n": 4192,
      "istemas": 4193,
      "Ġusing": 4194,
      "Ġempu": 4195,
      "Ġescuela": 4196,
      "Ãºtbol": 4197,
      "plication": 4198,
      "ĠNueva": 4199,
      "Ġllegar": 4200,
      "session": 4201,
      "Ġsalud": 4202,
      "Ġcuerpo": 4203,
      "ĠSiempre": 4204,
      "reas": 4205,
      "Ġwri": 4206,
      "'''": 4207,
      "},": 4208,
      "Ġ>>>": 4209,
      "bum": 4210,
      "Ġnar": 4211,
      "Ġfavorito": 4212,
      "03": 4213,
      "Ġmodelo": 4214,
      "Ġduro": 4215,
      "ĠCi": 4216,
      "ĠTor": 4217,
      "vail": 4218,
      "ĠextraÃ±o": 4219,
      "Ġgiven": 4220,
      "uelo": 4221,
      "ession": 4222,
      "alla": 4223,
      "ĠFe": 4224,
      "Ġsombrero": 4225,
      "password": 4226,
      "gro": 4227,
      "Ġmic": 4228,
      "isto": 4229,
      "Ġredu": 4230,
      "ĠquÃŃm": 4231,
      "undation": 4232,
      "ĠDese": 4233,
      "Ġsegunda": 4234,
      "Ġetc": 4235,
      "Ġelementos": 4236,
      "hen": 4237,
      "Ġardilla": 4238,
      "ĠproducciÃ³n": 4239,
      "ĠValueError": 4240,
      "Ġign": 4241,
      "Ġaver": 4242,
      "ĠSally": 4243,
      "ĠGe": 4244,
      "Ġaction": 4245,
      "Ġlimita": 4246,
      "Ġpart": 4247,
      "Ġposi": 4248,
      "tity": 4249,
      "Ġblock": 4250,
      "usieron": 4251,
      "Ġcub": 4252,
      "Ġbailar": 4253,
      "Ġcaliente": 4254,
      "Ġpesar": 4255,
      "Ġconocido": 4256,
      "amples": 4257,
      "ĠLib": 4258,
      "Ġdiscul": 4259,
      "iles": 4260,
      "izado": 4261,
      "ĠII": 4262,
      "Ġcivil": 4263,
      "Ġcic": 4264,
      "tidad": 4265,
      "ĠfrÃŃo": 4266,
      "Ġresults": 4267,
      "execu": 4268,
      "olÃ³gico": 4269,
      "element": 4270,
      "ĠMi": 4271,
      "Ġcarrera": 4272,
      "ĠtÃ©rm": 4273,
      "Ġeven": 4274,
      "','": 4275,
      "Ġhelado": 4276,
      "vari": 4277,
      "Ġ'.": 4278,
      "Ġcuales": 4279,
      "star": 4280,
      "ters": 4281,
      "Ġcontain": 4282,
      "Ġcontinue": 4283,
      "teriormente": 4284,
      "vision": 4285,
      "Ġesc": 4286,
      "uerto": 4287,
      "ecto": 4288,
      "Wow": 4289,
      "argument": 4290,
      "ĠcanciÃ³n": 4291,
      "ulares": 4292,
      "ĠFoundation": 4293,
      "ify": 4294,
      "Ġata": 4295,
      "child": 4296,
      "Ġbicicleta": 4297,
      "VER": 4298,
      "Ġtrata": 4299,
      "Ġtuvieron": 4300,
      "Ġnub": 4301,
      "account": 4302,
      "estas": 4303,
      "Ġvolando": 4304,
      "reak": 4305,
      "Ġderi": 4306,
      "ĠÃºltimo": 4307,
      "ulas": 4308,
      "ĠHT": 4309,
      "iled": 4310,
      "query": 4311,
      "lection": 4312,
      "Ġinto": 4313,
      "Ġpolic": 4314,
      "Ġaqu": 4315,
      "Ġmira": 4316,
      "TION": 4317,
      "Ġlista": 4318,
      "rupos": 4319,
      "Ġgalletas": 4320,
      "Ġcorrespon": 4321,
      "Ġregalo": 4322,
      "urope": 4323,
      "ĠAbra": 4324,
      "Ġconfi": 4325,
      "uido": 4326,
      "Ġcola": 4327,
      "Ġdulces": 4328,
      "make": 4329,
      "Ġcarro": 4330,
      "ayo": 4331,
      "Ġestrella": 4332,
      "ecen": 4333,
      "eme": 4334,
      ");": 4335,
      "dal": 4336,
      "Ġton": 4337,
      "ĠcontÃ³": 4338,
      "ĠSue": 4339,
      "erate": 4340,
      "fier": 4341,
      "\">": 4342,
      "100": 4343,
      "Ġeach": 4344,
      "Ġserver": 4345,
      "post": 4346,
      "Ġev": 4347,
      "ĠDan": 4348,
      "ĠVe": 4349,
      "aises": 4350,
      "gi": 4351,
      "posiciÃ³n": 4352,
      "Ġconseguir": 4353,
      "User": 4354,
      "OF": 4355,
      "ĠReturns": 4356,
      "abs": 4357,
      "Ġrev": 4358,
      "ĠBus": 4359,
      "Ġmoral": 4360,
      "cimientos": 4361,
      "Ġasustado": 4362,
      "ink": 4363,
      "ized": 4364,
      "ference": 4365,
      "Ġdatos": 4366,
      "Ġcabello": 4367,
      "Ġfiesta": 4368,
      "Ġvan": 4369,
      "ÃŃstica": 4370,
      "Ġpadre": 4371,
      "ĠLuis": 4372,
      "Ġbrillantes": 4373,
      "ward": 4374,
      "Ġcuad": 4375,
      "ĠSusana": 4376,
      "Ġsubir": 4377,
      "lÃ©s": 4378,
      "Ġhid": 4379,
      "ĠhistÃ³": 4380,
      "ĠsonrÃŃ": 4381,
      "Ġprimeros": 4382,
      "(?": 4383,
      "mat": 4384,
      "rÃ³n": 4385,
      "Ġcmd": 4386,
      "ĠrecordÃ³": 4387,
      "Ġdetails": 4388,
      "Ġpint": 4389,
      "Ġhubi": 4390,
      "indow": 4391,
      "Ġrecor": 4392,
      "rist": 4393,
      "ĠincreÃŃ": 4394,
      "encode": 4395,
      "ril": 4396,
      "ugu": 4397,
      "emo": 4398,
      "ĠIg": 4399,
      "save": 4400,
      "Ġinterpre": 4401,
      "Âº": 4402,
      "nodes": 4403,
      "ANT": 4404,
      "Not": 4405,
      "eas": 4406,
      "Ġestudio": 4407,
      "ĠcÃ©l": 4408,
      "dable": 4409,
      "ĠTu": 4410,
      "Ġarre": 4411,
      "Ġpeda": 4412,
      "Ġsettings": 4413,
      "IO": 4414,
      "iana": 4415,
      "Ġ''": 4416,
      "Ġofre": 4417,
      "ĠsintiÃ©ndose": 4418,
      "ĠYa": 4419,
      "ĠDecidiÃ³": 4420,
      "cog": 4421,
      "Ġdesper": 4422,
      "tream": 4423,
      "ync": 4424,
      "Ġdatetime": 4425,
      "Ġ23": 4426,
      "Ġpoeta": 4427,
      "tore": 4428,
      "ĠtÃ©cn": 4429,
      "KE": 4430,
      "ense": 4431,
      "stream": 4432,
      "Ġalcanzar": 4433,
      "Ġcoding": 4434,
      "Ġexplor": 4435,
      "off": 4436,
      "ĠPAR": 4437,
      "Ġgrupos": 4438,
      "Ġload": 4439,
      "Ġinteres": 4440,
      "ĠAnton": 4441,
      "win": 4442,
      "ĠQuerÃŃan": 4443,
      "Ġquedarse": 4444,
      "MPL": 4445,
      "Ġsuficiente": 4446,
      "Ġlong": 4447,
      "atÃ³": 4448,
      "Ġcinco": 4449,
      "Ġconjunto": 4450,
      "Ġattr": 4451,
      "Ġcachorro": 4452,
      "iales": 4453,
      "ĠDa": 4454,
      "Ġapp": 4455,
      "ĠÃ©xito": 4456,
      "ĊĠĠĠĠĊĠĠĠ": 4457,
      "Ġimpres": 4458,
      "ĠlÃ¡": 4459,
      "Ġcuar": 4460,
      "address": 4461,
      "Ġhogar": 4462,
      "IM": 4463,
      "fac": 4464,
      "width": 4465,
      "Ġbor": 4466,
      "umn": 4467,
      "Ġarquite": 4468,
      "Ġvir": 4469,
      "Ġmanten": 4470,
      "Ġhambre": 4471,
      "Ten": 4472,
      "rez": 4473,
      "rir": 4474,
      "Ġ2010": 4475,
      "Ġmovimiento": 4476,
      "Ġutf": 4477,
      "utos": 4478,
      "abled": 4479,
      "dar": 4480,
      "Ġdan": 4481,
      "Ã¡rs": 4482,
      "onia": 4483,
      "tito": 4484,
      "Ġclient": 4485,
      "ĠException": 4486,
      "Ġprocess": 4487,
      "Ġ2012": 4488,
      "Ġmonstru": 4489,
      "guas": 4490,
      "vio": 4491,
      "prim": 4492,
      "Ġdescan": 4493,
      "Ġfunda": 4494,
      "ĠsorprendiÃ³": 4495,
      "rary": 4496,
      "Ġcristi": 4497,
      "esa": 4498,
      "ENSE": 4499,
      "Ġmec": 4500,
      "Ġpartic": 4501,
      "Ġ'/": 4502,
      "ĠLET": 4503,
      "Ġdivi": 4504,
      "Ġcuch": 4505,
      "Ġkwargs": 4506,
      "Ġmasa": 4507,
      "Ġzap": 4508,
      "Ġquiere": 4509,
      "ek": 4510,
      "ria": 4511,
      "web": 4512,
      "Ġdesliz": 4513,
      "Ġcontar": 4514,
      "ĠSa": 4515,
      "ĠAut": 4516,
      "Ġ2011": 4517,
      "Add": 4518,
      "UP": 4519,
      "ĠdÃ©cada": 4520,
      "Ġentra": 4521,
      "Ġsola": 4522,
      "Ġtorre": 4523,
      "Ġagujero": 4524,
      "Ġparent": 4525,
      "ĠFinalmente": 4526,
      "ĠLETTER": 4527,
      "Ġil": 4528,
      "ond": 4529,
      "Ġunivers": 4530,
      "Ġrecu": 4531,
      "ĠayudÃ³": 4532,
      "Ã¡tica": 4533,
      "Ġfing": 4534,
      "ported": 4535,
      "Ġdestr": 4536,
      "tex": 4537,
      "Ġ2006": 4538,
      "ĠNunca": 4539,
      "rito": 4540,
      "number": 4541,
      "Ġlater": 4542,
      "etos": 4543,
      "ĠIntentÃ³": 4544,
      "Ġespec": 4545,
      "Ġabsol": 4546,
      "now": 4547,
      "Ġvamos": 4548,
      "Ġpremio": 4549,
      "ICENSE": 4550,
      "Ġgir": 4551,
      "Ġtemper": 4552,
      "Ġ22": 4553,
      "Ġ27": 4554,
      "Ġspecific": 4555,
      "bil": 4556,
      "ĠMu": 4557,
      "Ġresol": 4558,
      "Ġpudiera": 4559,
      "MA": 4560,
      "edi": 4561,
      "Ġstatus": 4562,
      "Ġprincipio": 4563,
      "mark": 4564,
      "ĠJuana": 4565,
      "ardo": 4566,
      "Ġfuego": 4567,
      "serva": 4568,
      "Ġradi": 4569,
      "Ġarray": 4570,
      "argv": 4571,
      "Do": 4572,
      "dev": 4573,
      "Ã©tico": 4574,
      "ĊĠĠĠĠĠĠĠĠĠĠĠĠĠĠĠĠĠĠĠĠĠĠĠĠĠĠĠĠĠĠĠ": 4575,
      "Ġbuenos": 4576,
      "Ġamo": 4577,
      "cioso": 4578,
      "Ġdicen": 4579,
      "ets": 4580,
      "osidad": 4581,
      "patch": 4582,
      "Ġampl": 4583,
      "ĠOb": 4584,
      "Ã©sped": 4585,
      "CT": 4586,
      "bot": 4587,
      "actory": 4588,
      "ops": 4589,
      "Ġsuperior": 4590,
      "Ċĉĉĉĉ": 4591,
      "ĠconvirtiÃ³": 4592,
      "Â°": 4593,
      "Ġfuerzas": 4594,
      "Ġenorme": 4595,
      "ĠAnsible": 4596,
      "Quieres": 4597,
      "ĠAdemÃ¡s": 4598,
      "Ġpropor": 4599,
      "Ġpers": 4600,
      "Ġsocial": 4601,
      "Ġinse": 4602,
      "ĠMor": 4603,
      "quil": 4604,
      "hort": 4605,
      "daba": 4606,
      "PE": 4607,
      "Ġlenta": 4608,
      "Ġsex": 4609,
      "ĠCu": 4610,
      "Ġram": 4611,
      "Ġ28": 4612,
      "Ġpalo": 4613,
      "username": 4614,
      "Ġsuperfici": 4615,
      "onio": 4616,
      "Ġido": 4617,
      "ĠcrÃŃ": 4618,
      "Ġnormal": 4619,
      "ply": 4620,
      "CE": 4621,
      "Ġello": 4622,
      "exp": 4623,
      "usa": 4624,
      "Ġrana": 4625,
      "Ġhier": 4626,
      "ablo": 4627,
      "Ġproblema": 4628,
      "last": 4629,
      "TIES": 4630,
      "Ġlimpiar": 4631,
      "Ġestrellas": 4632,
      "Ġglobal": 4633,
      "TH": 4634,
      "fore": 4635,
      "ique": 4636,
      "Ġbueno": 4637,
      "Ġmedida": 4638,
      "Ġdiferente": 4639,
      "Ġmujeres": 4640,
      "Ġbuild": 4641,
      "Ġcultura": 4642,
      "****************": 4643,
      "menta": 4644,
      "ega": 4645,
      "Ġinclu": 4646,
      "udades": 4647,
      "ĠprÃ¡c": 4648,
      "Ġcuerda": 4649,
      "pot": 4650,
      "Ġequipo": 4651,
      "ĠSolo": 4652,
      "ĠinglÃ©s": 4653,
      "Ġreun": 4654,
      "Ġorder": 4655,
      "Ġmirar": 4656,
      "NAME": 4657,
      "Oh": 4658,
      "stante": 4659,
      "ĠVamos": 4660,
      "ĠWill": 4661,
      "cale": 4662,
      "ĠWARRANTIES": 4663,
      "Ġtama": 4664,
      "Ġbin": 4665,
      "ĠNe": 4666,
      "02": 4667,
      "ĠPol": 4668,
      "').": 4669,
      "Ġtec": 4670,
      "store": 4671,
      "ĠFern": 4672,
      "ĠTommy": 4673,
      "tree": 4674,
      "Ġhijo": 4675,
      "Ġpassword": 4676,
      "Ġespacio": 4677,
      "Ġenv": 4678,
      "Ġbuf": 4679,
      "ĠSonriÃ³": 4680,
      "Ġfind": 4681,
      "Ġfloat": 4682,
      "usr": 4683,
      "Ġover": 4684,
      "Ġcena": 4685,
      "Ġturn": 4686,
      "ĠTa": 4687,
      "Ġ||": 4688,
      "Ġenojado": 4689,
      "78": 4690,
      "Tal": 4691,
      "Ġgem": 4692,
      "Ġpasado": 4693,
      "Ġconmigo": 4694,
      "ĠcÃ©sped": 4695,
      "caba": 4696,
      "dientes": 4697,
      "Ġnecesitaba": 4698,
      "Ġexperim": 4699,
      "uid": 4700,
      "ugh": 4701,
      "derr": 4702,
      "~~~~": 4703,
      "ash": 4704,
      "Ġtus": 4705,
      "Ġprincipalmente": 4706,
      "wait": 4707,
      "Ġsistemas": 4708,
      "Ġempres": 4709,
      "email": 4710,
      "ko": 4711,
      "Ġ2007": 4712,
      "Ġsimilar": 4713,
      "gÃ³": 4714,
      "Ġvac": 4715,
      "Ġprue": 4716,
      "ĠlÃŃnea": 4717,
      "ĠGo": 4718,
      "Ġcalle": 4719,
      "Ac": 4720,
      "Ġsome": 4721,
      "rix": 4722,
      "ĠSh": 4723,
      "{}": 4724,
      "ĠAmy": 4725,
      "ĠGal": 4726,
      "ĠdespidiÃ³": 4727,
      "ĠTO": 4728,
      "Ġmodify": 4729,
      "vailable": 4730,
      ")),": 4731,
      "etwork": 4732,
      "Ġjuegos": 4733,
      "km": 4734,
      "asa": 4735,
      "Ġcuriosidad": 4736,
      "Ġfres": 4737,
      "Ġlugares": 4738,
      "ĠComenzÃ³": 4739,
      "Ġaterra": 4740,
      "Ġrealmente": 4741,
      "itud": 4742,
      "Ġsonrieron": 4743,
      "ualmente": 4744,
      "Ġneed": 4745,
      "Ġ2008": 4746,
      "ĠmÃºsico": 4747,
      "tidos": 4748,
      "quista": 4749,
      "okup": 4750,
      "teriores": 4751,
      "Ġtask": 4752,
      "acen": 4753,
      "Ġpose": 4754,
      "Ġagradable": 4755,
      "Ġdesapare": 4756,
      "55": 4757,
      "ORT": 4758,
      "Value": 4759,
      "Ġestructura": 4760,
      "ĠÃ¡l": 4761,
      "Ġ2013": 4762,
      "Ġrecei": 4763,
      "Ġimage": 4764,
      "Ġabi": 4765,
      "36": 4766,
      "onÃ©s": 4767,
      "Ġ\"%": 4768,
      "grama": 4769,
      "Ġsum": 4770,
      "Ġ21": 4771,
      "Ġidi": 4772,
      "Bu": 4773,
      "Ġtim": 4774,
      "Ã¡nico": 4775,
      "uerzo": 4776,
      "Raises": 4777,
      "ĠagarrÃ³": 4778,
      "ization": 4779,
      "ĊĠĠĠĠĠĠĠĠĠĠĠĠĠĠĠĠĠĠĠĠĠĠĠĠĠĠĠĠĠĠĠĠĠĠĠĠĠĠĠĠĠĠĠĠ": 4780,
      "ULAR": 4781,
      "Log": 4782,
      "Ġupdate": 4783,
      "etro": 4784,
      "Ġcambio": 4785,
      "Ġdeliciosa": 4786,
      "Ġpalabra": 4787,
      "Cor": 4788,
      "uga": 4789,
      "ĠEscu": 4790,
      "Ġguard": 4791,
      "tools": 4792,
      "Ġeurope": 4793,
      "ĠInterna": 4794,
      "pada": 4795,
      "arte": 4796,
      "Ġenvi": 4797,
      "aga": 4798,
      "ticle": 4799,
      "aisy": 4800,
      "Ġ26": 4801,
      "Ġzorro": 4802,
      "Ġsaber": 4803,
      "tigo": 4804,
      "Ġvar": 4805,
      "Ġemp": 4806,
      "Finalmente": 4807,
      "ĠÃ³r": 4808,
      "Ġdec": 4809,
      "ĠTomÃ³": 4810,
      "Ġconstruir": 4811,
      "gentina": 4812,
      "ĠDÃŃa": 4813,
      "Ġproject": 4814,
      "extra": 4815,
      ")]": 4816,
      "SD": 4817,
      "Ġprovo": 4818,
      "255": 4819,
      "atures": 4820,
      "lement": 4821,
      "Ġbomb": 4822,
      "/>": 4823,
      "Vi": 4824,
      "Ġdevol": 4825,
      "Ġciudades": 4826,
      "ĠfunciÃ³n": 4827,
      "anto": 4828,
      "mal": 4829,
      "compile": 4830,
      "ĠUniÃ³n": 4831,
      "ords": 4832,
      "Ġbody": 4833,
      "bose": 4834,
      "44": 4835,
      "iguel": 4836,
      "ĠAd": 4837,
      "Ġautos": 4838,
      "Ġmiraron": 4839,
      "90": 4840,
      "conf": 4841,
      "Ġpintura": 4842,
      "ae": 4843,
      "usiÃ³n": 4844,
      "Ġterms": 4845,
      "ĠÃºnico": 4846,
      "NESS": 4847,
      "Return": 4848,
      "quence": 4849,
      "Ġpropia": 4850,
      "Class": 4851,
      "ĠDeb": 4852,
      "Ġamables": 4853,
      "ĠFIT": 4854,
      "PI": 4855,
      "Ġmem": 4856,
      "ERCH": 4857,
      "annel": 4858,
      "Ġfree": 4859,
      "essages": 4860,
      "ERCHANT": 4861,
      "unk": 4862,
      "dap": 4863,
      "================================": 4864,
      "Ġinm": 4865,
      "Ġamor": 4866,
      "laro": 4867,
      "ast": 4868,
      "ĠdragÃ³n": 4869,
      "iene": 4870,
      "stancia": 4871,
      "Ġrostro": 4872,
      "ĠtÃ©rmino": 4873,
      "Ġmap": 4874,
      "ĠPal": 4875,
      "grÃ¡": 4876,
      "ĠQue": 4877,
      "ĠAmbos": 4878,
      "POSE": 4879,
      "umentation": 4880,
      "ule": 4881,
      "Ġleer": 4882,
      "ĠDijeron": 4883,
      "ĠrelaciÃ³n": 4884,
      "Ġmonstruo": 4885,
      "Ġdocument": 4886,
      "ĠFITNESS": 4887,
      "Ġcuid": 4888,
      "Ġcantar": 4889,
      "Ġdistint": 4890,
      "Ġestilo": 4891,
      "fre": 4892,
      "unta": 4893,
      "ucle": 4894,
      "Ġcaminaba": 4895,
      "vera": 4896,
      "zada": 4897,
      "Ġtrue": 4898,
      "Ġtitle": 4899,
      "Ġinvestig": 4900,
      "device": 4901,
      "show": 4902,
      "ĠPARTIC": 4903,
      "Ġce": 4904,
      "piÃ³": 4905,
      "ubo": 4906,
      "static": 4907,
      "ĠSarah": 4908,
      "Ġmiembros": 4909,
      "ĠcompaÃ±": 4910,
      "ĠrazÃ³n": 4911,
      "Ġasustada": 4912,
      "dica": 4913,
      "vidu": 4914,
      "ĠGob": 4915,
      "Ġhija": 4916,
      "Ġhabitantes": 4917,
      "zy": 4918,
      "Ġhos": 4919,
      "Ġ186": 4920,
      "WAR": 4921,
      "unidad": 4922,
      "Ġhon": 4923,
      "Ġactu": 4924,
      "Ġmostr": 4925,
      "ors": 4926,
      "mania": 4927,
      "Ġreconoci": 4928,
      "dez": 4929,
      "Ġcima": 4930,
      "ĠPUR": 4931,
      "body": 4932,
      "Ġfinales": 4933,
      "iblio": 4934,
      "ĠJane": 4935,
      "assertRaises": 4936,
      "ĠsacÃ³": 4937,
      "Ġinteligente": 4938,
      "uno": 4939,
      "ĠMERCHANT": 4940,
      "ĠÃ¡rea": 4941,
      "Ġestuviera": 4942,
      "ĠPURPOSE": 4943,
      "Ġ[\"": 4944,
      "'].": 4945,
      "ĠmÃ©dico": 4946,
      "Ġsuav": 4947,
      "ictor": 4948,
      "resource": 4949,
      "Ġarchi": 4950,
      "Ġ1999": 4951,
      "uyÃ³": 4952,
      "čĊč": 4953,
      "Ġenojada": 4954,
      "remove": 4955,
      "ĠPARTICULAR": 4956,
      "rados": 4957,
      "Ġmedia": 4958,
      "Ġdur": 4959,
      "prefix": 4960,
      "Claro": 4961,
      "ombi": 4962,
      "Ġtenemos": 4963,
      "Ġfollowing": 4964,
      "txt": 4965,
      "ĠReino": 4966,
      "Ġ2005": 4967,
      "Ġdibujar": 4968,
      "Ġsupo": 4969,
      "Ġparse": 4970,
      "tests": 4971,
      "(*": 4972,
      "null": 4973,
      "Ġaus": 4974,
      "ĠdecÃŃa": 4975,
      "uple": 4976,
      "Id": 4977,
      "\\\\": 4978,
      "Ġax": 4979,
      "ĠGre": 4980,
      "Ġlanguage": 4981,
      "Ġvelocidad": 4982,
      "Handler": 4983,
      "rido": 4984,
      "ĠMic": 4985,
      "ĠOpen": 4986,
      "Ġprincesa": 4987,
      "Ġtemplate": 4988,
      "=(": 4989,
      "cipe": 4990,
      "ĠReg": 4991,
      "Ġsonre": 4992,
      "Ġcorrieron": 4993,
      "entry": 4994,
      "loud": 4995,
      "clude": 4996,
      "ĠCastilla": 4997,
      "cat": 4998,
      "Ġpoint": 4999,
      "jado": 5000,
      "buf": 5001,
      "wh": 5002,
      "Ġadel": 5003,
      "ĠMolly": 5004,
      "sty": 5005,
      "ĠManuel": 5006,
      "ĠAntonio": 5007,
      "ĠÃ³": 5008,
      "ĠmÃŃ": 5009,
      "https": 5010,
      "Ġamarillo": 5011,
      "[-": 5012,
      "blan": 5013,
      "fg": 5014,
      "Ġarco": 5015,
      "Ġvideo": 5016,
      "ATA": 5017,
      "copy": 5018,
      "Ġras": 5019,
      "ĠincreÃŃble": 5020,
      "nap": 5021,
      "utas": 5022,
      "Ġperman": 5023,
      "Ġsala": 5024,
      "Ġpublish": 5025,
      "Ġmoraleja": 5026,
      "Ġret": 5027,
      "train": 5028,
      "Ġviejo": 5029,
      "Ġparticular": 5030,
      "elas": 5031,
      "Ġga": 5032,
      "Ġglobo": 5033,
      "Pr": 5034,
      "enci": 5035,
      "ĠMERCHANTABILITY": 5036,
      "88": 5037,
      "GL": 5038,
      "ono": 5039,
      "ĠSur": 5040,
      "headers": 5041,
      "Ġ2014": 5042,
      "true": 5043,
      "Ġgobern": 5044,
      "ĠmuÃ±ecas": 5045,
      "Ġq": 5046,
      "emente": 5047,
      "Ãºa": 5048,
      "ĠEncon": 5049,
      "pia": 5050,
      "tifica": 5051,
      "dig": 5052,
      "Ġedad": 5053,
      "zaba": 5054,
      "icamente": 5055,
      "Ġperdido": 5056,
      "ĠWe": 5057,
      "ĠAlgun": 5058,
      "Ġrelacion": 5059,
      "#!": 5060,
      "Ġaproxim": 5061,
      "norm": 5062,
      "Ġright": 5063,
      "Ġrode": 5064,
      "ĊĠĠ": 5065,
      "Ġpare": 5066,
      "Ġ2009": 5067,
      "Ġtrabajar": 5068,
      "ĠÃºltima": 5069,
      "fono": 5070,
      "Fa": 5071,
      "ĠDom": 5072,
      "required": 5073,
      "Ġallow": 5074,
      "ĠpequeÃ±as": 5075,
      "ture": 5076,
      "except": 5077,
      "Ġpasar": 5078,
      "Ġsuperficie": 5079,
      "yÃ³": 5080,
      "ypes": 5081,
      "stant": 5082,
      "ometry": 5083,
      "Ġperiodista": 5084,
      "Ġpiedra": 5085,
      "::": 5086,
      "QU": 5087,
      "jaron": 5088,
      "Ġnomb": 5089,
      "contrib": 5090,
      "Ġpedir": 5091,
      "nas": 5092,
      "Ġwas": 5093,
      "glo": 5094,
      "todo": 5095,
      "Ġzonas": 5096,
      "Ġpeces": 5097,
      "ĠAp": 5098,
      "only": 5099,
      "ĠSim": 5100,
      "Ġextre": 5101,
      "vierten": 5102,
      "Ġalas": 5103,
      "Ġlast": 5104,
      "ĠteorÃŃa": 5105,
      "Ġlarga": 5106,
      "section": 5107,
      "ures": 5108,
      "ĠMiguel": 5109,
      "ientes": 5110,
      "logger": 5111,
      "Fue": 5112,
      "icia": 5113,
      "Ġintro": 5114,
      "ĠrÃŃ": 5115,
      "OL": 5116,
      "Ġub": 5117,
      "oles": 5118,
      "Ġpared": 5119,
      "ĠQu": 5120,
      "Ġproduce": 5121,
      "Ġhistorias": 5122,
      "Ġnadar": 5123,
      "Ġjugaba": 5124,
      "Ġmenudo": 5125,
      "Ġnecesita": 5126,
      "frame": 5127,
      "ĠAmÃ©rica": 5128,
      "ĠImperio": 5129,
      "system": 5130,
      "plot": 5131,
      "ĠfÃºtbol": 5132,
      "Ġbreak": 5133,
      "Ġrecur": 5134,
      "ĠSte": 5135,
      "izada": 5136,
      "ĠĠĠĠĠĠĠĠĠĠĠĠĠĠĠĠĠĠĠĠĠĠĠĠĠĠĠĠĠĠĠĠ": 5137,
      "Ġ50": 5138,
      "ĠtodavÃŃa": 5139,
      "Ġscript": 5140,
      "abil": 5141,
      "Ġwrite": 5142,
      "ĠllamÃ³": 5143,
      "Ġheaders": 5144,
      "tk": 5145,
      "Ã¡ticas": 5146,
      "Ġcaer": 5147,
      "stack": 5148,
      "datetime": 5149,
      "Ġproce": 5150,
      "37": 5151,
      "cipios": 5152,
      "ĠDo": 5153,
      "pha": 5154,
      "Ġsupport": 5155,
      "35": 5156,
      "Ġdev": 5157,
      "Ġben": 5158,
      "Ġjusto": 5159,
      "Ġpoten": 5160,
      "Ġhacen": 5161,
      "temp": 5162,
      "Ġlogger": 5163,
      "ĠManchas": 5164,
      "ights": 5165,
      "ĠPrim": 5166,
      "Ġbrillaba": 5167,
      "Ġnumeros": 5168,
      "42": 5169,
      "Ġreturned": 5170,
      "ĠOl": 5171,
      "nown": 5172,
      "Ġblanco": 5173,
      "Reg": 5174,
      "vela": 5175,
      "Ġalf": 5176,
      "Ġdu": 5177,
      "bieron": 5178,
      "48": 5179,
      "Ġuid": 5180,
      "common": 5181,
      "Ġmaterial": 5182,
      "ĠBilly": 5183,
      "Path": 5184,
      "Ġcantidad": 5185,
      "direct": 5186,
      "exists": 5187,
      "Ġhubiera": 5188,
      "Ġaventuras": 5189,
      "rity": 5190,
      "Ġrama": 5191,
      "tyle": 5192,
      "Ġdivertirse": 5193,
      "ĠinformaciÃ³n": 5194,
      "Ġresultado": 5195,
      "Quer": 5196,
      "Ġ'__": 5197,
      "Ġfron": 5198,
      "ĠnÃºmeros": 5199,
      "Ġtenido": 5200,
      "err": 5201,
      "quiera": 5202,
      "Ġinterior": 5203,
      "Ġpuesto": 5204,
      "script": 5205,
      "ĠTierra": 5206,
      "Eres": 5207,
      "ĠtÃº": 5208,
      "icon": 5209,
      "ficio": 5210,
      "Parser": 5211,
      "iva": 5212,
      "Ġtur": 5213,
      "ĠdueÃ±o": 5214,
      "ites": 5215,
      "iensa": 5216,
      "pop": 5217,
      "Ġ2004": 5218,
      "Is": 5219,
      "lad": 5220,
      "Ġexisten": 5221,
      "multi": 5222,
      "src": 5223,
      "tmp": 5224,
      "Ġpaso": 5225,
      "Ġcari": 5226,
      "Ġunittest": 5227,
      "Ġvas": 5228,
      "Ġtests": 5229,
      "ĠUR": 5230,
      "ĠocÃ©": 5231,
      "]:": 5232,
      "other": 5233,
      "job": 5234,
      "ĠDurante": 5235,
      "expected": 5236,
      "Ġtranqu": 5237,
      "sar": 5238,
      "Ġencoding": 5239,
      "Ġjud": 5240,
      "Ġ40": 5241,
      "lower": 5242,
      "Module": 5243,
      "Ġindividu": 5244,
      "random": 5245,
      "ĠprÃ³xima": 5246,
      "TO": 5247,
      "Ġnaran": 5248,
      "ĠEntre": 5249,
      "Ġroot": 5250,
      "network": 5251,
      "Ġspecified": 5252,
      "tedes": 5253,
      "eca": 5254,
      "Ġcolombi": 5255,
      "ĊĠĠĠĠĠĠĠĠĠĠĠĠĠĠĠĠĠĠĠĠĠĠĠĠĠ": 5256,
      "Ġpusieron": 5257,
      "tegra": 5258,
      "rique": 5259,
      "eraciÃ³n": 5260,
      "Ġgui": 5261,
      "ficos": 5262,
      "Ġdirec": 5263,
      "Ġantiguo": 5264,
      "Ay": 5265,
      "Ġcometa": 5266,
      "ĠMartÃŃn": 5267,
      "next": 5268,
      "stop": 5269,
      "Ġfactor": 5270,
      "setup": 5271,
      "ĠDaisy": 5272,
      "ĠInternacional": 5273,
      "Ġthen": 5274,
      "connect": 5275,
      "ive": 5276,
      "Ġpreci": 5277,
      "Ġustedes": 5278,
      "ĠlevantÃ³": 5279,
      "Ġocas": 5280,
      "very": 5281,
      "Ġhermana": 5282,
      "Ġcabal": 5283,
      "Ġlines": 5284,
      "Puedes": 5285,
      "ĠfÃ¡cil": 5286,
      "ĠconstrucciÃ³n": 5287,
      "product": 5288,
      "ict": 5289,
      "ional": 5290,
      "ĠLucy": 5291,
      ".)": 5292,
      "Event": 5293,
      "Ver": 5294,
      "Ġmodo": 5295,
      "ificaciÃ³n": 5296,
      "Ġgemelos": 5297,
      ":%": 5298,
      "Ġanterior": 5299,
      "tores": 5300,
      "iloto": 5301,
      "KEY": 5302,
      "Ġhada": 5303,
      "tron": 5304,
      "umber": 5305,
      "Ġ185": 5306,
      "ĠPod": 5307,
      "adora": 5308,
      "Ġexception": 5309,
      "sets": 5310,
      "Ã¡genes": 5311,
      "Ġdisf": 5312,
      "Ġ2003": 5313,
      "book": 5314,
      "tadas": 5315,
      "Ġfras": 5316,
      "ĠAD": 5317,
      "PL": 5318,
      "ingÃ¼": 5319,
      "ĠReal": 5320,
      "ĠPuedes": 5321,
      "Ġingen": 5322,
      "Ġtensor": 5323,
      "Ġfail": 5324,
      "Ġgranjero": 5325,
      "anahor": 5326,
      "Ġviol": 5327,
      "Ġliber": 5328,
      "URL": 5329,
      "sup": 5330,
      "Ġsient": 5331,
      "tarse": 5332,
      "Ġprincipios": 5333,
      "Ġinternacional": 5334,
      "ĠtamaÃ±o": 5335,
      "Ġesf": 5336,
      "ĠBe": 5337,
      "Ġzanahor": 5338,
      "Ġnuestro": 5339,
      "26": 5340,
      "dem": 5341,
      "idate": 5342,
      "Ã¡nd": 5343,
      "Ġreser": 5344,
      "Ġcateg": 5345,
      "oraciÃ³n": 5346,
      "Ġsignific": 5347,
      "Param": 5348,
      "icaciÃ³n": 5349,
      "ĠcorazÃ³n": 5350,
      "Ġmono": 5351,
      "Ġcontenta": 5352,
      "ĊĠĠĠĠĠĠĠĠĠĠĠĠĠĠĠĠĠ": 5353,
      "talia": 5354,
      "27": 5355,
      "parta": 5356,
      "ĠHab": 5357,
      "ĠTenÃŃan": 5358,
      "elease": 5359,
      "sl": 5360,
      "ĠPan": 5361,
      "ĠPas": 5362,
      "peti": 5363,
      "ÃŃncipe": 5364,
      "Ġescucharon": 5365,
      "Ġanimal": 5366,
      "Ġ1990": 5367,
      "grafÃŃa": 5368,
      "Ġuseful": 5369,
      "first": 5370,
      "Aut": 5371,
      "auto": 5372,
      "Ġlig": 5373,
      "Ġinform": 5374,
      "Per": 5375,
      "gor": 5376,
      "Ġmenor": 5377,
      "Ġases": 5378,
      "bl": 5379,
      "Ġreac": 5380,
      "Ġllena": 5381,
      "Ġnumpy": 5382,
      "Ġjoven": 5383,
      "ĠJugaron": 5384,
      "landÃ©s": 5385,
      "tador": 5386,
      "Ã©ct": 5387,
      "lada": 5388,
      "ĠIt": 5389,
      "ĠLeÃ³n": 5390,
      "crip": 5391,
      "Ġalegre": 5392,
      "Ġayudarlo": 5393,
      "bytes": 5394,
      "Ġsec": 5395,
      "Ġ29": 5396,
      "Ġfuente": 5397,
      "Ġsegura": 5398,
      "inar": 5399,
      "dan": 5400,
      "hu": 5401,
      "Ġlisto": 5402,
      "Ġenci": 5403,
      "Ġtoken": 5404,
      "Ġtipos": 5405,
      "ctionary": 5406,
      "Ġcaminar": 5407,
      "ĠVersion": 5408,
      "Ġzapatos": 5409,
      "blank": 5410,
      "fn": 5411,
      "Ġcentral": 5412,
      "Ġconfiguration": 5413,
      "ĠAunque": 5414,
      "ĊĠĠĠĠĠĠĠĠĠĠĠĠĠĠ": 5415,
      "ĠversiÃ³n": 5416,
      "ĠgustÃ³": 5417,
      "timeout": 5418,
      "Ġdeclar": 5419,
      "Ġlentamente": 5420,
      "ismos": 5421,
      "site": 5422,
      "oneda": 5423,
      "Ġmod": 5424,
      "ponse": 5425,
      "+)": 5426,
      "ĠDicen": 5427,
      "Ġpaz": 5428,
      "Ġsoci": 5429,
      "Ġimple": 5430,
      "ĠimÃ¡genes": 5431,
      "Ġmundial": 5432,
      "Ġado": 5433,
      "Ġyo": 5434,
      "ĠMag": 5435,
      "ceptions": 5436,
      "Ġresource": 5437,
      "Ġsof": 5438,
      "Ġbalonces": 5439,
      "Ġsentirse": 5440,
      "chema": 5441,
      "ternal": 5442,
      "Ġrandom": 5443,
      "ĠAND": 5444,
      "ymbol": 5445,
      "ges": 5446,
      "Ġelef": 5447,
      "rimonio": 5448,
      "ibliote": 5449,
      "#!/": 5450,
      "Ġcr": 5451,
      "ĠcomiÃ³": 5452,
      "ĠPablo": 5453,
      "Ġtengo": 5454,
      "ĠChina": 5455,
      "ĠParÃŃs": 5456,
      "Ġinfl": 5457,
      "Ġcomunidad": 5458,
      "Ab": 5459,
      "Ġsiente": 5460,
      "fault": 5461,
      "environ": 5462,
      "Ġpag": 5463,
      "IND": 5464,
      "ULT": 5465,
      "Ġderro": 5466,
      "logo": 5467,
      "ĠChar": 5468,
      "ĠDon": 5469,
      "Ġpermit": 5470,
      "Ġcount": 5471,
      "Ġdisco": 5472,
      "']:": 5473,
      "ĠdivirtiÃ³": 5474,
      "groups": 5475,
      "'d": 5476,
      "unit": 5477,
      "aÃ±os": 5478,
      "real": 5479,
      "Ġnon": 5480,
      "olean": 5481,
      "ĠNorte": 5482,
      "Ġdicho": 5483,
      "utton": 5484,
      "pache": 5485,
      "dura": 5486,
      "ciar": 5487,
      "Ġelem": 5488,
      "Ġnext": 5489,
      "ĠRoma": 5490,
      "ĊĊĉ": 5491,
      "Ġcanciones": 5492,
      "ain": 5493,
      "Ġavan": 5494,
      "ĠSab": 5495,
      "Ġ1998": 5496,
      "Ġavergon": 5497,
      ":`": 5498,
      "into": 5499,
      "isis": 5500,
      "Ġplanta": 5501,
      "day": 5502,
      "ĠDis": 5503,
      "Ġpier": 5504,
      "Ġnull": 5505,
      "Ġpato": 5506,
      "Ġchil": 5507,
      "CR": 5508,
      "tun": 5509,
      "stor": 5510,
      "Ġcourse": 5511,
      "Ġ2015": 5512,
      "Ġrealidad": 5513,
      "Ġdormir": 5514,
      "Ġhom": 5515,
      "ĠJill": 5516,
      "paciÃ³n": 5517,
      "Ġvisitar": 5518,
      "pati": 5519,
      "otos": 5520,
      "ater": 5521,
      "ĠEmma": 5522,
      "let": 5523,
      "ĠGet": 5524,
      "ĠbaÃ±o": 5525,
      "ĠWARRANTY": 5526,
      "ĠjaponÃ©s": 5527,
      "Yo": 5528,
      "Ġunicode": 5529,
      "Ġmanta": 5530,
      "Ġgraph": 5531,
      "Ġguitar": 5532,
      "starts": 5533,
      "ĠÃ¡lbum": 5534,
      ")):": 5535,
      "Date": 5536,
      "PRO": 5537,
      "Ġbel": 5538,
      "itch": 5539,
      "ends": 5540,
      "ĠolvidÃ³": 5541,
      "Ã³logo": 5542,
      "iiiiiiiiiiiiiiiiiiiiiiiiiiiiiiii": 5543,
      "At": 5544,
      "uz": 5545,
      "Ġaplica": 5546,
      "Ġentry": 5547,
      "ulos": 5548,
      "tulo": 5549,
      "Ġescribir": 5550,
      "Estoy": 5551,
      "PR": 5552,
      "Ġredistribu": 5553,
      "pital": 5554,
      "Ġafter": 5555,
      "iam": 5556,
      "Ġsiglo": 5557,
      "ĠgÃ©nero": 5558,
      "ĠtelÃ©": 5559,
      "iera": 5560,
      "Ġep": 5561,
      "ĠAc": 5562,
      "Ġfuertes": 5563,
      "service": 5564,
      "ĠAprendieron": 5565,
      "Ġtecn": 5566,
      "Ġreceived": 5567,
      "Rec": 5568,
      "Ġlay": 5569,
      "Ġelev": 5570,
      "clam": 5571,
      "Ġprograma": 5572,
      "Ġcarta": 5573,
      "ĠsabÃŃan": 5574,
      "Ġdeben": 5575,
      "ping": 5576,
      "Ġpiloto": 5577,
      "inta": 5578,
      "ĠMal": 5579,
      "Ġanal": 5580,
      "ĠejÃ©rcito": 5581,
      "Ġ>=": 5582,
      "ĠAlemania": 5583,
      "Ġadelante": 5584,
      "Ġdiferencia": 5585,
      "ĊĠĠĠĠĠĠĠĠĠĠĠĠĠĠĠĠĠĠĠĠĠ": 5586,
      "Ġroto": 5587,
      "Ġinflu": 5588,
      "ABLE": 5589,
      "ĠGobierno": 5590,
      "Ahora": 5591,
      "Ġsame": 5592,
      "Ġcolo": 5593,
      "ĠseÃ±or": 5594,
      "cepto": 5595,
      "Ġhoras": 5596,
      "ĠPodemos": 5597,
      "ĠsubiÃ³": 5598,
      "Ġelecciones": 5599,
      "(__": 5600,
      "bit": 5601,
      "Ġcontigo": 5602,
      "Ġgig": 5603,
      "Ġinfo": 5604,
      "Ġ'-": 5605,
      "eth": 5606,
      "estamp": 5607,
      "OS": 5608,
      "Ġconnection": 5609,
      "Ġdivierten": 5610,
      "ĠCer": 5611,
      "94": 5612,
      "eli": 5613,
      "changed": 5614,
      "osotros": 5615,
      "istoria": 5616,
      "Ġ1980": 5617,
      "fs": 5618,
      "ÃŃz": 5619,
      "ienta": 5620,
      "para": 5621,
      "Ġcolon": 5622,
      "Object": 5623,
      "domain": 5624,
      "Ġdir": 5625,
      "Ġexp": 5626,
      "MENT": 5627,
      "ĠLAT": 5628,
      "ĠcuÃ¡n": 5629,
      "ĠHar": 5630,
      "Ġnaturaleza": 5631,
      "Ġzo": 5632,
      "Ġbi": 5633,
      "ÃŃstico": 5634,
      "Ġwar": 5635,
      "ley": 5636,
      "Ġantigua": 5637,
      "28": 5638,
      "mer": 5639,
      "Ġenter": 5640,
      "Ġfilter": 5641,
      "Ġbols": 5642,
      "Ġsir": 5643,
      "Ġmoneda": 5644,
      "unittest": 5645,
      "Ġhar": 5646,
      "Ġvariable": 5647,
      "ĠocÃ©ano": 5648,
      "05": 5649,
      "Ġllave": 5650,
      "Ġnues": 5651,
      "ĠcreaciÃ³n": 5652,
      "ĠempezÃ³": 5653,
      "Item": 5654,
      "Ġprac": 5655,
      "chÃ³": 5656,
      "ĠOn": 5657,
      "Ġobl": 5658,
      "ĠrompiÃ³": 5659,
      "Ġparameters": 5660,
      "Ġfrasco": 5661,
      "]))": 5662,
      "vado": 5663,
      "ĠahÃŃ": 5664,
      "Ġgor": 5665,
      "Ġpues": 5666,
      "ĊĠĠĠĠĠĠĠĠĊĠĠĠĠĠĠĠ": 5667,
      "pus": 5668,
      "Ġapre": 5669,
      "ingle": 5670,
      "Ġobtain": 5671,
      "/%": 5672,
      "FF": 5673,
      "eval": 5674,
      "apache": 5675,
      "style": 5676,
      "exception": 5677,
      "ĠsonrÃŃe": 5678,
      "iv": 5679,
      "ĠGra": 5680,
      "Ġcaden": 5681,
      "Ġchild": 5682,
      "Node": 5683,
      "titud": 5684,
      "Ġinstitu": 5685,
      "ĠLATIN": 5686,
      "mica": 5687,
      "amento": 5688,
      "dados": 5689,
      "imen": 5690,
      "Ġguar": 5691,
      "Ġcle": 5692,
      "Ġbatalla": 5693,
      "Ã¡mara": 5694,
      "Ġpermissions": 5695,
      "Ġsession": 5696,
      "ÃŃg": 5697,
      "ĠEran": 5698,
      "Ġproyecto": 5699,
      "ale": 5700,
      "Ġmitad": 5701,
      "connection": 5702,
      "ĊĠĠĠĠĠĠĠĠĠĠĠĠĠĠĠĠĠĠĠĠĠĠĠĠ": 5703,
      "ĠDios": 5704,
      "Ġpublica": 5705,
      "Ġninguna": 5706,
      "This": 5707,
      "ĠApache": 5708,
      "itan": 5709,
      "truct": 5710,
      "Ġislas": 5711,
      "ĠsucediÃ³": 5712,
      "mÃ³": 5713,
      "riendo": 5714,
      "Ġperfecto": 5715,
      "ĠartÃŃ": 5716,
      "âĢĿ": 5717,
      "75": 5718,
      "ĠexplicÃ³": 5719,
      "erator": 5720,
      "Ġsue": 5721,
      "ĠcatÃ³": 5722,
      "Ġsetup": 5723,
      "erop": 5724,
      "ĠSegun": 5725,
      "Ġdispon": 5726,
      "tadora": 5727,
      "hash": 5728,
      "Ġconven": 5729,
      "bat": 5730,
      "Ġexam": 5731,
      "stdout": 5732,
      "istencia": 5733,
      "ĠJap": 5734,
      "Ġradio": 5735,
      "ĠUs": 5736,
      "Ġgriego": 5737,
      "Ġpublished": 5738,
      "jeros": 5739,
      "pal": 5740,
      "Ġdevice": 5741,
      "abilidad": 5742,
      "Ġja": 5743,
      "Ġmeses": 5744,
      "Ġnegro": 5745,
      "cando": 5746,
      "ĊĊĊĠĠĠ": 5747,
      "ĠEj": 5748,
      "ĠFu": 5749,
      "ĠInc": 5750,
      "Ġmadera": 5751,
      "Ġ60": 5752,
      "llib": 5753,
      "Ġayudarte": 5754,
      "XX": 5755,
      "ender": 5756,
      "29": 5757,
      "ĠJe": 5758,
      "ĠperÃŃo": 5759,
      "Ġ2001": 5760,
      "startswith": 5761,
      "send": 5762,
      "Ġdivirtiendo": 5763,
      "Todos": 5764,
      "46": 5765,
      "Ġsob": 5766,
      "Ġtable": 5767,
      "abor": 5768,
      "indows": 5769,
      "Ġrecuper": 5770,
      "Ġtuple": 5771,
      "quÃ©": 5772,
      "lot": 5773,
      "Ġcarg": 5774,
      "Ġbaja": 5775,
      "greso": 5776,
      "Ġtesoro": 5777,
      "Out": 5778,
      "ben": 5779,
      "ĠBu": 5780,
      "Ġabeja": 5781,
      "ogra": 5782,
      "Ġorgullosos": 5783,
      "ources": 5784,
      "ĠSch": 5785,
      "Ġcreer": 5786,
      "Ġaterrador": 5787,
      "\"))": 5788,
      "over": 5789,
      "ÃŃamos": 5790,
      ".\")": 5791,
      "Ġposib": 5792,
      "Ġner": 5793,
      "Ġhorm": 5794,
      "Ġgl": 5795,
      "Ġcrecimiento": 5796,
      ".')": 5797,
      "Ġmaestra": 5798,
      "Ġdesem": 5799,
      "Ġhombres": 5800,
      "ĠArgentina": 5801,
      "ĠpolicÃŃa": 5802,
      "handle": 5803,
      "else": 5804,
      "Ġunirse": 5805,
      "Ġ{\"": 5806,
      "Ġpasaba": 5807,
      "ĠComo": 5808,
      "Ġalong": 5809,
      "Ġorigin": 5810,
      "kes": 5811,
      "roll": 5812,
      "Ġ),": 5813,
      "Ġdefini": 5814,
      "ĠWil": 5815,
      "licos": 5816,
      "ITION": 5817,
      "ATION": 5818,
      "Ġescondi": 5819,
      "Ġemocionados": 5820,
      "Ġcontento": 5821,
      "Ġherram": 5822,
      "Ã¶": 5823,
      "Ġtrom": 5824,
      "ĊĠĠĠĠĠĠĠĠĠĠĠĠĠĠĠĠĠĠĠĠĠĠ": 5825,
      "Ġits": 5826,
      "ĠsofÃ¡": 5827,
      "ÃŃdo": 5828,
      "Ġintentar": 5829,
      "uciÃ³n": 5830,
      "ĠPla": 5831,
      "etch": 5832,
      "ayas": 5833,
      "Ġdado": 5834,
      "errors": 5835,
      "Ġsopa": 5836,
      "TE": 5837,
      "arita": 5838,
      "Ġgracioso": 5839,
      "Ġministro": 5840,
      "################################################################": 5841,
      "-+": 5842,
      "ĠEso": 5843,
      "\"):": 5844,
      "('/": 5845,
      "Este": 5846,
      "Ġarmario": 5847,
      "39": 5848,
      "Ġsecon": 5849,
      "Ġabur": 5850,
      "Ġsosten": 5851,
      "\"],": 5852,
      "Ġfalse": 5853,
      "location": 5854,
      "Ġ31": 5855,
      "Ġansible": 5856,
      "andy": 5857,
      "Ġbail": 5858,
      "Ġafir": 5859,
      "bel": 5860,
      "dora": 5861,
      "gine": 5862,
      "Ġmoverse": 5863,
      "register": 5864,
      "Ġ..": 5865,
      "sw": 5866,
      "Ġapi": 5867,
      "quire": 5868,
      "related": 5869,
      "Gen": 5870,
      "dist": 5871,
      "ĠEd": 5872,
      "Request": 5873,
      "Ġestudios": 5874,
      "ĠIglesia": 5875,
      "ĠPe": 5876,
      "ĠGri": 5877,
      "ĠÃºnica": 5878,
      "mbol": 5879,
      "Ġsenta": 5880,
      "Ġnucle": 5881,
      "Ġseis": 5882,
      "ĠcaracterÃŃsticas": 5883,
      "Ġfru": 5884,
      "Ġdise": 5885,
      "ĠJer": 5886,
      "Ġ2016": 5887,
      "struct": 5888,
      "Ġgover": 5889,
      "FOR": 5890,
      "arra": 5891,
      "Ġacom": 5892,
      "ĠsentÃ³": 5893,
      "login": 5894,
      "ĠrecibiÃ³": 5895,
      "Message": 5896,
      "Pre": 5897,
      "pue": 5898,
      "dest": 5899,
      "ĠalgÃºn": 5900,
      "Ġmuestra": 5901,
      "Ġdescon": 5902,
      "Ġpie": 5903,
      "volume": 5904,
      "Ġreligi": 5905,
      "cialmente": 5906,
      "Ġcarb": 5907,
      "ystem": 5908,
      "Ġllevaba": 5909,
      "Ġmercado": 5910,
      "UD": 5911,
      ").__": 5912,
      "Ġpermite": 5913,
      "ĠcÃ¡lido": 5914,
      "ĠcÃ©lulas": 5915,
      "Ġredistribute": 5916,
      "din": 5917,
      "Ġrecom": 5918,
      "Ġxml": 5919,
      "zz": 5920,
      "cluso": 5921,
      "Ġrow": 5922,
      "ĠKey": 5923,
      "ries": 5924,
      "Ġina": 5925,
      "siones": 5926,
      "Ġtempor": 5927,
      "step": 5928,
      "Ġpackage": 5929,
      "pea": 5930,
      "rome": 5931,
      "ĠImport": 5932,
      "ĠGarcÃŃa": 5933,
      "Trans": 5934,
      "oria": 5935,
      "Ġconn": 5936,
      "Ġamist": 5937,
      "ceso": 5938,
      "rista": 5939,
      "Ġagre": 5940,
      "Ġfundam": 5941,
      "execute": 5942,
      "He": 5943,
      "perador": 5944,
      "ctory": 5945,
      "NO": 5946,
      "rate": 5947,
      "Ġsigue": 5948,
      "ĠdiseÃ±": 5949,
      "perties": 5950,
      "Ġhistori": 5951,
      "layer": 5952,
      "Ġevitar": 5953,
      "Ġnovela": 5954,
      "ĠPat": 5955,
      "vert": 5956,
      "Ġpost": 5957,
      "Ġtrasero": 5958,
      "ĠapareciÃ³": 5959,
      "Ġ$": 5960,
      "Ġ...": 5961,
      "Ġlamb": 5962,
      "Ġiban": 5963,
      "Ġoff": 5964,
      "Ġcumple": 5965,
      "TEST": 5966,
      "Ġtop": 5967,
      "Ġcarre": 5968,
      "ucÃŃa": 5969,
      "Ġcolumpios": 5970,
      "Ġalivi": 5971,
      "By": 5972,
      "pool": 5973,
      "Ġcache": 5974,
      "Ġteatro": 5975,
      "Ġencima": 5976,
      "Ġpis": 5977,
      "ĠUser": 5978,
      "Ġerrors": 5979,
      "encoding": 5980,
      "Ġservice": 5981,
      "Ġdibujo": 5982,
      "ĠmÃ¡gico": 5983,
      "DB": 5984,
      "ĠHe": 5985,
      "Ġtravi": 5986,
      "ĠningÃºn": 5987,
      "All": 5988,
      "ĠcÃŃr": 5989,
      "Ġbolsillo": 5990,
      "ng": 5991,
      "Ġtr": 5992,
      "Ġmue": 5993,
      "ĠCent": 5994,
      "iraron": 5995,
      "Ġview": 5996,
      "Ġ1992": 5997,
      "ĠAprendiÃ³": 5998,
      "Ġbrazos": 5999,
      "Ġace": 6000,
      "reo": 6001,
      "Ġfer": 6002,
      "Ġplay": 6003,
      "ĠmÃ¡quina": 6004,
      "Ġindependiente": 6005,
      "06": 6006,
      "Ġcompon": 6007,
      "'})": 6008,
      "ĊĊĠĠĠĠĠĠĠĠĠĠĠĠĠĠĠ": 6009,
      "Ġlarg": 6010,
      "Ġdura": 6011,
      "Ġorien": 6012,
      "Ġsiguientes": 6013,
      "Ġhope": 6014,
      "Lila": 6015,
      "idation": 6016,
      "Ġoro": 6017,
      "Ġimportancia": 6018,
      "ristÃ³": 6019,
      "Ġlambda": 6020,
      "Ġ1997": 6021,
      "Ġejecu": 6022,
      "Ġprovided": 6023,
      "ĠcariÃ±o": 6024,
      "For": 6025,
      "Ġexecu": 6026,
      "present": 6027,
      "Ġayudarme": 6028,
      "Ġold": 6029,
      "Ġhumano": 6030,
      "95": 6031,
      "Ġobjeto": 6032,
      "Ġseg": 6033,
      "socia": 6034,
      "ĠâĢľ": 6035,
      "ĠobservÃ³": 6036,
      "=%": 6037,
      "cc": 6038,
      "wd": 6039,
      "arca": 6040,
      "Ġ()": 6041,
      "Ġrue": 6042,
      "istÃ¡n": 6043,
      "123": 6044,
      "Ġcolumpio": 6045,
      "Ġwarran": 6046,
      "yos": 6047,
      "tax": 6048,
      "Ġenfr": 6049,
      "ection": 6050,
      "Ġcompren": 6051,
      "ĠPi": 6052,
      "Ġaband": 6053,
      "Ġclase": 6054,
      "Quiero": 6055,
      "Ġtf": 6056,
      "dill": 6057,
      "Ġloc": 6058,
      "License": 6059,
      "Mami": 6060,
      "Ġrelaciones": 6061,
      "Ġconocida": 6062,
      "Ġnervi": 6063,
      "yes": 6064,
      "anda": 6065,
      "ricos": 6066,
      "Ġ'--": 6067,
      "igu": 6068,
      "Ġpersonal": 6069,
      "Ġprimeras": 6070,
      "ĠeducaciÃ³n": 6071,
      "tiago": 6072,
      "Ġje": 6073,
      "Run": 6074,
      "tida": 6075,
      "Ġllama": 6076,
      "ĠChile": 6077,
      "Ġhumanos": 6078,
      "orld": 6079,
      "Ġsentido": 6080,
      "ĠpÃºblico": 6081,
      "Ġintrodu": 6082,
      "Ġgranja": 6083,
      "Ġquieren": 6084,
      "resh": 6085,
      "FAULT": 6086,
      "mt": 6087,
      "ĠatÃ³": 6088,
      "Ġsupuesto": 6089,
      "Ġjob": 6090,
      "ĠNOT": 6091,
      "ĠRos": 6092,
      "04": 6093,
      "Ġadi": 6094,
      "Ġhue": 6095,
      "frica": 6096,
      "Ġfab": 6097,
      "Ġmirando": 6098,
      "ambda": 6099,
      "Ġlink": 6100,
      "anismo": 6101,
      "tags": 6102,
      "Ġbur": 6103,
      "ĠTol": 6104,
      "ĠBAS": 6105,
      "Ġjugo": 6106,
      "Ġcerc": 6107,
      "Ġ2002": 6108,
      "Ġcrear": 6109,
      "umentos": 6110,
      "Ġbarro": 6111,
      "Ã©ndo": 6112,
      "Ġsimplemente": 6113,
      "Ġnosotros": 6114,
      "roe": 6115,
      "Ġox": 6116,
      "vider": 6117,
      "Ġvalid": 6118,
      "Ġlindo": 6119,
      "Ġinformation": 6120,
      "Line": 6121,
      "au": 6122,
      "sim": 6123,
      "aturas": 6124,
      "ings": 6125,
      "Ġpresencia": 6126,
      "Ġvaca": 6127,
      "ĠAPI": 6128,
      "Ġstruct": 6129,
      "Ġwarranty": 6130,
      "Ġcalend": 6131,
      "cultura": 6132,
      "lim": 6133,
      "ĠÃ¡n": 6134,
      "77": 6135,
      "Mar": 6136,
      "ected": 6137,
      "Ġexiste": 6138,
      "ĠKIND": 6139,
      "Ġcabo": 6140,
      "Ġtron": 6141,
      "bado": 6142,
      "Ġdenomin": 6143,
      "DIR": 6144,
      "aco": 6145,
      "pero": 6146,
      "tten": 6147,
      "warning": 6148,
      "xx": 6149,
      "Ġemail": 6150,
      "Ġincor": 6151,
      "Ġexac": 6152,
      "Ġcalor": 6153,
      "ĠsÃŃmbol": 6154,
      "View": 6155,
      "lÃ³": 6156,
      "sidad": 6157,
      "rael": 6158,
      "illos": 6159,
      "plos": 6160,
      "Ġbote": 6161,
      "Element": 6162,
      "Ġara": 6163,
      "Ġjugaban": 6164,
      "Ġverdad": 6165,
      "Ġpiedras": 6166,
      "ĠJapÃ³n": 6167,
      "met": 6168,
      "ĠtazÃ³n": 6169,
      "Ġthread": 6170,
      "rasile": 6171,
      "čĊčĊĠĠĠ": 6172,
      "package": 6173,
      "EL": 6174,
      "]]": 6175,
      "Ãºtil": 6176,
      "Ġcase": 6177,
      "vars": 6178,
      "Ġperiodo": 6179,
      "Bob": 6180,
      "ĠAca": 6181,
      "rano": 6182,
      "ferencia": 6183,
      "clean": 6184,
      "Ġestoy": 6185,
      "Ġwriting": 6186,
      "ĠatrÃ¡s": 6187,
      "ises": 6188,
      "Ġthere": 6189,
      "Ġlevel": 6190,
      "Ġgustan": 6191,
      "96": 6192,
      "ĠreÃŃr": 6193,
      "ĠItalia": 6194,
      "Ġtransform": 6195,
      "Ġinitial": 6196,
      "wa": 6197,
      "Ġtare": 6198,
      "Ġ'<": 6199,
      "pare": 6200,
      "andro": 6201,
      "Ġtoma": 6202,
      "Ġrefri": 6203,
      "DS": 6204,
      "sv": 6205,
      "Ã¡ticos": 6206,
      "Ġsearch": 6207,
      "Ġcocin": 6208,
      "Ġfelizmente": 6209,
      "Ġatle": 6210,
      "Ġremove": 6211,
      "Ġmanzana": 6212,
      "85": 6213,
      "LICENSE": 6214,
      "Ġinmedi": 6215,
      "ĠBer": 6216,
      "pute": 6217,
      "metros": 6218,
      "Ġpies": 6219,
      "ĠYork": 6220,
      "Response": 6221,
      "WARE": 6222,
      "Ġtorm": 6223,
      "tation": 6224,
      "Ġhandle": 6225,
      "ĠAz": 6226,
      "ĠeconomÃŃa": 6227,
      "Ġcapacidad": 6228,
      "BU": 6229,
      "ĠMen": 6230,
      "ĠBal": 6231,
      "tarÃŃa": 6232,
      "rt": 6233,
      "Ġfull": 6234,
      "ĠTri": 6235,
      "Ġsystem": 6236,
      "Ġnuestra": 6237,
      "ĠprometiÃ³": 6238,
      "Ġnariz": 6239,
      "Ġaquel": 6240,
      "Ġrefriger": 6241,
      "mun": 6242,
      "loader": 6243,
      "Ġmantuvo": 6244,
      "Ġarguments": 6245,
      "eado": 6246,
      "Ġshape": 6247,
      "useo": 6248,
      "ĠdebÃŃa": 6249,
      "pany": 6250,
      "results": 6251,
      "eco": 6252,
      "atorio": 6253,
      "ernel": 6254,
      "tienen": 6255,
      "rapper": 6256,
      "Ġwhere": 6257,
      "Ġmencion": 6258,
      "Tra": 6259,
      "ĠPronto": 6260,
      "Ġinfluencia": 6261,
      "pc": 6262,
      "exc": 6263,
      "']['": 6264,
      "oreign": 6265,
      "Ġpiezas": 6266,
      "84": 6267,
      "MO": 6268,
      "lambda": 6269,
      "lev": 6270,
      "Ġsimple": 6271,
      "31": 6272,
      "fl": 6273,
      "Ġacog": 6274,
      "example": 6275,
      "plicable": 6276,
      "ĠespecÃŃ": 6277,
      "Ġproporcion": 6278,
      "ĠURL": 6279,
      "Dict": 6280,
      "MÃ¡s": 6281,
      "Ġcueva": 6282,
      "ating": 6283,
      "edor": 6284,
      "ĠGracias": 6285,
      "Ġbefore": 6286,
      "Ġ1996": 6287,
      "cepciÃ³n": 6288,
      "ĠnÃºcle": 6289,
      "Ġterminar": 6290,
      "gue": 6291,
      "Ġadap": 6292,
      "Ġanun": 6293,
      "Ġbocadil": 6294,
      "Ġliteratura": 6295,
      "Ġstream": 6296,
      "Ġgira": 6297,
      "Ġsalieron": 6298,
      "Ġsocket": 6299,
      "Ġproduct": 6300,
      "Ġoscuro": 6301,
      "Ġrespecto": 6302,
      "PAT": 6303,
      "icy": 6304,
      "change": 6305,
      "Ġactividad": 6306,
      "Ġcollar": 6307,
      "Ġidioma": 6308,
      "fos": 6309,
      "kw": 6310,
      "Ġmarco": 6311,
      "Ġlanz": 6312,
      "ĠSegunda": 6313,
      "iver": 6314,
      "zip": 6315,
      "Ġgeta": 6316,
      "ustra": 6317,
      "laciones": 6318,
      "ĠAnd": 6319,
      "ĠEstos": 6320,
      "install": 6321,
      "ĠlanzÃ³": 6322,
      "Ġobjects": 6323,
      "Ġindependencia": 6324,
      "taciones": 6325,
      "digo": 6326,
      "Ġbl": 6327,
      "ĠMin": 6328,
      "Ġtrain": 6329,
      "Ġdarle": 6330,
      "Ġsample": 6331,
      "ĠAR": 6332,
      "quen": 6333,
      "Ġempty": 6334,
      "bÃ³": 6335,
      "gado": 6336,
      "coun": 6337,
      "cope": 6338,
      "ingo": 6339,
      "253": 6340,
      "ficios": 6341,
      "Ġespeciales": 6342,
      "TYPE": 6343,
      "ĠsituaciÃ³n": 6344,
      "ĠLI": 6345,
      "ĠLicensed": 6346,
      "Ġejer": 6347,
      "ĠsueÃ±o": 6348,
      "trones": 6349,
      "\");": 6350,
      "gnu": 6351,
      "(**": 6352,
      "Ġsom": 6353,
      "ĠmarrÃ³n": 6354,
      "ĠCheck": 6355,
      "ĠWilliam": 6356,
      "Para": 6357,
      "ĠSpot": 6358,
      "ady": 6359,
      "Ġmetal": 6360,
      "enso": 6361,
      "Ġutiliza": 6362,
      "Ġdocumentation": 6363,
      "ĠtelÃ©fono": 6364,
      "Ġrespuesta": 6365,
      "tical": 6366,
      "Ġ1991": 6367,
      "cidente": 6368,
      "Ġenum": 6369,
      "Ġsection": 6370,
      "attributes": 6371,
      "ĠusÃ³": 6372,
      "ĠclÃ¡s": 6373,
      "napsho": 6374,
      "Ġgetattr": 6375,
      "sql": 6376,
      "Ġstyle": 6377,
      "dit": 6378,
      "access": 6379,
      "ĠJue": 6380,
      "Ġsiguieron": 6381,
      "Ġtimeout": 6382,
      "CONF": 6383,
      "ĊĠĠĠĠĠĠ": 6384,
      "Ġdibujos": 6385,
      "ĠCiudad": 6386,
      "Ġaproximadamente": 6387,
      "handler": 6388,
      "ĠbÃ¡s": 6389,
      "ĠMat": 6390,
      "ĊĠĠĠĠĠĠĠĠĠĠĠĠĠĠĠĠĠĠ": 6391,
      "Ġcasos": 6392,
      "ĠpodrÃŃan": 6393,
      "Ġfrecu": 6394,
      "Ġbrasile": 6395,
      "Ġrepar": 6396,
      "ĠPRO": 6397,
      "Ġdespe": 6398,
      "ĠperÃŃodo": 6399,
      "Ġsuc": 6400,
      "Ġparece": 6401,
      "ĠbritÃ¡nica": 6402,
      "Ġarrepen": 6403,
      "als": 6404,
      "Ġmaravilloso": 6405,
      "br": 6406,
      "arle": 6407,
      "anes": 6408,
      "ĠHay": 6409,
      "Ġcorte": 6410,
      "Ġviv": 6411,
      "Ġauth": 6412,
      "Ġinaug": 6413,
      "UB": 6414,
      "Ġpuntos": 6415,
      "Ġdictionary": 6416,
      "ASS": 6417,
      "Ġaddress": 6418,
      "Ġobjetivo": 6419,
      "modules": 6420,
      "eropuerto": 6421,
      "76": 6422,
      "lose": 6423,
      "Ġbytes": 6424,
      "ivo": 6425,
      "mall": 6426,
      "orig": 6427,
      "Ġtales": 6428,
      "tesis": 6429,
      "Ġsalva": 6430,
      "ĠdeberÃŃa": 6431,
      "DITION": 6432,
      "amo": 6433,
      "ĠquiÃ©n": 6434,
      "umen": 6435,
      "display": 6436,
      "quilib": 6437,
      "ove": 6438,
      "Ġhilo": 6439,
      "ĠtratÃ³": 6440,
      "Ġmanif": 6441,
      "Content": 6442,
      "Ġnaranja": 6443,
      "Ġaj": 6444,
      "Ã³so": 6445,
      "ĊĠĠĠĠĠĠĠĠĠĠ": 6446,
      "ĠdÃ³": 6447,
      "Ġobtener": 6448,
      "Ġregiones": 6449,
      "carse": 6450,
      "Integer": 6451,
      "grafo": 6452,
      "AGE": 6453,
      "ĠregresÃ³": 6454,
      "Ġcirc": 6455,
      "Ġtemperatura": 6456,
      "Ġoblig": 6457,
      "dÃ³": 6458,
      "jaba": 6459,
      "nic": 6460,
      "Ġtonto": 6461,
      "entemente": 6462,
      "ĠVir": 6463,
      "oreignKey": 6464,
      "timos": 6465,
      "Ġdig": 6466,
      "secu": 6467,
      "Ġef": 6468,
      "ĠvenÃŃa": 6469,
      "Ġ1970": 6470,
      "Ġ1945": 6471,
      "Ġservicios": 6472,
      "ĠPremio": 6473,
      "?\",": 6474,
      "Ġ'$": 6475,
      "ĠSantiago": 6476,
      "OFT": 6477,
      "Si": 6478,
      "Ġconcent": 6479,
      "ĠAy": 6480,
      "Ġpasando": 6481,
      "Ġtropas": 6482,
      "Ġtradicional": 6483,
      "Ġbinary": 6484,
      "isp": 6485,
      "quis": 6486,
      "ticamente": 6487,
      "ĠescribiÃ³": 6488,
      "ĠPort": 6489,
      "ĠasegurÃ³": 6490,
      "Ġtensorflow": 6491,
      "san": 6492,
      "Ġoeste": 6493,
      "Ã¡nica": 6494,
      "Ġchanged": 6495,
      "Ġ1994": 6496,
      "Ġpala": 6497,
      "Ġterremo": 6498,
      "Ġpuerto": 6499,
      "Ġconflic": 6500,
      "Ġderecho": 6501,
      "side": 6502,
      "ĠUr": 6503,
      "ĠbuscÃ³": 6504,
      "pliance": 6505,
      "70": 6506,
      "Ġarb": 6507,
      "__':": 6508,
      "Ġabog": 6509,
      "Ġexpress": 6510,
      "ĠRobert": 6511,
      ":]": 6512,
      "piente": 6513,
      "Ġpudieron": 6514,
      "Ġcomercial": 6515,
      "dirse": 6516,
      "render": 6517,
      "Ġlabor": 6518,
      "Ġconditions": 6519,
      "flags": 6520,
      "Sub": 6521,
      "ĠDel": 6522,
      "Ġexit": 6523,
      "Ġqueso": 6524,
      "ĠRod": 6525,
      "plugin": 6526,
      "Ġcopyright": 6527,
      "board": 6528,
      "assertEquals": 6529,
      "nes": 6530,
      "dated": 6531,
      "Ġsector": 6532,
      "ĠDentro": 6533,
      "ponj": 6534,
      "ĠNot": 6535,
      "Ġfoto": 6536,
      "metadata": 6537,
      "ceae": 6538,
      "Ġcampe": 6539,
      "Ġbloque": 6540,
      "ensi": 6541,
      "umin": 6542,
      "ĠUnido": 6543,
      "Ġplato": 6544,
      "Ġ2020": 6545,
      "Ġentren": 6546,
      ".*": 6547,
      "Ġavailable": 6548,
      "Ġconfun": 6549,
      "ĠAdd": 6550,
      "Ġdtype": 6551,
      "ĠrÃ©": 6552,
      "plan": 6553,
      "ĠHizo": 6554,
      "Ġchocol": 6555,
      "Ġarquitect": 6556,
      "ictoria": 6557,
      "Sus": 6558,
      "VAL": 6559,
      "Ġast": 6560,
      "active": 6561,
      "decode": 6562,
      "Ġdemos": 6563,
      "iteral": 6564,
      "ĠfilÃ³so": 6565,
      "Command": 6566,
      "Ġelefante": 6567,
      "Ġgigante": 6568,
      "-+-+": 6569,
      "Ġps": 6570,
      "left": 6571,
      "Ġsecu": 6572,
      "ĠJes": 6573,
      "Ġcargo": 6574,
      "ĠÃºltimos": 6575,
      "Ġganar": 6576,
      "Ġcomienza": 6577,
      "AY": 6578,
      "Durante": 6579,
      "Ġ\"\\": 6580,
      "Ġpaciente": 6581,
      "ficas": 6582,
      "Ġconductor": 6583,
      "full": 6584,
      "Ġdemo": 6585,
      "terrÃ¡n": 6586,
      "Ġextran": 6587,
      "Ġambas": 6588,
      "ĠposiciÃ³n": 6589,
      "Ġmostrarle": 6590,
      "ĠString": 6591,
      "ĠsoÃ±": 6592,
      "Result": 6593,
      "ĠDavid": 6594,
      "=['": 6595,
      "vador": 6596,
      "ĠSiguiÃ³": 6597,
      "ĠHo": 6598,
      "Ġmiraba": 6599,
      "Ġcreated": 6600,
      "mm": 6601,
      "ĠKa": 6602,
      "ĠdaÃ±o": 6603,
      "Ġfrancesa": 6604,
      "Ġimpresion": 6605,
      "gla": 6606,
      "Ġinsta": 6607,
      "ĠPres": 6608,
      "ĠBro": 6609,
      "ĠIII": 6610,
      "Ġfigura": 6611,
      "OFTWARE": 6612,
      "38": 6613,
      "Ġreina": 6614,
      "Ġexpan": 6615,
      "Ġarras": 6616,
      "Ġsaltando": 6617,
      "Ġdisplay": 6618,
      "ĠConstitu": 6619,
      "ĠPartido": 6620,
      "volucion": 6621,
      "ĠdespertÃ³": 6622,
      "Ġsilla": 6623,
      "Ġsuel": 6624,
      "Ġhash": 6625,
      "Ġalegro": 6626,
      "ximo": 6627,
      "IGHT": 6628,
      "ky": 6629,
      "Ġcla": 6630,
      "Ġescen": 6631,
      "ĠNew": 6632,
      "phin": 6633,
      "Ġminutos": 6634,
      "Ġcharacter": 6635,
      "storage": 6636,
      "pers": 6637,
      "thread": 6638,
      "Ġdom": 6639,
      "'},": 6640,
      "Ġcuchara": 6641,
      "DITIONS": 6642,
      "isten": 6643,
      "Ġconsider": 6644,
      "rowser": 6645,
      "select": 6646,
      "%(": 6647,
      "anal": 6648,
      "ĠSet": 6649,
      "usti": 6650,
      "Ġwarning": 6651,
      "ĠHen": 6652,
      "Ġfunc": 6653,
      "Ã¡rselo": 6654,
      "59": 6655,
      "SI": 6656,
      "Ġlet": 6657,
      "ĠserÃ¡": 6658,
      "Ġ%(": 6659,
      "Ġapplicable": 6660,
      "Ġedificio": 6661,
      "Ġapoyo": 6662,
      "Lay": 6663,
      "Ġreq": 6664,
      "ĠSeÃ±": 6665,
      "Ġreturns": 6666,
      "anadi": 6667,
      "iforn": 6668,
      "Ġauthor": 6669,
      "Ġmala": 6670,
      "Ġ1989": 6671,
      "Ġindustria": 6672,
      "Ġaves": 6673,
      "total": 6674,
      "Ġmezcl": 6675,
      "stderr": 6676,
      "dirname": 6677,
      "ĠmÃ¡gica": 6678,
      "Ġsecreto": 6679,
      "ian": 6680,
      "skip": 6681,
      "onal": 6682,
      "istry": 6683,
      "ectÃ¡": 6684,
      "ĠbaÃ±": 6685,
      "Ġcalaba": 6686,
      "Ġhoja": 6687,
      "Ġcausa": 6688,
      "plemented": 6689,
      "MS": 6690,
      "ĠÃºtil": 6691,
      "abe": 6692,
      "('\\": 6693,
      "taset": 6694,
      "SON": 6695,
      "non": 6696,
      "Ġmami": 6697,
      "Ġperder": 6698,
      "Ġaccount": 6699,
      "argarita": 6700,
      "Ġagreg": 6701,
      "Ġbanco": 6702,
      "unicode": 6703,
      "Ġlaw": 6704,
      "entar": 6705,
      "Ġcompliance": 6706,
      "loc": 6707,
      "ĠFa": 6708,
      "addr": 6709,
      "tell": 6710,
      "Ã¡cter": 6711,
      "Ġlicense": 6712,
      "Ġconquista": 6713,
      "control": 6714,
      "ĠdÃ³lar": 6715,
      "mary": 6716,
      "ĠNic": 6717,
      "Ġsiesta": 6718,
      "Ġpuente": 6719,
      "Ġ2017": 6720,
      "Ġbrazo": 6721,
      "ForeignKey": 6722,
      "Ġflo": 6723,
      "ĠUnless": 6724,
      "ĠJenny": 6725,
      "Dis": 6726,
      "From": 6727,
      "ham": 6728,
      "Ġmunicipio": 6729,
      "Ġubic": 6730,
      "repr": 6731,
      "Ġgr": 6732,
      "utor": 6733,
      "icidad": 6734,
      "Ġcosta": 6735,
      "Ġobjetos": 6736,
      "Ġcuidadosamente": 6737,
      "ĠatenciÃ³n": 6738,
      "ĠcumpleaÃ±os": 6739,
      "({'": 6740,
      "CÃ³": 6741,
      "Ġgal": 6742,
      "ĠType": 6743,
      "ĠtocÃ³": 6744,
      "Ġlenguas": 6745,
      "Ġactualidad": 6746,
      "ĠllorÃ³": 6747,
      "kens": 6748,
      "Ġrug": 6749,
      "perator": 6750,
      "Ġproductos": 6751,
      "Ġneer": 6752,
      "Ġ1960": 6753,
      "Ġacu": 6754,
      "Ġsuces": 6755,
      "Ġentriste": 6756,
      "Ġkeys": 6757,
      "Ġplum": 6758,
      "ĠelectrÃ³n": 6759,
      "mac": 6760,
      "Ġalso": 6761,
      "Ġrelo": 6762,
      "Ġusu": 6763,
      "Tests": 6764,
      "Ġignor": 6765,
      "ĠinvestigaciÃ³n": 6766,
      "34": 6767,
      "ilder": 6768,
      "izÃ³": 6769,
      "video": 6770,
      "Ġruso": 6771,
      "manes": 6772,
      "manager": 6773,
      "âĢĻ": 6774,
      "Ġforms": 6775,
      "ĠCONDITIONS": 6776,
      "Ġdescansar": 6777,
      "ĠBASIS": 6778,
      "Ġlleva": 6779,
      "celona": 6780,
      "HTTP": 6781,
      "pattern": 6782,
      "Ġgoverning": 6783,
      "Ġchocolate": 6784,
      "08": 6785,
      "iel": 6786,
      "ĠcarÃ¡cter": 6787,
      "Ġinclude": 6788,
      "ĠTienes": 6789,
      "Ġrecono": 6790,
      "lÃ¡n": 6791,
      "Ġllo": 6792,
      "coder": 6793,
      "Ġprotocol": 6794,
      "Ġcamp": 6795,
      "Ġdiversas": 6796,
      "Info": 6797,
      "Ġanciana": 6798,
      "65": 6799,
      "blos": 6800,
      "Ġpone": 6801,
      "Ġfra": 6802,
      "ĠGa": 6803,
      "Ġconocer": 6804,
      "ĠRecog": 6805,
      "Ġlimitations": 6806,
      "Ġagreed": 6807,
      "Size": 6808,
      "Ġmemb": 6809,
      "ĠelÃ©ct": 6810,
      "ricas": 6811,
      "Ġvig": 6812,
      "ertas": 6813,
      "socket": 6814,
      "ĠtÃŃtulo": 6815,
      ")[": 6816,
      "Create": 6817,
      "Mia": 6818,
      "Ġefecto": 6819,
      "Ġnido": 6820,
      "Ġpeg": 6821,
      "Ġhasattr": 6822,
      "berg": 6823,
      "({": 6824,
      "Ġconce": 6825,
      "Ġbet": 6826,
      "Ġdientes": 6827,
      "fake": 6828,
      "Ġcolombiano": 6829,
      "]),": 6830,
      "comple": 6831,
      "Ġ1986": 6832,
      "Åį": 6833,
      "ditional": 6834,
      "ĠMÃŃa": 6835,
      "ift": 6836,
      "profile": 6837,
      "como": 6838,
      "classmethod": 6839,
      "Ġseguridad": 6840,
      "Ġcurioso": 6841,
      ",'": 6842,
      "ret": 6843,
      "ĠTrans": 6844,
      "tario": 6845,
      "############": 6846,
      "ĠAlfon": 6847,
      "Ġ::": 6848,
      "Ġconoce": 6849,
      "Ġsatis": 6850,
      "CK": 6851,
      "Or": 6852,
      "tres": 6853,
      "Ġ2019": 6854,
      "Ġparticip": 6855,
      "So": 6856,
      "ides": 6857,
      "tante": 6858,
      "Ġdete": 6859,
      "Ġredon": 6860,
      "ĠSOFTWARE": 6861,
      "Ġcuyo": 6862,
      "voice": 6863,
      "partamento": 6864,
      "Ad": 6865,
      "insert": 6866,
      "Ġverlo": 6867,
      "ruz": 6868,
      "Ġpeligroso": 6869,
      "Ġcalendario": 6870,
      "ĠÎ": 6871,
      "ĠSac": 6872,
      "pezÃ³": 6873,
      "ĠRam": 6874,
      "Ġcopi": 6875,
      "vate": 6876,
      "Ġdiversos": 6877,
      "Ġrespons": 6878,
      "used": 6879,
      "initial": 6880,
      "Ġtormenta": 6881,
      "Son": 6882,
      "Ġaument": 6883,
      "Ġnombres": 6884,
      "Ġconserv": 6885,
      "Ġresta": 6886,
      "Ġinstal": 6887,
      "ĠlogrÃ³": 6888,
      "Ġnubes": 6889,
      "Action": 6890,
      "Page": 6891,
      "jor": 6892,
      "Ġpapa": 6893,
      "Ġvariables": 6894,
      "ĠenojÃ³": 6895,
      "\").": 6896,
      "tep": 6897,
      "Ġ<=": 6898,
      "offset": 6899,
      "Ġchileno": 6900,
      "Ġfem": 6901,
      "ĠSta": 6902,
      "Ġeval": 6903,
      "Ġthan": 6904,
      "ĠRom": 6905,
      "empla": 6906,
      "Ġsovi": 6907,
      "Ġ1979": 6908,
      "Ġequilib": 6909,
      "Ġ'_": 6910,
      "Ġcuanto": 6911,
      "Ġintera": 6912,
      "olÃ³gica": 6913,
      "Ġquedaron": 6914,
      "ĠDeseaba": 6915,
      "ĠImportError": 6916,
      "ĊĊĠĠĠĠĠ": 6917,
      "Ġcome": 6918,
      "ombia": 6919,
      "Ġdomain": 6920,
      "Ġterremoto": 6921,
      "ĠformaciÃ³n": 6922,
      "Ġfavorita": 6923,
      "Ġabove": 6924,
      "Ġ2018": 6925,
      "Ã¡lisis": 6926,
      "Ġtemb": 6927,
      "traron": 6928,
      "Ġpartido": 6929,
      "idx": 6930,
      "Ġhtml": 6931,
      "Ġiglesia": 6932,
      "ĠHTTP": 6933,
      "ĠFernando": 6934,
      "Fil": 6935,
      "Meta": 6936,
      "tz": 6937,
      "Ġfac": 6938,
      "urales": 6939,
      "ĠCreate": 6940,
      "ĠID": 6941,
      "Ġcoches": 6942,
      "Ġrobot": 6943,
      "ĠInstitu": 6944,
      "Ġincluyen": 6945,
      "Ġabsolute": 6946,
      "Ġcaballo": 6947,
      "zando": 6948,
      "dered": 6949,
      "Ġmam": 6950,
      "ĠprÃŃncipe": 6951,
      "Ġmontar": 6952,
      "Ġsurg": 6953,
      "vierte": 6954,
      "ĠQuieren": 6955,
      "vironment": 6956,
      "phinx": 6957,
      "isla": 6958,
      "Ġdiez": 6959,
      "ĠMira": 6960,
      "Ġsaltaba": 6961,
      "reated": 6962,
      "ĠSM": 6963,
      "quilla": 6964,
      "Ġraw": 6965,
      "jarse": 6966,
      "ĠÃ¡ra": 6967,
      "ĠPaul": 6968,
      "CÃ³mo": 6969,
      "cadas": 6970,
      "vm": 6971,
      "ĠmontÃ³n": 6972,
      "Ġrealiza": 6973,
      "Ġgeneralmente": 6974,
      "Ġescalera": 6975,
      "Ġdedi": 6976,
      "Ġwant": 6977,
      "Ġmetros": 6978,
      "Ġsoy": 6979,
      "Ġpodamos": 6980,
      "Ġarbusto": 6981,
      "gip": 6982,
      "ezol": 6983,
      "__)": 6984,
      "ithub": 6985,
      "americ": 6986,
      "---": 6987,
      "ĠBase": 6988,
      "Ġabrazan": 6989,
      "Ġ1993": 6990,
      "Ġ2021": 6991,
      "Ġabandon": 6992,
      "ifornia": 6993,
      "Ġdistancia": 6994,
      "Ġdispar": 6995,
      "Ġ32": 6996,
      "Ġ1995": 6997,
      "66": 6998,
      "cran": 6999,
      "Ġgris": 7000,
      "Ġverano": 7001,
      "Ġbaloncestista": 7002,
      ">\\": 7003,
      "pel": 7004,
      "space": 7005,
      "wich": 7006,
      "ared": 7007,
      "ĠhuyÃ³": 7008,
      "Ġattribute": 7009,
      "Ġactualmente": 7010,
      "ways": 7011,
      "Ġinvent": 7012,
      "uster": 7013,
      "ĠperiÃ³": 7014,
      "ĠIncluso": 7015,
      "licas": 7016,
      "Ġescucha": 7017,
      "Ġproteger": 7018,
      "PATH": 7019,
      "mana": 7020,
      "ispo": 7021,
      "ĠBol": 7022,
      "ĠData": 7023,
      "Ġimpor": 7024,
      "ĠGon": 7025,
      "Ġgustaban": 7026,
      "Ġderechos": 7027,
      "iblioteca": 7028,
      "Ġfen": 7029,
      "Ġllevaron": 7030,
      "Ġrealizar": 7031,
      "ĠQuiere": 7032,
      "alda": 7033,
      "Ġsede": 7034,
      "Ġconci": 7035,
      "ĠTH": 7036,
      "ografÃŃa": 7037,
      "Ġecu": 7038,
      "Ġdaba": 7039,
      "Ap": 7040,
      "Ġletr": 7041,
      "Ġlogra": 7042,
      "gulo": 7043,
      "ination": 7044,
      "ORS": 7045,
      "cados": 7046,
      "tiera": 7047,
      "Ġsuerte": 7048,
      "Ġverbose": 7049,
      "Ġaccidental": 7050,
      "classes": 7051,
      "Ġusername": 7052,
      "player": 7053,
      "ĠBarcelona": 7054,
      "Ġincluye": 7055,
      "bert": 7056,
      "Ġdele": 7057,
      "Ġvin": 7058,
      "ĠList": 7059,
      "ĠEdi": 7060,
      "Ġrecuer": 7061,
      "itario": 7062,
      "Ġcomba": 7063,
      "dente": 7064,
      "ĠRus": 7065,
      "Ġromper": 7066,
      "ĠllenÃ³": 7067,
      "folder": 7068,
      "js": 7069,
      "lista": 7070,
      "sample": 7071,
      "ĠPac": 7072,
      "emon": 7073,
      "Ġsopl": 7074,
      "Ġaprendido": 7075,
      "Client": 7076,
      "ĠGeorge": 7077,
      "jada": 7078,
      "raron": 7079,
      "Ġdelete": 7080,
      "arlos": 7081,
      "Ġ\"/": 7082,
      "ĠSegÃºn": 7083,
      "Ġpueblos": 7084,
      "Ġclima": 7085,
      "ĠdirecciÃ³n": 7086,
      "words": 7087,
      "Ġservicio": 7088,
      "Ġtexto": 7089,
      "Ġcultural": 7090,
      "Ġcadena": 7091,
      "Factory": 7092,
      "Jo": 7093,
      "Ġmensa": 7094,
      "Ġacab": 7095,
      "Ġfunciones": 7096,
      "Ġ1982": 7097,
      "Ġ1950": 7098,
      "ĠVivÃŃa": 7099,
      "Ġsociedad": 7100,
      "dle": 7101,
      "jÃ³n": 7102,
      "wise": 7103,
      "ely": 7104,
      "Ġtwo": 7105,
      "ĠTur": 7106,
      "Ġasoci": 7107,
      "stancias": 7108,
      "Ġquienes": 7109,
      "ĠAlgunos": 7110,
      "iki": 7111,
      "xa": 7112,
      "{{": 7113,
      "ĠEX": 7114,
      "ĠAff": 7115,
      "Ġvieja": 7116,
      "platform": 7117,
      "ĠsetUp": 7118,
      "tismo": 7119,
      "Ġrevista": 7120,
      "Ġcustom": 7121,
      "Ġtir": 7122,
      "Ġperdon": 7123,
      "Ġ1983": 7124,
      "Check": 7125,
      "tÃŃa": 7126,
      "Ġmed": 7127,
      "amble": 7128,
      "Ġansi": 7129,
      "ctores": 7130,
      "ĠjugÃ³": 7131,
      "Ġcolumpi": 7132,
      "Ġtaza": 7133,
      "-%": 7134,
      "greg": 7135,
      "Ã³vil": 7136,
      "izon": 7137,
      "diÃ³s": 7138,
      "ebra": 7139,
      "Ġmayores": 7140,
      "Ġregion": 7141,
      "Ġ1985": 7142,
      "points": 7143,
      "dtype": 7144,
      "game": 7145,
      "Ġreino": 7146,
      "ĠSalvador": 7147,
      "ĠmolÃ©": 7148,
      "Ġingres": 7149,
      "estiÃ³n": 7150,
      "ĠAbrazÃ³": 7151,
      "Ġbio": 7152,
      "ĠTras": 7153,
      "dador": 7154,
      "Ġbonitas": 7155,
      "ACK": 7156,
      "Ġcondiciones": 7157,
      "47": 7158,
      "uff": 7159,
      "estion": 7160,
      "Ġsend": 7161,
      "ceback": 7162,
      "Ġproven": 7163,
      "Ġacari": 7164,
      "Ġencanta": 7165,
      "Ġgeometry": 7166,
      "tividades": 7167,
      "Ġmusical": 7168,
      "Ġnotice": 7169,
      "suc": 7170,
      "ution": 7171,
      "Ġintegra": 7172,
      "piraciÃ³n": 7173,
      "ĊĠĠĠĠĠĠĠĠĠĠĠĠĠĠĠĠĠĠĠĠĠĠĠĠĠĠ": 7174,
      "ĠCorrieron": 7175,
      "Ġrender": 7176,
      "ĠJimmy": 7177,
      "Ġguer": 7178,
      "Ġemperador": 7179,
      "Ġblanca": 7180,
      "Ġstdout": 7181,
      "49": 7182,
      "ĠEdu": 7183,
      "ĠPlan": 7184,
      "Ġcost": 7185,
      "ĠConse": 7186,
      "Ġalmuerzo": 7187,
      "Ġnaveg": 7188,
      "ze": 7189,
      "Ġcontr": 7190,
      "Ġleche": 7191,
      "Ġcuya": 7192,
      "Ġalready": 7193,
      "ecause": 7194,
      "Ġapen": 7195,
      "Ġdeja": 7196,
      "teras": 7197,
      "Ġpata": 7198,
      "ĠdiversiÃ³n": 7199,
      "Inter": 7200,
      "sula": 7201,
      "isiÃ³n": 7202,
      "imer": 7203,
      "Ġvenezol": 7204,
      "Ġjapones": 7205,
      "ĠEncontrÃ³": 7206,
      "uir": 7207,
      "zquier": 7208,
      "iss": 7209,
      "ĠMuseo": 7210,
      "dential": 7211,
      "ĠRich": 7212,
      "Ġobserva": 7213,
      "Ġlength": 7214,
      "Ġencarg": 7215,
      "CP": 7216,
      "bur": 7217,
      "mico": 7218,
      "tano": 7219,
      "Ġconstr": 7220,
      "Ġrevol": 7221,
      "ĠIP": 7222,
      "Ġcollection": 7223,
      "Ġayudado": 7224,
      "Na": 7225,
      "cciones": 7226,
      "fin": 7227,
      "rame": 7228,
      "decu": 7229,
      "Ġpobre": 7230,
      "img": 7231,
      "Ġtratando": 7232,
      "Ġdismin": 7233,
      "lice": 7234,
      "ponents": 7235,
      "ĠlÃ¡p": 7236,
      "glaterra": 7237,
      "43": 7238,
      "89": 7239,
      "cp": 7240,
      "tattr": 7241,
      "Ã¡ndez": 7242,
      "Ġsentaron": 7243,
      "ĠacompaÃ±": 7244,
      "idi": 7245,
      "Ġcray": 7246,
      "ĠMer": 7247,
      "ĠNO": 7248,
      "Ġparameter": 7249,
      "Ġincluyendo": 7250,
      "Ġcineasta": 7251,
      "ĠmontaÃ±a": 7252,
      "cÃ¡n": 7253,
      "Index": 7254,
      "Ġrefle": 7255,
      "Ġllorando": 7256,
      "87": 7257,
      "fit": 7258,
      "Ġcompeti": 7259,
      "ĊĠĠĠĠĠĠĠĠĠĠĠĠĠĠĠĠĠĠĠĠĠĠĠĠĠĠĠĠĠĠ": 7260,
      "extend": 7261,
      "Ġexc": 7262,
      "Ġserial": 7263,
      "aries": 7264,
      "ĠÃ¡reas": 7265,
      "DEFAULT": 7266,
      "ĠClub": 7267,
      "report": 7268,
      "imos": 7269,
      "pair": 7270,
      "torage": 7271,
      "risto": 7272,
      "illy": 7273,
      "dirs": 7274,
      "arnos": 7275,
      "ĠJoe": 7276,
      "SA": 7277,
      "tx": 7278,
      "Ġmac": 7279,
      "Ġbacter": 7280,
      "ĠLan": 7281,
      "ficiales": 7282,
      "Ġcumpl": 7283,
      "Ġmanzanas": 7284,
      "Fe": 7285,
      "opts": 7286,
      "Ã¨": 7287,
      "Ġeta": 7288,
      "Ġinv": 7289,
      "cher": 7290,
      "Ġsustitu": 7291,
      "Ġdatabase": 7292,
      "ĠÃģn": 7293,
      "ĠbotÃ³n": 7294,
      "Ġadop": 7295,
      "ĠAffero": 7296,
      "Ġcanadi": 7297,
      "Ġmigra": 7298,
      "Ġhues": 7299,
      "cated": 7300,
      "Ġsiete": 7301,
      "Ġ1981": 7302,
      "Ġagradecido": 7303,
      "ĠfÃŃsico": 7304,
      "Ġsuccess": 7305,
      "Ġciencia": 7306,
      "Ġ\"\"": 7307,
      "ĠBur": 7308,
      "Ġaccess": 7309,
      "Ġobten": 7310,
      "Ġrocas": 7311,
      "Ġestadounidenses": 7312,
      "Ġ1984": 7313,
      "ĠMedi": 7314,
      ":'": 7315,
      "Fo": 7316,
      "ires": 7317,
      "Ġayudara": 7318,
      "Ġargentina": 7319,
      "Ġpartici": 7320,
      "Ġinsecto": 7321,
      "Ġramas": 7322,
      "Ġhospital": 7323,
      "Ġincorpor": 7324,
      "Ġnow": 7325,
      "iencias": 7326,
      "Ġpodido": 7327,
      "ĠacciÃ³n": 7328,
      "Ġagri": 7329,
      "ĊĠĠĠĠĠĠĠĠĠĠĠĠĠĠĠĠĠĠĠĠĠĠĠĠĠĠĠĠĠĠĠĠĠĠĠ": 7330,
      "Ġprior": 7331,
      "ĠQuiero": 7332,
      "Ġpractic": 7333,
      "Ġaccidentalmente": 7334,
      "Group": 7335,
      "rel": 7336,
      "Ġ],": 7337,
      "Ġcontribu": 7338,
      "Ġefec": 7339,
      "ĠDE": 7340,
      "ĠYo": 7341,
      "ĠSanto": 7342,
      "Ġterc": 7343,
      "ĠAlfonso": 7344,
      "SION": 7345,
      "Ġsingle": 7346,
      "rect": 7347,
      "ĠEr": 7348,
      "ĠEllos": 7349,
      "hook": 7350,
      "Ġsubprocess": 7351,
      "Ġfinan": 7352,
      "\"].": 7353,
      "ĠAbriÃ³": 7354,
      "QL": 7355,
      "tt": 7356,
      "Ġnetwork": 7357,
      "Ġdios": 7358,
      "Ġinfer": 7359,
      "urru": 7360,
      "permis": 7361,
      "Ġinterface": 7362,
      "Ġbases": 7363,
      "ternet": 7364,
      "Ġoccidental": 7365,
      "Ġdespidieron": 7366,
      "straint": 7367,
      "CLUD": 7368,
      "'^": 7369,
      ")\"": 7370,
      "Ġambi": 7371,
      "ĠRun": 7372,
      "Ġperfec": 7373,
      "Ġmagn": 7374,
      "ling": 7375,
      "ĠTer": 7376,
      "ĠBri": 7377,
      "ĠJorge": 7378,
      "Ġposteriormente": 7379,
      "vieran": 7380,
      "views": 7381,
      ">'": 7382,
      "samples": 7383,
      "ierras": 7384,
      "comment": 7385,
      "Ġadmi": 7386,
      "Esa": 7387,
      "FORM": 7388,
      "Fun": 7389,
      "Ġtamb": 7390,
      "Ġenla": 7391,
      "Ġsure": 7392,
      "ĠLO": 7393,
      "rand": 7394,
      "ĠOri": 7395,
      "tiles": 7396,
      "Ġdiscu": 7397,
      "ĠAndr": 7398,
      "Ġafil": 7399,
      "features": 7400,
      "Ġdebug": 7401,
      "Ġquieres": 7402,
      "Ġcansado": 7403,
      "]['": 7404,
      "Ġabuelo": 7405,
      "emplate": 7406,
      "Ġpelear": 7407,
      "Ġshow": 7408,
      "Ġpattern": 7409,
      "enda": 7410,
      "imientos": 7411,
      "Ġcubi": 7412,
      "iller": 7413,
      "Ġnaturales": 7414,
      "ĠpublicÃ³": 7415,
      "Ã¡ndolo": 7416,
      "help": 7417,
      "ĠdiseÃ±o": 7418,
      "iddle": 7419,
      "Ġforman": 7420,
      "Ġprefix": 7421,
      "!\".": 7422,
      "ĠEstas": 7423,
      "Ġescritora": 7424,
      "Ġdiffer": 7425,
      "ĠCONTR": 7426,
      "ĠADN": 7427,
      "79": 7428,
      "Ġagradecieron": 7429,
      "Ġurllib": 7430,
      "Ġcalabaza": 7431,
      "rismo": 7432,
      "Ġhermanos": 7433,
      "Ġencontraba": 7434,
      "Ġlenguaje": 7435,
      "CLUDING": 7436,
      "ugal": 7437,
      "ĠmovÃŃa": 7438,
      "('-": 7439,
      "ĠCongreso": 7440,
      "Ġ1987": 7441,
      "Ġlongitud": 7442,
      "TambiÃ©n": 7443,
      "ĠcÃ¡mara": 7444,
      "minos": 7445,
      "Ġalguna": 7446,
      "Ġproductor": 7447,
      "Ġbandera": 7448,
      "ĠbrasileÃ±o": 7449,
      "Pos": 7450,
      "pth": 7451,
      "rf": 7452,
      "Ġpick": 7453,
      "ars": 7454,
      "Ġesposa": 7455,
      "ĠName": 7456,
      "ĠGi": 7457,
      "axis": 7458,
      "mentos": 7459,
      "Ġ80": 7460,
      "ĠediciÃ³n": 7461,
      "Ġdivertidas": 7462,
      "Ġtranquilo": 7463,
      "ĠSub": 7464,
      "quÃŃa": 7465,
      "ĠUN": 7466,
      "Ġcinta": 7467,
      "Ġponerse": 7468,
      "Ġimplementa": 7469,
      "ĠzoolÃ³gico": 7470,
      "ĠÃģngel": 7471,
      "ason": 7472,
      "olo": 7473,
      "Ġclub": 7474,
      "ĠconociÃ³": 7475,
      "Ġmantenerse": 7476,
      "Ġapoy": 7477,
      "State": 7478,
      "primary": 7479,
      "ĠAuthor": 7480,
      "############################################################################": 7481,
      "Mi": 7482,
      "aded": 7483,
      "Ġtree": 7484,
      "Ġang": 7485,
      "Ġarque": 7486,
      "ĠgruÃ±": 7487,
      "Ġlad": 7488,
      "tima": 7489,
      "Ġinvi": 7490,
      "agement": 7491,
      "ĠVan": 7492,
      "Ġ1973": 7493,
      "estival": 7494,
      "ĠHTML": 7495,
      "Ġletrero": 7496,
      "(-": 7497,
      "gress": 7498,
      "pida": 7499,
      "Ġlicen": 7500,
      "ĠDu": 7501,
      "ĠArgs": 7502,
      "Ġhijos": 7503,
      "Ġespecie": 7504,
      "ĠDecidieron": 7505,
      "ĠlÃŃneas": 7506,
      "Ġhierba": 7507,
      "Ġnuestros": 7508,
      "Ġcorona": 7509,
      "onato": 7510,
      "Ġ1978": 7511,
      "Ġintentarlo": 7512,
      "Ġsilen": 7513,
      "aste": 7514,
      "queta": 7515,
      "ĠTex": 7516,
      "ĠPh": 7517,
      "Ġip": 7518,
      "ÃŃnsula": 7519,
      "Ġtorn": 7520,
      "Ġpruebas": 7521,
      "Ġsienten": 7522,
      "ĠfilÃ³sofo": 7523,
      "bs": 7524,
      "ĠpareciÃ³": 7525,
      "thing": 7526,
      "Ġbeen": 7527,
      "demia": 7528,
      "Map": 7529,
      "ĠCentro": 7530,
      "ĠSegu": 7531,
      "Ġmismos": 7532,
      "ĠallÃ¡": 7533,
      "Ġescala": 7534,
      "Ġinicia": 7535,
      "crata": 7536,
      "Down": 7537,
      "CS": 7538,
      "Ma": 7539,
      "pin": 7540,
      "req": 7541,
      "ĠJames": 7542,
      "uite": 7543,
      "Ġactiv": 7544,
      "andard": 7545,
      "Ġcaball": 7546,
      "Ġcompleto": 7547,
      "Ġgirar": 7548,
      "ĠdÃ³lares": 7549,
      "Gra": 7550,
      "_(": 7551,
      "Ġreempla": 7552,
      "emas": 7553,
      "Ġsorted": 7554,
      "Ġconocimiento": 7555,
      "Ġsuavemente": 7556,
      "gorith": 7557,
      "Ġsrc": 7558,
      "anti": 7559,
      "usta": 7560,
      "plas": 7561,
      "Ġacurru": 7562,
      "Ġ1988": 7563,
      "ĠcÃ³digo": 7564,
      "Ġhielo": 7565,
      "Pronto": 7566,
      "tero": 7567,
      "Ġestim": 7568,
      "terÃŃa": 7569,
      "Ġcampos": 7570,
      "ĠEnrique": 7571,
      "compute": 7572,
      "Ġchange": 7573,
      "Ġpasto": 7574,
      "ĠeconÃ³mica": 7575,
      "Ġlike": 7576,
      "ĠprÃ¡ctica": 7577,
      "napshot": 7578,
      "dicos": 7579,
      "omba": 7580,
      "Ġperu": 7581,
      "uble": 7582,
      "press": 7583,
      "most": 7584,
      "Ġzip": 7585,
      "tainer": 7586,
      "ĠlÃŃder": 7587,
      "ĠBuscÃ³": 7588,
      "ĠSMALL": 7589,
      "FL": 7590,
      "ĠLisa": 7591,
      "cons": 7592,
      "ĠcerrÃ³": 7593,
      "Ġutilizan": 7594,
      "Ġnega": 7595,
      "={": 7596,
      "tur": 7597,
      "Ġluna": 7598,
      "Ġmy": 7599,
      "allow": 7600,
      "Ġ1000": 7601,
      "Ġart": 7602,
      "Ġescudo": 7603,
      "Ġayudarla": 7604,
      "Ġkm": 7605,
      "Ġvector": 7606,
      "rop": 7607,
      "Ġcanasta": 7608,
      "Ġplata": 7609,
      "labels": 7610,
      "Ġchoices": 7611,
      "ĠsonreÃŃr": 7612,
      "\"])": 7613,
      "`.": 7614,
      "ĠAf": 7615,
      "ĠAst": 7616,
      "Ġrin": 7617,
      "Ãºcar": 7618,
      "tement": 7619,
      "ientas": 7620,
      "lie": 7621,
      "inux": 7622,
      "Ġinver": 7623,
      "rana": 7624,
      "Timoteo": 7625,
      "API": 7626,
      "record": 7627,
      "children": 7628,
      "ĠaÃ±a": 7629,
      "Ġfalle": 7630,
      "Ġgros": 7631,
      "Ġrecha": 7632,
      "?\".": 7633,
      "cientes": 7634,
      "ĠMac": 7635,
      "Ġthem": 7636,
      "ĠFil": 7637,
      "delta": 7638,
      "column": 7639,
      "Ġconsiderado": 7640,
      "ĠPerÃº": 7641,
      "Ġdescubrim": 7642,
      "ĠtÃ©rminos": 7643,
      "Ġenfermedad": 7644,
      "Ġsemana": 7645,
      "ĠCalifornia": 7646,
      "Ġcuidar": 7647,
      "Ġhonor": 7648,
      "ĠJean": 7649,
      "ĠLey": 7650,
      "Ġvueltas": 7651,
      "Ġ1940": 7652,
      "VI": 7653,
      "Ġsave": 7654,
      "Ġmul": 7655,
      "Ġelig": 7656,
      "Ġdistri": 7657,
      "Ġopt": 7658,
      "ĠInglaterra": 7659,
      "ĠCorre": 7660,
      "Ġelegido": 7661,
      "Ġtrepar": 7662,
      "Ġconcepto": 7663,
      "lados": 7664,
      "ĠCab": 7665,
      "Ġsaluda": 7666,
      "Ġpasaron": 7667,
      "ĠSaltÃ³": 7668,
      "\"}": 7669,
      "ejas": 7670,
      "didos": 7671,
      "ĠMay": 7672,
      "ĠBra": 7673,
      "Ġimpul": 7674,
      "ween": 7675,
      "ĠConsejo": 7676,
      "ni": 7677,
      "Ġbecause": 7678,
      "ced": 7679,
      "Ġthro": 7680,
      "ĠcorrÃŃa": 7681,
      "Ġequival": 7682,
      "Ġhttps": 7683,
      "CU": 7684,
      "amma": 7685,
      "Ġizquier": 7686,
      "categ": 7687,
      "uman": 7688,
      "Ġorilla": 7689,
      "stats": 7690,
      "Ġempresa": 7691,
      "Ġbajar": 7692,
      "venciÃ³n": 7693,
      "ficaciÃ³n": 7694,
      "callback": 7695,
      "Ġaltura": 7696,
      "ĠPuso": 7697,
      "stances": 7698,
      "jeras": 7699,
      "Ġpicnic": 7700,
      "Ġentrada": 7701,
      "ĠGonz": 7702,
      "cell": 7703,
      "leo": 7704,
      "Ġserpiente": 7705,
      "torno": 7706,
      "proxy": 7707,
      "Ġtransporte": 7708,
      "anges": 7709,
      "Ġdebes": 7710,
      "ĠÃģfrica": 7711,
      "Ġmiembro": 7712,
      "Ġmemoria": 7713,
      "Ã¡ndwich": 7714,
      "jame": 7715,
      "Ġsang": 7716,
      "onista": 7717,
      "Ġocho": 7718,
      "Ġ\".": 7719,
      "Ġju": 7720,
      "Ġcasas": 7721,
      "keep": 7722,
      "Ġrico": 7723,
      "ĠnÃºcleo": 7724,
      "Ġabogado": 7725,
      "Ã¡ce": 7726,
      "ĠCre": 7727,
      "ington": 7728,
      "ĠBas": 7729,
      "Ġexample": 7730,
      "tuple": 7731,
      "Ġcoord": 7732,
      "Ġpueda": 7733,
      "Ġ1936": 7734,
      "Ġfrecuencia": 7735,
      "53": 7736,
      "SO": 7737,
      "Ġaplic": 7738,
      "ĠPiensa": 7739,
      "izados": 7740,
      "istraciÃ³n": 7741,
      "ĠpÃ¡g": 7742,
      "ĊĠĠĠĠĠĠĠĠĠĠĠĠĠĠĠĠĠĠĠĠĠĠĠĠĠĠĠĠĠ": 7743,
      "Ġdeseo": 7744,
      "Ġmexicana": 7745,
      "Ġgenerate": 7746,
      "92": 7747,
      "PC": 7748,
      "VE": 7749,
      "cam": 7750,
      "known": 7751,
      "čĊĠĠĠĠĠĠĠĠĠĠĠĠĠĠĠ": 7752,
      "ĠsÃ¡ndwich": 7753,
      "Ġconvierte": 7754,
      "Ġalmo": 7755,
      "cape": 7756,
      "peta": 7757,
      "Ġesconder": 7758,
      "Ã³rm": 7759,
      "Ġmoderna": 7760,
      "83": 7761,
      "td": 7762,
      "vor": 7763,
      "Ġav": 7764,
      "Ġtram": 7765,
      "tach": 7766,
      "ÃŃris": 7767,
      "tead": 7768,
      "amÃ©rica": 7769,
      "Ġalterna": 7770,
      "trÃŃa": 7771,
      "Ġmotor": 7772,
      "positor": 7773,
      "head": 7774,
      "Input": 7775,
      "okie": 7776,
      "Ġ1974": 7777,
      "Ġsabe": 7778,
      "Ġacerca": 7779,
      "ĠesperÃ³": 7780,
      "Ġstrings": 7781,
      "Ġcelebra": 7782,
      "Ġpist": 7783,
      "tuvieron": 7784,
      "ĠorganizaciÃ³n": 7785,
      "GET": 7786,
      "PORT": 7787,
      "nam": 7788,
      "entales": 7789,
      "ĠCOP": 7790,
      "ĠBuen": 7791,
      "Ġdolor": 7792,
      "Ġ1977": 7793,
      "Ġdisfrutar": 7794,
      "ĠtradiciÃ³n": 7795,
      "Ġpedazo": 7796,
      "Jim": 7797,
      "mith": 7798,
      "ĠMil": 7799,
      "Ġmiel": 7800,
      "Ġpassed": 7801,
      "forms": 7802,
      "Ġplatform": 7803,
      "HER": 7804,
      "drÃŃa": 7805,
      "emplos": 7806,
      "ĠBern": 7807,
      "term": 7808,
      "Ġwidth": 7809,
      "height": 7810,
      "ĠInter": 7811,
      "quires": 7812,
      "Ġregular": 7813,
      "Ġescuchado": 7814,
      "Ġdirectamente": 7815,
      "Can": 7816,
      "ttp": 7817,
      "Ġaeropuerto": 7818,
      "Ġadecu": 7819,
      "Ġtypes": 7820,
      "leza": 7821,
      "Ġconstante": 7822,
      "Ġreplace": 7823,
      "Ġ1920": 7824,
      "Ġresbal": 7825,
      "ĠcontinuÃ³": 7826,
      "Ġelegante": 7827,
      "Ġinaugura": 7828,
      "(\\": 7829,
      "ony": 7830,
      "Ġfro": 7831,
      "ĠMari": 7832,
      "idente": 7833,
      "Ġapag": 7834,
      "Ġconfir": 7835,
      "FILE": 7836,
      "vious": 7837,
      "batch": 7838,
      "Â²": 7839,
      "ĠEV": 7840,
      "Ġjust": 7841,
      "Ġllega": 7842,
      "Ġcalled": 7843,
      "Ġmedicina": 7844,
      "Ġautom": 7845,
      "Ġcommands": 7846,
      "Ġoptional": 7847,
      "Ġadministra": 7848,
      "cert": 7849,
      "tÃŃan": 7850,
      "Ġdepor": 7851,
      "onomÃŃa": 7852,
      "ĠestÃ©": 7853,
      "pay": 7854,
      "Ġcangre": 7855,
      "Ġsiglos": 7856,
      "ĠComunidad": 7857,
      "Ġrecibir": 7858,
      "Ġhorno": 7859,
      "97": 7860,
      "Cu": 7861,
      "Ġsk": 7862,
      "diff": 7863,
      "Ġventa": 7864,
      "abc": 7865,
      "application": 7866,
      "serial": 7867,
      "commit": 7868,
      "Ġacercaba": 7869,
      "Ġaparece": 7870,
      "Ġdivertida": 7871,
      "ĠPrimera": 7872,
      "IX": 7873,
      "Ġllamados": 7874,
      "Ġdown": 7875,
      "ĠinterÃ©s": 7876,
      "Ġproducto": 7877,
      "ĊĠĠĠĠĠĠĠĠĠĠĠĠĠĠĠĠĠĠĠĠĠĠĠĠĠĠĠĠĠĠĠĠĠĠĠĠĠĠĠĠĠĠĠĠĠĠĠĠĠĠĠĠ": 7878,
      "Ġbuenas": 7879,
      "ĠPuede": 7880,
      "iguieron": 7881,
      "Ġnube": 7882,
      "ĠarcoÃŃris": 7883,
      "56": 7884,
      "rin": 7885,
      "Ġskip": 7886,
      "antas": 7887,
      "Ġsuele": 7888,
      "ĠLlev": 7889,
      "Ġevi": 7890,
      "ĠMargarita": 7891,
      "disco": 7892,
      "Ġpatos": 7893,
      "APIT": 7894,
      "Ġelemento": 7895,
      "ĠCos": 7896,
      "ĠMy": 7897,
      "ÃŃnas": 7898,
      "Ġ1930": 7899,
      "Ġcompletamente": 7900,
      "ĠNaciones": 7901,
      "center": 7902,
      "Ġdoesn": 7903,
      "ĠTODO": 7904,
      "release": 7905,
      "sk": 7906,
      "Ġtema": 7907,
      "Ġinvas": 7908,
      "Ġexterior": 7909,
      "Ġcatal": 7910,
      "ĠveÃŃan": 7911,
      "Ġvisita": 7912,
      "Mock": 7913,
      "Ġcuriosa": 7914,
      "pkg": 7915,
      "Ġfruta": 7916,
      "role": 7917,
      "Ã³nica": 7918,
      "mask": 7919,
      "ORD": 7920,
      "Ġ1975": 7921,
      "ĠocurriÃ³": 7922,
      "Ġclean": 7923,
      "short": 7924,
      "deres": 7925,
      "ride": 7926,
      "raft": 7927,
      "ĠevoluciÃ³n": 7928,
      "Ġartista": 7929,
      "pira": 7930,
      "Ġactividades": 7931,
      "Ġcanadiense": 7932,
      "zados": 7933,
      "Ġpira": 7934,
      "INT": 7935,
      "Ġdisfrutaron": 7936,
      "Ġcambios": 7937,
      "San": 7938,
      "cted": 7939,
      "mem": 7940,
      "resol": 7941,
      "ĠpresiÃ³n": 7942,
      "Ġinstead": 7943,
      "ĠmuÃ±eco": 7944,
      "Ġfecha": 7945,
      "Ġmilitares": 7946,
      "Ġcharco": 7947,
      "attrs": 7948,
      "Ġdeclara": 7949,
      "Ġattrs": 7950,
      "Auto": 7951,
      "bra": 7952,
      "Ġseman": 7953,
      "urÃ³": 7954,
      "###": 7955,
      "google": 7956,
      "Ãºho": 7957,
      "ĠHel": 7958,
      "Ġsalida": 7959,
      "curso": 7960,
      "ĠcomunicaciÃ³n": 7961,
      "ĠColombia": 7962,
      "Ġitems": 7963,
      "fera": 7964,
      "erra": 7965,
      "Ġtierras": 7966,
      "ÃŃna": 7967,
      "etes": 7968,
      "Ġvolume": 7969,
      "Ġclaro": 7970,
      "Ġmark": 7971,
      "âĢĵ": 7972,
      "Ġneu": 7973,
      "ĠganÃ³": 7974,
      "undaciÃ³n": 7975,
      "ĠaraÃ±a": 7976,
      ".'": 7977,
      "lation": 7978,
      "conte": 7979,
      "entaciÃ³n": 7980,
      "Ġsoleado": 7981,
      "ogrÃ¡": 7982,
      "Ġmicro": 7983,
      "ĠConstituciÃ³n": 7984,
      "On": 7985,
      "rs": 7986,
      "ving": 7987,
      "Ġaumento": 7988,
      "channel": 7989,
      "ĠRex": 7990,
      "ibles": 7991,
      "ĠnegÃ³": 7992,
      "Ġinstrumentos": 7993,
      "ĠcientÃŃfico": 7994,
      "Ġresolver": 7995,
      "41": 7996,
      "93": 7997,
      "GR": 7998,
      "With": 7999,
      "Ġelim": 8000,
      "river": 8001,
      "uros": 8002,
      "edas": 8003,
      "Ġdisable": 8004,
      "Ġpriv": 8005,
      "Ġdistintas": 8006,
      "Ġburbu": 8007,
      "ÃŃfico": 8008,
      "Ã¡b": 8009,
      "ĠrÃŃos": 8010,
      "exceptions": 8011,
      "Ġacos": 8012,
      "Ġbotella": 8013,
      "Ġherramientas": 8014,
      "Ġsens": 8015,
      "Ġrevis": 8016,
      "ĠNue": 8017,
      "ĠOs": 8018,
      "Ġpaths": 8019,
      "Ġleyes": 8020,
      "ĠtÃ©cnicas": 8021,
      "Ġrights": 8022,
      "Ġingeni": 8023,
      "Ġcarretera": 8024,
      "Ġfas": 8025,
      "ranch": 8026,
      "ĠHan": 8027,
      "ĠConfig": 8028,
      "ĠAlej": 8029,
      "Manager": 8030,
      "Ġego": 8031,
      "ĠTed": 8032,
      "ĠTraba": 8033,
      "ĊĉĠ": 8034,
      "ĠespaÃ±oles": 8035,
      "parameters": 8036,
      "Ġprofundo": 8037,
      "ĠmatemÃ¡tico": 8038,
      "/>.": 8039,
      "case": 8040,
      "eded": 8041,
      "ifi": 8042,
      "imas": 8043,
      "Ġusa": 8044,
      "stants": 8045,
      "berto": 8046,
      "hael": 8047,
      "directory": 8048,
      "Ra": 8049,
      "sc": 8050,
      "round": 8051,
      "ĠCAPIT": 8052,
      "Ġvivieron": 8053,
      "Ġformar": 8054,
      "ĠCAPITAL": 8055,
      "fp": 8056,
      "tones": 8057,
      "adÃ¡": 8058,
      "void": 8059,
      "ĠexpresiÃ³n": 8060,
      "ĠCOPY": 8061,
      "PAR": 8062,
      "amil": 8063,
      "ĠLog": 8064,
      "urch": 8065,
      "()[": 8066,
      "Ġsonidos": 8067,
      "ĠHici": 8068,
      "arrÃ³": 8069,
      "cursor": 8070,
      "Ġvege": 8071,
      "ĠazÃºcar": 8072,
      "Ġcrisis": 8073,
      "ÃŃri": 8074,
      "Ġcomb": 8075,
      "Ġnovel": 8076,
      "andas": 8077,
      "mean": 8078,
      "ERR": 8079,
      "Ġfrutas": 8080,
      "Ġ1972": 8081,
      "Ġ1976": 8082,
      "Ġ1968": 8083,
      "loads": 8084,
      "Ġhistoriador": 8085,
      "Sel": 8086,
      "ĠPos": 8087,
      "ĠBor": 8088,
      "agent": 8089,
      "Ġcereb": 8090,
      "ctions": 8091,
      "Ġposterior": 8092,
      "Ġromano": 8093,
      "ĠPueden": 8094,
      "ium": 8095,
      "ĠtÃŃm": 8096,
      "Ġechar": 8097,
      "bad": 8098,
      "ugins": 8099,
      "Ġvolaba": 8100,
      "Ġexists": 8101,
      "IMIT": 8102,
      "Ġgatito": 8103,
      "Ġcercano": 8104,
      "ĠÐ": 8105,
      "aml": 8106,
      "entan": 8107,
      "elaje": 8108,
      "Ġtuviera": 8109,
      "Ġciclista": 8110,
      "\\.": 8111,
      "Ġbomba": 8112,
      "Ġemocionante": 8113,
      "ured": 8114,
      "uye": 8115,
      "ĠClass": 8116,
      "Ġcuidadoso": 8117,
      "position": 8118,
      "ĠcompaÃ±ÃŃa": 8119,
      "Ġsecund": 8120,
      "Ġlayer": 8121,
      "Ġreloj": 8122,
      "bor": 8123,
      "Ã©ticos": 8124,
      "torio": 8125,
      "uidos": 8126,
      "Ġdoctor": 8127,
      "Ġreligios": 8128,
      "ĠPortugal": 8129,
      "tf": 8130,
      "Ġped": 8131,
      "div": 8132,
      "parti": 8133,
      "creen": 8134,
      "Ġriendo": 8135,
      "ĠdescubriÃ³": 8136,
      "Ġflags": 8137,
      "Ġfondo": 8138,
      "Ġdeslizarse": 8139,
      "(['": 8140,
      "/'": 8141,
      "09": 8142,
      "SER": 8143,
      "sq": 8144,
      "Ġvit": 8145,
      "Ġcommon": 8146,
      "Ġcandida": 8147,
      "Ġcalidad": 8148,
      "tables": 8149,
      "Ġmetro": 8150,
      "ĠpenÃŃnsula": 8151,
      "Ġempresas": 8152,
      "Ge": 8153,
      "Sh": 8154,
      "Ġsw": 8155,
      "ĠSil": 8156,
      "ether": 8157,
      "Ġext": 8158,
      "Ġverda": 8159,
      "Ġcartas": 8160,
      "policy": 8161,
      "Logger": 8162,
      "global": 8163,
      "Ġefectos": 8164,
      "SH": 8165,
      "pil": 8166,
      "yen": 8167,
      "Ġdiario": 8168,
      "atas": 8169,
      "ĠMÃ¡s": 8170,
      "sito": 8171,
      "Ġresistencia": 8172,
      "Ġplaneta": 8173,
      "Ġnego": 8174,
      "yntax": 8175,
      "ĠespectÃ¡": 8176,
      "ĠextendiÃ³": 8177,
      "Ġobservaba": 8178,
      "ĠrealizÃ³": 8179,
      "Ġhorne": 8180,
      "Ġprofunda": 8181,
      "ondres": 8182,
      "ĠrÃŃen": 8183,
      "Output": 8184,
      "Ġarquitectura": 8185,
      "ĠInstituto": 8186,
      "dentials": 8187,
      "CC": 8188,
      "IST": 8189,
      "wrap": 8190,
      "ĠhÃ©": 8191,
      "portes": 8192,
      "ĠHer": 8193,
      "erme": 8194,
      "Ġmarker": 8195,
      "Ġabraza": 8196,
      "Ġbarcos": 8197,
      "Ġagradecida": 8198,
      "UTH": 8199,
      "EstÃ¡s": 8200,
      "Seg": 8201,
      "include": 8202,
      "urÃ³n": 8203,
      "pez": 8204,
      "Ġamb": 8205,
      "Ġdisc": 8206,
      "Ġhoyo": 8207,
      "Ġsabio": 8208,
      "stract": 8209,
      "Ġidentific": 8210,
      "Ġfingir": 8211,
      "Ġatleta": 8212,
      ")],": 8213,
      "Sin": 8214,
      "mbi": 8215,
      "Ġtasa": 8216,
      "Ġenz": 8217,
      "Ġhand": 8218,
      "ĠpartÃŃ": 8219,
      "Ġusando": 8220,
      "Ġluch": 8221,
      "Ġprobable": 8222,
      "ĠGoogle": 8223,
      "Molly": 8224,
      "dt": 8225,
      "mu": 8226,
      "Ġdedo": 8227,
      "Ġpk": 8228,
      "Ġbes": 8229,
      "uth": 8230,
      "ezuela": 8231,
      "Ġpron": 8232,
      "ĊĠĠĠĠĠĠĠĠĠĠĠĠĠĠĠĠĠĠĠĠĠĠĠĠĠĠĠĠĠĠĠĠ": 8233,
      "07": 8234,
      "={'": 8235,
      "mk": 8236,
      "rich": 8237,
      "ĠBan": 8238,
      "ĠestaciÃ³n": 8239,
      "Ġactiva": 8240,
      "Ġrota": 8241,
      "ĠSamuel": 8242,
      "Ġcen": 8243,
      "arÃ©": 8244,
      "Ġperf": 8245,
      "Ġcore": 8246,
      "Int": 8247,
      "Ġbalde": 8248,
      "ĠEstoy": 8249,
      "Ġalimentos": 8250,
      "Ġjefe": 8251,
      "ĠegoÃŃ": 8252,
      "ÃŃmp": 8253,
      "Ġdefine": 8254,
      "Ġcorrect": 8255,
      "Ġmetadata": 8256,
      "Ġartistas": 8257,
      "Ġdistintos": 8258,
      "54": 8259,
      "Ġpiz": 8260,
      "Ġunidad": 8261,
      "cker": 8262,
      "Ġcarne": 8263,
      "called": 8264,
      "grade": 8265,
      "Ġencontrarlo": 8266,
      "Ġmateriales": 8267,
      "Ġnumerosos": 8268,
      "Ġbocadillos": 8269,
      "bilidad": 8270,
      "cara": 8271,
      "cry": 8272,
      "hid": 8273,
      "xe": 8274,
      "Ġdicta": 8275,
      "ĠAragÃ³n": 8276,
      "Ġpropios": 8277,
      "deral": 8278,
      "Ġpiel": 8279,
      "Ġlibrary": 8280,
      "sort": 8281,
      "vierno": 8282,
      "OUT": 8283,
      "long": 8284,
      "ĠAires": 8285,
      "Ġdando": 8286,
      "reset": 8287,
      "ĠPel": 8288,
      "pose": 8289,
      "Ġpaloma": 8290,
      "EXT": 8291,
      "Ġpedazos": 8292,
      "81": 8293,
      "orÃŃas": 8294,
      "tific": 8295,
      "ĠNob": 8296,
      "particle": 8297,
      "mite": 8298,
      "izaciones": 8299,
      "Ġreferencia": 8300,
      "ĠfÃŃsica": 8301,
      ".%": 8302,
      "Ã§": 8303,
      "Ġconform": 8304,
      "pecial": 8305,
      "ĠUse": 8306,
      "olÃ³gicos": 8307,
      "Point": 8308,
      "Ġrespet": 8309,
      "Ġindustrial": 8310,
      "Dir": 8311,
      "dios": 8312,
      "lack": 8313,
      "Ġartes": 8314,
      "Ġvariedad": 8315,
      "udio": 8316,
      "ĠcÃ¡n": 8317,
      "Ġincen": 8318,
      "istente": 8319,
      "INTER": 8320,
      "Ġsentimos": 8321,
      "Version": 8322,
      "bano": 8323,
      "Ġesquina": 8324,
      "lect": 8325,
      "Ġdivis": 8326,
      "ĠSig": 8327,
      "ĠCla": 8328,
      "Ġcortar": 8329,
      "ombra": 8330,
      "allback": 8331,
      "empty": 8332,
      "prop": 8333,
      "Ġcomercio": 8334,
      "cepcion": 8335,
      "Ġbastante": 8336,
      "ĠValencia": 8337,
      "Ġposee": 8338,
      "Ġfundamental": 8339,
      "ĠsÃŃmbolo": 8340,
      "Oye": 8341,
      "Ġtmp": 8342,
      "atina": 8343,
      "Ġthey": 8344,
      "Ġabs": 8345,
      "Ġobstante": 8346,
      "font": 8347,
      "Pl": 8348,
      "Ġcable": 8349,
      "assertFalse": 8350,
      "Ġherman": 8351,
      "Ã¡mica": 8352,
      "Ġinicio": 8353,
      "yy": 8354,
      "usias": 8355,
      "Ġcomieron": 8356,
      "ĠCap": 8357,
      "lookup": 8358,
      "Ġameric": 8359,
      "Ġregister": 8360,
      "ross": 8361,
      "USER": 8362,
      "Ġclasific": 8363,
      "cloud": 8364,
      "ĠlingÃ¼": 8365,
      "Ġnodes": 8366,
      "Ãºr": 8367,
      "pecto": 8368,
      "Ġautores": 8369,
      "ĠvehÃŃ": 8370,
      "Ġutilizado": 8371,
      "ĠtecnologÃŃa": 8372,
      "ences": 8373,
      "ung": 8374,
      "lez": 8375,
      "ĠNeces": 8376,
      "Ġprotag": 8377,
      "ĠsalÃŃa": 8378,
      "(\"%": 8379,
      "cilla": 8380,
      "year": 8381,
      "Ġdesconoci": 8382,
      "iverso": 8383,
      "Ġenumerate": 8384,
      "ASE": 8385,
      "iar": 8386,
      "Ġcfg": 8387,
      "Ġperse": 8388,
      "alles": 8389,
      "lash": 8390,
      "Ġcrecer": 8391,
      "ĠFrank": 8392,
      "Box": 8393,
      "uuid": 8394,
      "enos": 8395,
      "Ġdecepcion": 8396,
      "ĠĠĠĠĠĠĠĠĠ": 8397,
      "Ġotor": 8398,
      "urces": 8399,
      "ips": 8400,
      "wner": 8401,
      "Ġmateria": 8402,
      "ĠsÃŃn": 8403,
      "cita": 8404,
      "learn": 8405,
      "Ġdipl": 8406,
      "ĠTÃº": 8407,
      "Ġestados": 8408,
      "urls": 8409,
      "Ġlimpio": 8410,
      "Ġpensar": 8411,
      "Ġ2022": 8412,
      "UM": 8413,
      "cm": 8414,
      "gada": 8415,
      "pub": 8416,
      "sch": 8417,
      "Ġreport": 8418,
      "ague": 8419,
      "Ġentusias": 8420,
      "Ġfinally": 8421,
      "Ġvecino": 8422,
      "bed": 8423,
      "remos": 8424,
      "ĠLondres": 8425,
      "Ġdimen": 8426,
      "Ġopts": 8427,
      "Ġcombin": 8428,
      "ĠBre": 8429,
      "Ġlocation": 8430,
      "ĠToda": 8431,
      "Ġ1948": 8432,
      "Ġexistencia": 8433,
      "LOG": 8434,
      "Ġmm": 8435,
      "iltin": 8436,
      "ĠPO": 8437,
      "ĠcreÃ³": 8438,
      "Ġmedios": 8439,
      "Ġfinanci": 8440,
      "Pol": 8441,
      "Vol": 8442,
      "duras": 8443,
      "tn": 8444,
      "Ġ--------------------------------": 8445,
      "Ġunit": 8446,
      "Ġvictoria": 8447,
      "Ġreprodu": 8448,
      "viÃ©tica": 8449,
      "Ġarmas": 8450,
      "Ġ1971": 8451,
      "ĠParam": 8452,
      "Ġorganismos": 8453,
      "Ġdisting": 8454,
      "Ġaplaudieron": 8455,
      "Tengo": 8456,
      "Ġprueba": 8457,
      "elipe": 8458,
      "ĠneerlandÃ©s": 8459,
      "Ġdifferent": 8460,
      "ĠBuenos": 8461,
      "lint": 8462,
      "Ġstar": 8463,
      "invalid": 8464,
      "ilio": 8465,
      "Ġjal": 8466,
      "ĠPop": 8467,
      "ĠhacÃŃan": 8468,
      "Ġrock": 8469,
      "Implemented": 8470,
      "Ġinmediato": 8471,
      "ĠTypeError": 8472,
      "Ġtru": 8473,
      "Ġperm": 8474,
      "Ġplugin": 8475,
      "driver": 8476,
      "Ġresultados": 8477,
      "Len": 8478,
      "Ġaltas": 8479,
      "ĠGol": 8480,
      "Ġpate": 8481,
      "tempor": 8482,
      "ĠalejÃ³": 8483,
      "Ġtej": 8484,
      "ĠrÃ¡pida": 8485,
      "RECT": 8486,
      "fication": 8487,
      "Ġlocalidad": 8488,
      "ĠCharles": 8489,
      "Ġfemen": 8490,
      "82": 8491,
      "Ġterminaron": 8492,
      "ation": 8493,
      "Ġpelaje": 8494,
      "secon": 8495,
      "Ġexplo": 8496,
      "ĠOS": 8497,
      "Ġsix": 8498,
      "Ġtradu": 8499,
      "ĠproteÃŃnas": 8500,
      "ground": 8501,
      "bec": 8502,
      "fol": 8503,
      "messages": 8504,
      "opt": 8505,
      "ont": 8506,
      "Ġhubo": 8507,
      "Ġdivision": 8508,
      "Ġestre": 8509,
      "Ġvoy": 8510,
      "ĠaceptÃ³": 8511,
      "Ġconfiable": 8512,
      "Ġcuarto": 8513,
      "Ġamistoso": 8514,
      "iddleware": 8515,
      "67": 8516,
      "DATA": 8517,
      "Sal": 8518,
      "Ġsucio": 8519,
      "ĠbÃºho": 8520,
      "terri": 8521,
      "Ġjugador": 8522,
      "Ġ</": 8523,
      "Ġpintar": 8524,
      "ĠvacÃŃo": 8525,
      "VIC": 8526,
      "wri": 8527,
      "Ġgana": 8528,
      "Ġwin": 8529,
      "asso": 8530,
      "Ġsalpic": 8531,
      "master": 8532,
      "ĠsentÃŃan": 8533,
      "TomÃ¡s": 8534,
      "ĊĠĠĠĠĠĠĠĠĠĠĠĠĠĠĠĠĠĠĠĠĠĠĠĠĠĠĠĠĠĠĠĠĠ": 8535,
      "Ġmusul": 8536,
      "ĠdesapareciÃ³": 8537,
      "Ġbetween": 8538,
      "OM": 8539,
      "yas": 8540,
      "Ġcrom": 8541,
      "Ġrele": 8542,
      "ermis": 8543,
      "Ġpatas": 8544,
      "Ġinteresante": 8545,
      "Historia": 8546,
      "bes": 8547,
      "bun": 8548,
      "arme": 8549,
      "Ġbola": 8550,
      "ĠLÃ³": 8551,
      "ĠhabrÃŃa": 8552,
      "bios": 8553,
      "Ġrodilla": 8554,
      "Ġproducir": 8555,
      "Ġ1944": 8556,
      "Ġcolumn": 8557,
      "buffer": 8558,
      "Ġzanahorias": 8559,
      "cidas": 8560,
      "bita": 8561,
      "Ġestatu": 8562,
      "risti": 8563,
      "osauri": 8564,
      "Ġrit": 8565,
      "Ġmostra": 8566,
      "Ġfoo": 8567,
      "III": 8568,
      "Ġurugu": 8569,
      "[:,": 8570,
      "Ġtabla": 8571,
      "Ġoffset": 8572,
      "gin": 8573,
      "Ġdeten": 8574,
      "Ġmath": 8575,
      "dim": 8576,
      "Ġcomment": 8577,
      "ĠPen": 8578,
      "ĠÃ¡tom": 8579,
      "ĠSuper": 8580,
      "ĠEuropea": 8581,
      "~~~~~~~~": 8582,
      "ĠCentral": 8583,
      "Number": 8584,
      "jando": 8585,
      "Ġstri": 8586,
      "Ã±Ã³": 8587,
      "ĠPl": 8588,
      "Ġids": 8589,
      "ĠanÃ¡lisis": 8590,
      "\",\"": 8591,
      "ĠOc": 8592,
      "Ġsociales": 8593,
      "Ġdisposi": 8594,
      "Ġterres": 8595,
      "Ġlogin": 8596,
      "Ġgenerated": 8597,
      "Ġcriatura": 8598,
      "Tien": 8599,
      "tiga": 8600,
      "Ġflex": 8601,
      "icho": 8602,
      "guera": 8603,
      "ĠmetiÃ³": 8604,
      "Ġamigable": 8605,
      "empos": 8606,
      "ĠplÃ¡": 8607,
      "ĠAlex": 8608,
      "Ġamplia": 8609,
      "ponjoso": 8610,
      "98": 8611,
      "Em": 8612,
      "ĉĉ": 8613,
      "Ġcobre": 8614,
      "ĠperdiÃ³": 8615,
      "ÃŃsimo": 8616,
      "uele": 8617,
      "Ġkil": 8618,
      "Ġinfan": 8619,
      "css": 8620,
      "paces": 8621,
      "normal": 8622,
      "window": 8623,
      "leep": 8624,
      "__,": 8625,
      "puestas": 8626,
      "regor": 8627,
      "mios": 8628,
      "Ġdeliciosos": 8629,
      "document": 8630,
      "ĠeconÃ³mico": 8631,
      "Ġcontaining": 8632,
      "gorithm": 8633,
      "dÃ³n": 8634,
      "Ġenvol": 8635,
      "Ġanteriores": 8636,
      "Ġhabla": 8637,
      "ders": 8638,
      "Ġmejorar": 8639,
      "Ġbool": 8640,
      "Ġasustados": 8641,
      "Ġesperando": 8642,
      "Ġlanza": 8643,
      "grÃ¡fica": 8644,
      "ĠentristeciÃ³": 8645,
      "ĠLÃ³pez": 8646,
      "rum": 8647,
      "wis": 8648,
      "erial": 8649,
      "Ġove": 8650,
      "questa": 8651,
      "added": 8652,
      "ĠFelipe": 8653,
      "Ġdesign": 8654,
      "Ġquit": 8655,
      "provider": 8656,
      "ĠKe": 8657,
      "Invalid": 8658,
      "Ġbalance": 8659,
      "ĠcÃ¡lida": 8660,
      "Ġmezcla": 8661,
      "DR": 8662,
      "scale": 8663,
      "alpha": 8664,
      "Ġdial": 8665,
      "landes": 8666,
      "Ġtecho": 8667,
      "Ġ1942": 8668,
      "hostname": 8669,
      "Ġdinosauri": 8670,
      "Ã³nimo": 8671,
      "ĠCore": 8672,
      "Ġarru": 8673,
      "Ġverla": 8674,
      "genas": 8675,
      "ĠSoviÃ©tica": 8676,
      "ology": 8677,
      "ĠJose": 8678,
      "Ġcontentos": 8679,
      "herit": 8680,
      "Ġantiguos": 8681,
      "Ġgobernador": 8682,
      "Luego": 8683,
      "Ġmessages": 8684,
      "ampo": 8685,
      "Ġverdes": 8686,
      "INE": 8687,
      "Instance": 8688,
      "Ġpesada": 8689,
      "Ġprocesos": 8690,
      "Ġprovincias": 8691,
      "ĠIsrael": 8692,
      "Ġamarilla": 8693,
      "Ġentender": 8694,
      "Am": 8695,
      "Ġpico": 8696,
      "ĠSt": 8697,
      "ĠSmith": 8698,
      "umns": 8699,
      "ĠUnidas": 8700,
      "Ġmanda": 8701,
      "assertIs": 8702,
      "Ġpeludo": 8703,
      "Ġolla": 8704,
      "Ġnecesario": 8705,
      "DEF": 8706,
      "lite": 8707,
      "Ġmethods": 8708,
      "Ġocasiones": 8709,
      "ĠEjÃ©rcito": 8710,
      "inaron": 8711,
      "ĠvÃŃa": 8712,
      "Ġcontiene": 8713,
      "Ġcamisa": 8714,
      "ĠQt": 8715,
      "ĠUSE": 8716,
      "regex": 8717,
      "Ġhumana": 8718,
      "Ġfailed": 8719,
      "Ġasintieron": 8720,
      "Ġescapar": 8721,
      "ĠmatemÃ¡ticas": 8722,
      "ĠquÃŃmica": 8723,
      "home": 8724,
      "Ġcaca": 8725,
      "ĠJul": 8726,
      "Ġmatrimonio": 8727,
      "packages": 8728,
      "Ġpropiedades": 8729,
      "Many": 8730,
      "Format": 8731,
      "ĠÃ³rg": 8732,
      "Returns": 8733,
      "success": 8734,
      "Ġalmoh": 8735,
      "72": 8736,
      "Ese": 8737,
      "sto": 8738,
      "ĊĊĊ": 8739,
      "IGN": 8740,
      "63": 8741,
      "bia": 8742,
      "symbol": 8743,
      "Ġcob": 8744,
      "Ġ\"--": 8745,
      "Ġaltos": 8746,
      "uler": 8747,
      "Ġmasco": 8748,
      "IBUT": 8749,
      "Ġsuficientemente": 8750,
      "Warning": 8751,
      "button": 8752,
      "dores": 8753,
      "dimiento": 8754,
      "amp": 8755,
      "Ã¡pidamente": 8756,
      "Ġqueda": 8757,
      "ĠCruz": 8758,
      "modi": 8759,
      "till": 8760,
      "Connection": 8761,
      "Ġbusca": 8762,
      "Ġ1967": 8763,
      "Ġcomputadora": 8764,
      "ĠmÃ©todo": 8765,
      "Ġelegir": 8766,
      "Ġdisfru": 8767,
      "ĠartÃŃculo": 8768,
      "ĠJesÃºs": 8769,
      "memb": 8770,
      "viendo": 8771,
      "ĠLou": 8772,
      "resources": 8773,
      "Ġusaba": 8774,
      "ĠWindows": 8775,
      "ĠIndia": 8776,
      "Ġregistra": 8777,
      "Ġllegada": 8778,
      "Ġcreado": 8779,
      "Ġnacionales": 8780,
      "Ġlimpia": 8781,
      "Ġsacu": 8782,
      "Ġedificios": 8783,
      "Ġmunicipios": 8784,
      "Ġtags": 8785,
      "57": 8786,
      "LL": 8787,
      "]+": 8788,
      "vec": 8789,
      "ecl": 8790,
      "rante": 8791,
      "izan": 8792,
      "cks": 8793,
      "allas": 8794,
      "Ġattributes": 8795,
      "AND": 8796,
      "Ġdirect": 8797,
      "Ġbasura": 8798,
      "Property": 8799,
      "Ġflag": 8800,
      "Server": 8801,
      "ĠdevolviÃ³": 8802,
      "Ġdisfra": 8803,
      "Ġsuelen": 8804,
      "$',": 8805,
      "OK": 8806,
      "cb": 8807,
      "Ġcarga": 8808,
      "raises": 8809,
      "Ġbeso": 8810,
      "ĠSP": 8811,
      "Ġinvierno": 8812,
      "rantes": 8813,
      "move": 8814,
      "dentes": 8815,
      "hete": 8816,
      "rule": 8817,
      "bool": 8818,
      "Ġhuman": 8819,
      "Ġfeature": 8820,
      "Ġdescubrir": 8821,
      "Ġniveles": 8822,
      "puedo": 8823,
      "GE": 8824,
      "Ġladr": 8825,
      "ecÃŃan": 8826,
      "ĠPy": 8827,
      "Ġwait": 8828,
      "Ġacceso": 8829,
      "ĠLeo": 8830,
      "Ġ>>": 8831,
      "Ġcampana": 8832,
      "IED": 8833,
      "Label": 8834,
      "sig": 8835,
      "dates": 8836,
      "('%": 8837,
      "Ġ[[": 8838,
      "paths": 8839,
      "Ġfuentes": 8840,
      "bound": 8841,
      "itaria": 8842,
      "rosoft": 8843,
      "security": 8844,
      "gl": 8845,
      "dices": 8846,
      "Ġbatch": 8847,
      "ĠEse": 8848,
      "ĠEdad": 8849,
      "ĠNos": 8850,
      "Ġverduras": 8851,
      "Qt": 8852,
      "Ġfrag": 8853,
      "lease": 8854,
      "Ġpiano": 8855,
      "Ġmonedas": 8856,
      "ĠVenezuela": 8857,
      "Ġreligioso": 8858,
      "Ġpizza": 8859,
      "Ġmand": 8860,
      "tidades": 8861,
      "Ġenfer": 8862,
      "Ġcolec": 8863,
      "ĠmaÃŃz": 8864,
      "Ġmediados": 8865,
      "feed": 8866,
      "Ġ1969": 8867,
      "clear": 8868,
      "Ġsaco": 8869,
      "Ġsemillas": 8870,
      "dumps": 8871,
      "partner": 8872,
      "Ġextremo": 8873,
      "IntegerField": 8874,
      "Ven": 8875,
      "pet": 8876,
      "Ġcep": 8877,
      "unique": 8878,
      "ĠLuna": 8879,
      "Ġprotest": 8880,
      "park": 8881,
      "ĠOTH": 8882,
      "ubio": 8883,
      "vangel": 8884,
      "ĠplÃ¡s": 8885,
      "Ġcantando": 8886,
      "Ġcelular": 8887,
      "ĠdefiniciÃ³n": 8888,
      "ĠOTHER": 8889,
      "umo": 8890,
      "tains": 8891,
      "ĠMc": 8892,
      "Ġib": 8893,
      "Ġpocos": 8894,
      "Ġcohete": 8895,
      "Ġobispo": 8896,
      "Ġregal": 8897,
      "Ġframe": 8898,
      "Ġbyte": 8899,
      "Ġ1943": 8900,
      "Ġpresidencia": 8901,
      "Ġconsecuencia": 8902,
      "Code": 8903,
      "Ġinternacionales": 8904,
      "ĠfenÃ³m": 8905,
      "SegÃºn": 8906,
      ")'": 8907,
      "pto": 8908,
      "ÃŃes": 8909,
      "Ġ\"__": 8910,
      "Ġconsol": 8911,
      "Ġabrigo": 8912,
      "Ġatrapado": 8913,
      "tiende": 8914,
      "ĠgolpeÃ³": 8915,
      "Ã¡rsela": 8916,
      "Ġvitore": 8917,
      "]*": 8918,
      "factor": 8919,
      "xf": 8920,
      "Ġpay": 8921,
      "Ġpatch": 8922,
      "Ġfis": 8923,
      "Ġfotos": 8924,
      "Ġalways": 8925,
      "ĠDist": 8926,
      "Ġdesc": 8927,
      "Ġsonriendo": 8928,
      "Ġinterc": 8929,
      "ĠÃģl": 8930,
      "ĠreligiÃ³n": 8931,
      "Ġnumerosas": 8932,
      "Ġwarnings": 8933,
      "Mu": 8934,
      "Ro": 8935,
      "Task": 8936,
      "Vaya": 8937,
      "Ġsql": 8938,
      "ĠpÃºblica": 8939,
      "cii": 8940,
      "Ġlav": 8941,
      "ĠSoci": 8942,
      "Ġimporta": 8943,
      "interface": 8944,
      "Ġsexual": 8945,
      "amblea": 8946,
      "Ġsilencio": 8947,
      "[^": 8948,
      "iro": 8949,
      "llo": 8950,
      "Ġsat": 8951,
      "ulta": 8952,
      "Ġnoches": 8953,
      "Ġexclus": 8954,
      "Ġwidget": 8955,
      "']),": 8956,
      "istad": 8957,
      "Ġpaque": 8958,
      "Ġsubs": 8959,
      "QuiÃ©n": 8960,
      "Ġprogramas": 8961,
      "Ġinmig": 8962,
      "Ġlocales": 8963,
      "Ġtronco": 8964,
      "Ġtercera": 8965,
      "ĠlÃ¡s": 8966,
      "Ġ\"'": 8967,
      "ouse": 8968,
      "Ġfuturo": 8969,
      "Ġrunning": 8970,
      "Ġaguas": 8971,
      "Ġsecond": 8972,
      "PUT": 8973,
      "Ġbru": 8974,
      "Ġoport": 8975,
      "ĠBel": 8976,
      "Ġsoldados": 8977,
      "Ġmaestro": 8978,
      "Ġ1946": 8979,
      "ĠExten": 8980,
      "ĠEmily": 8981,
      "lamento": 8982,
      "ĠReser": 8983,
      "Ġalfombra": 8984,
      "AI": 8985,
      "queue": 8986,
      "rador": 8987,
      "Ġhip": 8988,
      "todos": 8989,
      "ĠDAM": 8990,
      "Ġforce": 8991,
      "person": 8992,
      "ĠVic": 8993,
      "iform": 8994,
      "udas": 8995,
      "Ġpreguntaron": 8996,
      "Ġcaminaban": 8997,
      "Ġ1963": 8998,
      "Ġfrances": 8999,
      "Ġfix": 9000,
      "hentica": 9001,
      "Ġignore": 9002,
      "Ġborde": 9003,
      "ĠNotImplemented": 9004,
      "Ġcrayones": 9005,
      "61": 9006,
      "aa": 9007,
      "ities": 9008,
      "reros": 9009,
      "Ġsplit": 9010,
      "ÃŃgenas": 9011,
      "Ġelect": 9012,
      "omos": 9013,
      "ics": 9014,
      "iensan": 9015,
      "Ġampli": 9016,
      "ĠHacen": 9017,
      "iff": 9018,
      "ysis": 9019,
      "backend": 9020,
      "Ġclasses": 9021,
      "ĠdÃ©bil": 9022,
      "Ġrecuperar": 9023,
      "guez": 9024,
      "cular": 9025,
      "gument": 9026,
      "ĠpÃ©r": 9027,
      "Ġvalores": 9028,
      "Ġtiempos": 9029,
      "ERS": 9030,
      "Ġreglas": 9031,
      "region": 9032,
      "Ġ}}": 9033,
      "Ġcuidadosa": 9034,
      "ĠAgarrÃ³": 9035,
      "ampoco": 9036,
      "Ja": 9037,
      "ls": 9038,
      "inam": 9039,
      "ĠLlor": 9040,
      "entas": 9041,
      "Ġpaisa": 9042,
      "Ġpele": 9043,
      "Ġolvi": 9044,
      "Ġreference": 9045,
      "MPLIED": 9046,
      "ashington": 9047,
      "Ġaxis": 9048,
      "terrÃ¡neo": 9049,
      "NS": 9050,
      "RIGHT": 9051,
      "ited": 9052,
      "jera": 9053,
      "pect": 9054,
      "esiÃ³n": 9055,
      "Ġmarg": 9056,
      "ciado": 9057,
      "Ġlat": 9058,
      "Ġproteg": 9059,
      "ĠHerm": 9060,
      "Ġcastell": 9061,
      "Ġ500": 9062,
      "Ġautomo": 9063,
      "Ġvenir": 9064,
      "Ġ90": 9065,
      "Ġpreocupada": 9066,
      "Ġespacial": 9067,
      "Ġlabels": 9068,
      "Ġexplorando": 9069,
      "Ġimportaba": 9070,
      "hand": 9071,
      "Ġviene": 9072,
      "ĠAct": 9073,
      "Ġcomiendo": 9074,
      "ather": 9075,
      "ĠKar": 9076,
      "aved": 9077,
      "Ġtrabajos": 9078,
      "Ġflu": 9079,
      "Ġfacil": 9080,
      "Ġ1928": 9081,
      "Ġpropias": 9082,
      "Ġprofesional": 9083,
      "Ġtravieso": 9084,
      "gimen": 9085,
      "Ġ):": 9086,
      "Ã¡g": 9087,
      "apo": 9088,
      "tens": 9089,
      "ĠmoviÃ³": 9090,
      "uelve": 9091,
      "ĠautÃ³n": 9092,
      "Ġtercer": 9093,
      "TIME": 9094,
      "Ġmordisco": 9095,
      "Ġcansada": 9096,
      "Ġesfuerzo": 9097,
      "Ġcangrejo": 9098,
      "69": 9099,
      "74": 9100,
      "github": 9101,
      "literal": 9102,
      "Ġador": 9103,
      "Ġdedos": 9104,
      "citos": 9105,
      "Ġrefi": 9106,
      "ciaciÃ³n": 9107,
      "ĠHoy": 9108,
      "Ġenojados": 9109,
      "000000": 9110,
      "Ġmovimientos": 9111,
      "ĠentendÃŃa": 9112,
      "variable": 9113,
      "Ġrecursos": 9114,
      "ĠFueron": 9115,
      "ĠWilson": 9116,
      "Ġperuano": 9117,
      "Ã³rmula": 9118,
      "custom": 9119,
      "dst": 9120,
      "vs": 9121,
      "Ġ'',": 9122,
      "emy": 9123,
      "ster": 9124,
      "Ġhacerla": 9125,
      "Ġadded": 9126,
      "Ġ1964": 9127,
      "Ġpeso": 9128,
      "urias": 9129,
      "Ġpublicado": 9130,
      "Ġzanahoria": 9131,
      "Ġreserved": 9132,
      "erdo": 9133,
      "arro": 9134,
      "Ġmelo": 9135,
      "dice": 9136,
      "images": 9137,
      "Ġsitio": 9138,
      "Ġtomaron": 9139,
      "Ġxrange": 9140,
      "ĠCompar": 9141,
      "SET": 9142,
      "Ġ1965": 9143,
      "Ġesperaba": 9144,
      "Ġconocidos": 9145,
      "ROM": 9146,
      "ĠVolÃ³": 9147,
      "dump": 9148,
      "download": 9149,
      "ĠtÃ©cnica": 9150,
      "iw": 9151,
      "lers": 9152,
      "ÃŃda": 9153,
      "istros": 9154,
      "poch": 9155,
      "Entre": 9156,
      "Ġafec": 9157,
      "ĠdivirtiÃ©ndose": 9158,
      "Ġ1947": 9159,
      "Ġbased": 9160,
      "ĠCampe": 9161,
      "Ġdenomina": 9162,
      "Ġlibertad": 9163,
      "Ġexamen": 9164,
      "xb": 9165,
      "Ġmut": 9166,
      "rics": 9167,
      "istir": 9168,
      "ĠST": 9169,
      "ĠBy": 9170,
      "Ġasust": 9171,
      "Ġplt": 9172,
      "Ġcentros": 9173,
      "Ġmusic": 9174,
      "Ġfalta": 9175,
      "iiiiiiiiiiiiiiiiiiiiiiiiiiiiiiiiiiiiiiiiiiiiiiiiiiiiiiiiiiiiiiii": 9176,
      "Ġrueda": 9177,
      "illermo": 9178,
      "Ġdiplom": 9179,
      "Frame": 9180,
      "pados": 9181,
      "dol": 9182,
      "diciÃ³n": 9183,
      "Ġesos": 9184,
      "imismo": 9185,
      "Ġdum": 9186,
      "ĠMos": 9187,
      "rasil": 9188,
      "Ġrest": 9189,
      "deraciÃ³n": 9190,
      "Ġpylint": 9191,
      "ĠAcademia": 9192,
      "Cada": 9193,
      "Ġcompati": 9194,
      "ĠIMPLIED": 9195,
      "Ġrestos": 9196,
      "ĠcampaÃ±a": 9197,
      "Ġdataset": 9198,
      "ĠTengo": 9199,
      "Ġfamoso": 9200,
      "ĠWITH": 9201,
      "Ġdependen": 9202,
      "ĠcÃŃrculo": 9203,
      "ĠÃ¡rabe": 9204,
      "Ġtubo": 9205,
      "ĠfÃ³s": 9206,
      "Ġgit": 9207,
      "chine": 9208,
      "Ġasiento": 9209,
      "protocol": 9210,
      "arrÃ³n": 9211,
      "Ġescrito": 9212,
      "Ġconsum": 9213,
      "Ġcompuesto": 9214,
      "ĠOrgan": 9215,
      "Attribute": 9216,
      "contecimientos": 9217,
      "68": 9218,
      "Pa": 9219,
      "grid": 9220,
      "iores": 9221,
      "Ġcis": 9222,
      "Ã³l": 9223,
      "Ġnut": 9224,
      "Ġsean": 9225,
      "terio": 9226,
      "cles": 9227,
      "'][": 9228,
      "Ġiter": 9229,
      "Ġgrado": 9230,
      "Ġgritaron": 9231,
      "Ġcallback": 9232,
      "Ġsombra": 9233,
      "ĠpermitiÃ³": 9234,
      "PS": 9235,
      "speci": 9236,
      "Ġapres": 9237,
      "Ġstu": 9238,
      "Ġdecre": 9239,
      "didas": 9240,
      "Ġhandler": 9241,
      "Ġvon": 9242,
      "Ġreverse": 9243,
      "copio": 9244,
      "Ġaspecto": 9245,
      "ĠFer": 9246,
      "ĠGab": 9247,
      "Ġpreguntas": 9248,
      "Ġbound": 9249,
      "Ġprodujo": 9250,
      "Ġ1962": 9251,
      "Ġdescubi": 9252,
      "Ġselva": 9253,
      "ĠpelÃŃculas": 9254,
      "ĠjudÃŃos": 9255,
      "BUG": 9256,
      "dot": 9257,
      "ĠMit": 9258,
      "Ġanillo": 9259,
      "Ġcoron": 9260,
      "Ġ_(\"": 9261,
      "ACE": 9262,
      "Ġdirigida": 9263,
      "Ġsalvaje": 9264,
      "inario": 9265,
      "ĠAus": 9266,
      "Ġcomporta": 9267,
      "Ġprov": 9268,
      "clu": 9269,
      "proto": 9270,
      "ĠNote": 9271,
      "icil": 9272,
      "SED": 9273,
      "Ġexisting": 9274,
      "Ġselect": 9275,
      "ĠPaÃŃs": 9276,
      "Ġremote": 9277,
      "Ġderecha": 9278,
      "Ġaustral": 9279,
      "ermission": 9280,
      "eles": 9281,
      "ĠPic": 9282,
      "Ġlobo": 9283,
      "Ġdol": 9284,
      "END": 9285,
      "azz": 9286,
      "Ġrecordar": 9287,
      "Ġestima": 9288,
      "Ġciclo": 9289,
      "abspath": 9290,
      "Ġpiscina": 9291,
      "ĠespectÃ¡culo": 9292,
      "52": 9293,
      "Ġstop": 9294,
      "olina": 9295,
      "Ġdiag": 9296,
      "Ġalias": 9297,
      "vaciÃ³n": 9298,
      "Ġvolviera": 9299,
      "Ġstatic": 9300,
      "Widget": 9301,
      "dn": 9302,
      "ĠÃŃn": 9303,
      "Ġmues": 9304,
      "Ġword": 9305,
      "Ġmover": 9306,
      "Ġmedir": 9307,
      "safe": 9308,
      "Tommy": 9309,
      "Ġideas": 9310,
      "ĠGranada": 9311,
      "ĠJake": 9312,
      "ĠmÃŃo": 9313,
      "Ġinit": 9314,
      "actions": 9315,
      "ĠJSON": 9316,
      "ĠEspaÃ±ol": 9317,
      "Ġperez": 9318,
      "exec": 9319,
      "Ġtrajo": 9320,
      "uraciÃ³n": 9321,
      "Ġgraba": 9322,
      "ĠAsia": 9323,
      "Ġponen": 9324,
      "ĠCanadÃ¡": 9325,
      "And": 9326,
      "apping": 9327,
      "Ġcircu": 9328,
      "Ġcontains": 9329,
      "ĠhistÃ³rico": 9330,
      "Ġjaula": 9331,
      "ĠGritÃ³": 9332,
      "Ġvenezolano": 9333,
      "Sim": 9334,
      "fd": 9335,
      "git": 9336,
      "lid": 9337,
      "Ġmando": 9338,
      "Ġunique": 9339,
      "ĠDem": 9340,
      "Ġpair": 9341,
      "ĠWal": 9342,
      "Ġtijeras": 9343,
      "Ġsabor": 9344,
      "Ġutils": 9345,
      "ĠMedia": 9346,
      "Ġindica": 9347,
      "ĠRusia": 9348,
      "TA": 9349,
      "hr": 9350,
      "rm": 9351,
      "deci": 9352,
      "esÃŃa": 9353,
      "ĠaristÃ³": 9354,
      "ĠLIMIT": 9355,
      "Ġmuertos": 9356,
      "connec": 9357,
      "ĠJan": 9358,
      "ITE": 9359,
      "Ġformado": 9360,
      "Ġ1958": 9361,
      "misiÃ³n": 9362,
      "Ġmolest": 9363,
      "Ġrefrigerador": 9364,
      "ĠlÃ¡piz": 9365,
      "Ġsangre": 9366,
      "pirÃ³": 9367,
      "tol": 9368,
      "Ġcif": 9369,
      "ĠmÃºlti": 9370,
      "Ġenvironment": 9371,
      "ĠĠĠĠĠĠĠĠĠĠĠ": 9372,
      "ĠgrÃ¡": 9373,
      "click": 9374,
      "Ġseres": 9375,
      "puestos": 9376,
      "ĠWashington": 9377,
      "precated": 9378,
      "Ġinstall": 9379,
      "Ġpesado": 9380,
      "ĠespÃŃri": 9381,
      "Ġequipos": 9382,
      "Ġsostuvo": 9383,
      "Ġruidoso": 9384,
      "Ġambiente": 9385,
      "Deb": 9386,
      "Open": 9387,
      "ZE": 9388,
      "hex": 9389,
      "Ġctypes": 9390,
      "Ġtos": 9391,
      "Ġtax": 9392,
      "Ġnom": 9393,
      "ĠvÃŃ": 9394,
      "ĠĠĠĠĠĠĠĠĠĠ": 9395,
      "Ġcanta": 9396,
      "Ġespejo": 9397,
      "Ġfueran": 9398,
      "ĠManch": 9399,
      "olÃ³gicas": 9400,
      "COL": 9401,
      "Ġpersonajes": 9402,
      "Ġdestacan": 9403,
      "ĠlastimÃ³": 9404,
      "Ġdescubrimiento": 9405,
      "ĠNobel": 9406,
      "Ġuruguayo": 9407,
      "public": 9408,
      "ĠaÃ©": 9409,
      "Ġdet": 9410,
      "Ġdepartamento": 9411,
      "ĠAug": 9412,
      "Ġ(),": 9413,
      "Ġamistad": 9414,
      "Ġestra": 9415,
      "Ġsintiera": 9416,
      "sock": 9417,
      "ĠMarcos": 9418,
      "Ġpoderoso": 9419,
      "Ġdescrip": 9420,
      "Ġescondite": 9421,
      "/',": 9422,
      "91": 9423,
      "LucÃŃa": 9424,
      "Ġevery": 9425,
      "urg": 9426,
[...]
