{
  "version": "1.0",
  "truncation": null,
  "padding": null,
  "added_tokens": [
    {
      "id": 0,
      "content": "<|doc|>",
      "single_word": false,
      "lstrip": false,
      "rstrip": false,
      "normalized": false,
      "special": true
    }
  ],
  "normalizer": null,
  "pre_tokenizer": {
    "type": "ByteLevel",
    "add_prefix_space": false,
    "trim_offsets": true,
    "use_regex": true
  },
  "post_processor": null,
  "decoder": {
    "type": "ByteLevel",
    "add_prefix_space": true,
    "trim_offsets": true,
    "use_regex": true
  },
  "model": {
    "type": "BPE",
    "dropout": null,
    "unk_token": null,
    "continuing_subword_prefix": null,
    "end_of_word_suffix": null,
    "fuse_unk": false,
    "byte_fallback": false,
    "ignore_merges": false,
    "vocab": {
      "<|doc|>": 0,
      "!": 1,
      "\"": 2,
      "#": 3,
      "$": 4,
      "%": 5,
      "&": 6,
      "'": 7,
      "(": 8,
      ")": 9,
      "*": 10,
      "+": 11,
      ",": 12,
      "-": 13,
      ".": 14,
      "/": 15,
      "0": 16,
      "1": 17,
      "2": 18,
      "3": 19,
      "4": 20,
      "5": 21,
      "6": 22,
      "7": 23,
      "8": 24,
      "9": 25,
      ":": 26,
      ";": 27,
      "<": 28,
      "=": 29,
      ">": 30,
      "?": 31,
      "@": 32,
      "A": 33,
      "B": 34,
      "C": 35,
      "D": 36,
      "E": 37,
      "F": 38,
      "G": 39,
      "H": 40,
      "I": 41,
      "J": 42,
      "K": 43,
      "L": 44,
      "M": 45,
      "N": 46,
      "O": 47,
      "P": 48,
      "Q": 49,
      "R": 50,
      "S": 51,
      "T": 52,
      "U": 53,
      "V": 54,
      "W": 55,
      "X": 56,
      "Y": 57,
      "Z": 58,
      "[": 59,
      "\\": 60,
      "]": 61,
      "^": 62,
      "_": 63,
      "`": 64,
      "a": 65,
      "b": 66,
      "c": 67,
      "d": 68,
      "e": 69,
      "f": 70,
      "g": 71,
      "h": 72,
      "i": 73,
      "j": 74,
      "k": 75,
      "l": 76,
      "m": 77,
      "n": 78,
      "o": 79,
      "p": 80,
      "q": 81,
      "r": 82,
      "s": 83,
      "t": 84,
      "u": 85,
      "v": 86,
      "w": 87,
      "x": 88,
      "y": 89,
      "z": 90,
      "{": 91,
      "|": 92,
      "}": 93,
      "~": 94,
      "¡": 95,
      "¢": 96,
      "£": 97,
      "¤": 98,
      "¥": 99,
      "¦": 100,
      "§": 101,
      "¨": 102,
      "©": 103,
      "ª": 104,
      "«": 105,
      "¬": 106,
      "®": 107,
      "¯": 108,
      "°": 109,
      "±": 110,
      "²": 111,
      "³": 112,
      "´": 113,
      "µ": 114,
      "¶": 115,
      "·": 116,
      "¸": 117,
      "¹": 118,
      "º": 119,
      "»": 120,
      "¼": 121,
      "½": 122,
      "¾": 123,
      "¿": 124,
      "À": 125,
      "Á": 126,
      "Â": 127,
      "Ã": 128,
      "Ä": 129,
      "Å": 130,
      "Æ": 131,
      "Ç": 132,
      "È": 133,
      "É": 134,
      "Ê": 135,
      "Ë": 136,
      "Ì": 137,
      "Í": 138,
      "Î": 139,
      "Ï": 140,
      "Ð": 141,
      "Ñ": 142,
      "Ò": 143,
      "Ó": 144,
      "Ô": 145,
      "Õ": 146,
      "Ö": 147,
      "×": 148,
      "Ø": 149,
      "Ù": 150,
      "Ú": 151,
      "Û": 152,
      "Ü": 153,
      "Ý": 154,
      "Þ": 155,
      "ß": 156,
      "à": 157,
      "á": 158,
      "â": 159,
      "ã": 160,
      "ä": 161,
      "å": 162,
      "æ": 163,
      "ç": 164,
      "è": 165,
      "é": 166,
      "ê": 167,
      "ë": 168,
      "ì": 169,
      "í": 170,
      "î": 171,
      "ï": 172,
      "ð": 173,
      "ñ": 174,
      "ò": 175,
      "ó": 176,
      "ô": 177,
      "õ": 178,
      "ö": 179,
      "÷": 180,
      "ø": 181,
      "ù": 182,
      "ú": 183,
      "û": 184,
      "ü": 185,
      "ý": 186,
      "þ": 187,
      "ÿ": 188,
      "Ā": 189,
      "ā": 190,
      "Ă": 191,
      "ă": 192,
      "Ą": 193,
      "ą": 194,
      "Ć": 195,
      "ć": 196,
      "Ĉ": 197,
      "ĉ": 198,
      "Ċ": 199,
      "ċ": 200,
      "Č": 201,
      "č": 202,
      "Ď": 203,
      "ď": 204,
      "Đ": 205,
      "đ": 206,
      "Ē": 207,
      "ē": 208,
      "Ĕ": 209,
      "ĕ": 210,
      "Ė": 211,
      "ė": 212,
      "Ę": 213,
      "ę": 214,
      "Ě": 215,
      "ě": 216,
      "Ĝ": 217,
      "ĝ": 218,
      "Ğ": 219,
      "ğ": 220,
      "Ġ": 221,
      "ġ": 222,
      "Ģ": 223,
      "ģ": 224,
      "Ĥ": 225,
      "ĥ": 226,
      "Ħ": 227,
      "ħ": 228,
      "Ĩ": 229,
      "ĩ": 230,
      "Ī": 231,
      "ī": 232,
      "Ĭ": 233,
      "ĭ": 234,
      "Į": 235,
      "į": 236,
      "İ": 237,
      "ı": 238,
      "Ĳ": 239,
      "ĳ": 240,
      "Ĵ": 241,
      "ĵ": 242,
      "Ķ": 243,
      "ķ": 244,
      "ĸ": 245,
      "Ĺ": 246,
      "ĺ": 247,
      "Ļ": 248,
      "ļ": 249,
      "Ľ": 250,
      "ľ": 251,
      "Ŀ": 252,
      "ŀ": 253,
      "Ł": 254,
      "ł": 255,
      "Ń": 256,
      "Ġd": 257,
      "Ġe": 258,
      "Ġl": 259,
      "Ġde": 260,
      "Ġa": 261,
      "er": 262,
      "Ġp": 263,
      "Ġs": 264,
      "Ġc": 265,
      "os": 266,
      "en": 267,
      "ar": 268,
      "on": 269,
      "an": 270,
      "Ã³": 271,
      "as": 272,
      "ue": 273,
      "es": 274,
      "Ġy": 275,
      "or": 276,
      "un": 277,
      "Ġm": 278,
      "ÃŃ": 279,
      "ci": 280,
      "ta": 281,
      "Ġla": 282,
      "que": 283,
      "do": 284,
      "Ġen": 285,
      "Ġun": 286,
      "Ġt": 287,
      "Ġel": 288,
      "in": 289,
      "re": 290,
      "Ġes": 291,
      "al": 292,
      "Ã¡": 293,
      "te": 294,
      "ra": 295,
      "Ġque": 296,
      "ÃŃa": 297,
      "Ġh": 298,
      "om": 299,
      "da": 300,
      "Ġn": 301,
      "ti": 302,
      "Ġsu": 303,
      "Ġv": 304,
      "Ġse": 305,
      "Ġf": 306,
      "ri": 307,
      "Ġcon": 308,
      "am": 309,
      "ol": 310,
      "ba": 311,
      "to": 312,
      "Ã³n": 313,
      "ro": 314,
      "ĠL": 315,
      "Ġdi": 316,
      "ĠE": 317,
      "Ã±": 318,
      "Ġg": 319,
      "Ã©": 320,
      "Ġal": 321,
      "il": 322,
      "Ġuna": 323,
      "ab": 324,
      "ĠS": 325,
      "ic": 326,
      "is": 327,
      "ien": 328,
      "el": 329,
      "Ġlos": 330,
      "Ġb": 331,
      "de": 332,
      "la": 333,
      "Ġpar": 334,
      "di": 335,
      "Ġcom": 336,
      "us": 337,
      "Ġdel": 338,
      "Ġre": 339,
      "ĠT": 340,
      "ciÃ³n": 341,
      "ch": 342,
      "le": 343,
      "tr": 344,
      "Ġj": 345,
      "ĠA": 346,
      "im": 347,
      "Ġo": 348,
      "Ġpor": 349,
      "uer": 350,
      "ero": 351,
      "ran": 352,
      "ente": 353,
      "ĠC": 354,
      "jo": 355,
      "ĠM": 356,
      "ig": 357,
      "taba": 358,
      "Ġin": 359,
      "dos": 360,
      "ĠP": 361,
      "Ġmu": 362,
      "Ġ1": 363,
      "Ġlas": 364,
      "Ġle": 365,
      "res": 366,
      "io": 367,
      "ca": 368,
      "ug": 369,
      "Ġno": 370,
      "lo": 371,
      "tu": 372,
      "Ġ\"": 373,
      "ia": 374,
      "cu": 375,
      "ir": 376,
      "ando": 377,
      "Ã¡s": 378,
      "Ġ(": 379,
      "Ġpara": 380,
      "ent": 381,
      "Ġcu": 382,
      "ier": 383,
      "em": 384,
      "Ġhab": 385,
      "iz": 386,
      "ac": 387,
      "qu": 388,
      "ado": 389,
      "ĠB": 390,
      "ada": 391,
      "ez": 392,
      "ĠD": 393,
      "amÃ¡": 394,
      "cion": 395,
      "co": 396,
      "dad": 397,
      "se": 398,
      "Â¡": 399,
      "go": 400,
      "aron": 401,
      "ily": 402,
      "Ġjug": 403,
      "Ġlo": 404,
      "tos": 405,
      "Ġam": 406,
      "Ã±a": 407,
      "ec": 408,
      "Ġdijo": 409,
      "ter": 410,
      "Ġdes": 411,
      "Ġni": 412,
      "ĠEs": 413,
      "Ãº": 414,
      "gu": 415,
      "cia": 416,
      "ĠEl": 417,
      "Ġpro": 418,
      "Ġpo": 419,
      "Ġto": 420,
      "ras": 421,
      "ĠmamÃ¡": 422,
      "ĠdÃŃa": 423,
      "Ã±o": 424,
      "tes": 425,
      "Ġsus": 426,
      "ad": 427,
      "bre": 428,
      "ĠmÃ¡s": 429,
      "mo": 430,
      "Ġestaba": 431,
      "tor": 432,
      "Un": 433,
      "vo": 434,
      "Ġgran": 435,
      "tÃ³": 436,
      "ĠLily": 437,
      "ĠJ": 438,
      "Ġper": 439,
      "Ġpe": 440,
      "Ġmuy": 441,
      "Ġest": 442,
      "Ġcomo": 443,
      "mente": 444,
      "Ġ19": 445,
      "bi": 446,
      "ĠN": 447,
      "Ã¡n": 448,
      "Ġvez": 449,
      "Ġesp": 450,
      "Ġr": 451,
      "Ġpa": 452,
      "ma": 453,
      "Ġson": 454,
      "Ġex": 455,
      "ĠR": 456,
      "era": 457,
      "ce": 458,
      "ĠhabÃŃa": 459,
      "Ġll": 460,
      "vi": 461,
      "eron": 462,
      "Ġan": 463,
      "tra": 464,
      "ten": 465,
      "Ġenc": 466,
      "ica": 467,
      "Ġten": 468,
      "Ġesta": 469,
      "Ġme": 470,
      "ĠSe": 471,
      "Ġas": 472,
      "gun": 473,
      "Ġpeque": 474,
      "ales": 475,
      "ul": 476,
      "Ã©n": 477,
      "Ġera": 478,
      "tar": 479,
      "ĠF": 480,
      "tas": 481,
      "Ġac": 482,
      "po": 483,
      "ĠLa": 484,
      "ara": 485,
      "Ġpero": 486,
      "Ġar": 487,
      "pi": 488,
      "Ġ2": 489,
      "ĠV": 490,
      "ver": 491,
      "Ġtan": 492,
      "den": 493,
      "ĠG": 494,
      "los": 495,
      "Ġab": 496,
      "ici": 497,
      "tal": 498,
      "Ġpre": 499,
      "Ġsi": 500,
      "Ġca": 501,
      "Ġfel": 502,
      "ĠI": 503,
      "ante": 504,
      "ÃŃan": 505,
      "ĠH": 506,
      "Ġmuch": 507,
      "Ġha": 508,
      "Ġcas": 509,
      "riÃ³": 510,
      "Ġtra": 511,
      "Ġser": 512,
      "ano": 513,
      "diÃ³": 514,
      "tro": 515,
      "Ġamig": 516,
      "ĠUn": 517,
      "pa": 518,
      "Ġqu": 519,
      "my": 520,
      "Ġfue": 521,
      "du": 522,
      "Ġsal": 523,
      "va": 524,
      "Ġso": 525,
      "Ġcam": 526,
      "ces": 527,
      "Ġhac": 528,
      "ĠÂ¡": 529,
      "!\"": 530,
      "El": 531,
      "Ġcor": 532,
      "Ã©s": 533,
      "iÃ³n": 534,
      "ciones": 535,
      "Ġnue": 536,
      "Ġllam": 537,
      "Ġent": 538,
      "Ġsin": 539,
      "Ġma": 540,
      "tam": 541,
      "um": 542,
      "ja": 543,
      "ĠLe": 544,
      "par": 545,
      "Ġjugar": 546,
      "eci": 547,
      "Ġpue": 548,
      "ris": 549,
      "Ġfuer": 550,
      "ina": 551,
      "na": 552,
      "Ġor": 553,
      "ana": 554,
      "idad": 555,
      "der": 556,
      "Ãī": 557,
      "00": 558,
      "ie": 559,
      "ĠEn": 560,
      "Ġpr": 561,
      "ico": 562,
      "ĠTim": 563,
      "Ġlle": 564,
      "das": 565,
      "ĠniÃ±a": 566,
      "ida": 567,
      "ib": 568,
      "Ġres": 569,
      "biÃ©n": 570,
      "ores": 571,
      ").": 572,
      "eg": 573,
      "por": 574,
      "uerÃŃa": 575,
      "La": 576,
      "Ġfeliz": 577,
      "ur": 578,
      "Â¿": 579,
      "tiÃ³": 580,
      "oso": 581,
      "erm": 582,
      "Ġvol": 583,
      "Ġim": 584,
      "jar": 585,
      "Ã±os": 586,
      "Ġver": 587,
      "Ġsol": 588,
      "rase": 589,
      "Ġcol": 590,
      "za": 591,
      "Ãīrase": 592,
      "ido": 593,
      "Ġman": 594,
      "Ġcar": 595,
      "\".": 596,
      "rim": 597,
      "ban": 598,
      "ieron": 599,
      "Ġgus": 600,
      "las": 601,
      "ora": 602,
      "Ġdis": 603,
      "dar": 604,
      "emp": 605,
      "iento": 606,
      "ru": 607,
      "per": 608,
      "Ġpas": 609,
      "Ġvio": 610,
      "enta": 611,
      "Ġcons": 612,
      "ĠTom": 613,
      "Ġgrande": 614,
      "ĠBen": 615,
      "pl": 616,
      "elo": 617,
      "Ġq": 618,
      "Ġencon": 619,
      "ĠpequeÃ±a": 620,
      "zÃ³": 621,
      "iÃ³": 622,
      "Es": 623,
      "yu": 624,
      "ones": 625,
      "Ġtam": 626,
      "tras": 627,
      "ĠĊ": 628,
      "ren": 629,
      "ĠTimmy": 630,
      "osa": 631,
      "Ġesc": 632,
      "ÃŃn": 633,
      "Ġhacer": 634,
      "orm": 635,
      "des": 636,
      "Ġ\"Â¡": 637,
      "pe": 638,
      "ita": 639,
      "ino": 640,
      "?\"": 641,
      "Ġcasa": 642,
      "gra": 643,
      "almente": 644,
      "tir": 645,
      "ista": 646,
      "Ġob": 647,
      "Ġayu": 648,
      "Ġem": 649,
      "Ġamigos": 650,
      "ĠtambiÃ©n": 651,
      "bol": 652,
      "lar": 653,
      "Ġpod": 654,
      "Ġro": 655,
      "pu": 656,
      "uso": 657,
      "ĠNo": 658,
      "igu": 659,
      "ens": 660,
      "tan": 661,
      "Ġcan": 662,
      "asta": 663,
      "Ãºn": 664,
      "abÃŃa": 665,
      "je": 666,
      "Ġba": 667,
      "dor": 668,
      "Ġmo": 669,
      "Ġjun": 670,
      "ÃŃs": 671,
      "lan": 672,
      "Ġtien": 673,
      "Ġco": 674,
      "ĠÃ¡": 675,
      "av": 676,
      "ĠO": 677,
      "mos": 678,
      "Ġmar": 679,
      "les": 680,
      "Ġti": 681,
      "ĠÃ©": 682,
      "Ġpregun": 683,
      "Ġsobre": 684,
      "Ġencontr": 685,
      "ĠquerÃŃa": 686,
      "ĠtenÃŃa": 687,
      "Ġap": 688,
      "Ġci": 689,
      "Ġmucho": 690,
      "Ġjugue": 691,
      "mas": 692,
      "aba": 693,
      "),": 694,
      "ĠniÃ±o": 695,
      "tura": 696,
      "Ġcomp": 697,
      "endo": 698,
      ".\"": 699,
      "Ġentre": 700,
      "iente": 701,
      "Ġprim": 702,
      "Ġcuando": 703,
      "osas": 704,
      "Ġra": 705,
      "cl": 706,
      "Ġtu": 707,
      "ble": 708,
      "Ġencan": 709,
      "Ġpap": 710,
      "ito": 711,
      "ĠestÃ¡": 712,
      "Ġi": 713,
      "En": 714,
      "uel": 715,
      "ril": 716,
      "Ġhasta": 717,
      "ombre": 718,
      "Ġcomen": 719,
      "ga": 720,
      "Ġmi": 721,
      "Ġalgo": 722,
      "Ġtodos": 723,
      "ĠSu": 724,
      "tri": 725,
      "ob": 726,
      "tros": 727,
      "Ġmis": 728,
      "fer": 729,
      "cciÃ³n": 730,
      "ven": 731,
      "onces": 732,
      "Ġespeci": 733,
      "Ġcer": 734,
      "car": 735,
      "gua": 736,
      "ĠpequeÃ±o": 737,
      "Ġdeci": 738,
      "ĠPero": 739,
      "Ġfin": 740,
      "Ġescu": 741,
      "ena": 742,
      "ub": 743,
      "entes": 744,
      "til": 745,
      "Ġte": 746,
      "Ġnuevo": 747,
      "no": 748,
      "Ġmej": 749,
      "ĠMa": 750,
      "cias": 751,
      "Ġpres": 752,
      "ĠQ": 753,
      "Ġhacia": 754,
      "Ġrep": 755,
      "Ġlleg": 756,
      "Ġdos": 757,
      "Ġparque": 758,
      "aciÃ³n": 759,
      "ĠAl": 760,
      "iendo": 761,
      "cas": 762,
      "ues": 763,
      "omb": 764,
      "eb": 765,
      "iv": 766,
      "og": 767,
      "Ġcre": 768,
      "Ġbien": 769,
      "zo": 770,
      "ios": 771,
      "ĠsonriÃ³": 772,
      "tido": 773,
      "ĠIn": 774,
      "ÃŃas": 775,
      "eces": 776,
      "con": 777,
      "amente": 778,
      "che": 779,
      "uego": 780,
      "tin": 781,
      "Ġaf": 782,
      "Ġencantaba": 783,
      "ento": 784,
      "Lily": 785,
      "pon": 786,
      "tica": 787,
      "Ġdu": 788,
      "ientras": 789,
      "Ġ18": 790,
      "tru": 791,
      "Ġemo": 792,
      "ĠsintiÃ³": 793,
      "ĠasÃŃ": 794,
      "ĠpreguntÃ³": 795,
      "encia": 796,
      "ĠaÃ±os": 797,
      "Ġtodo": 798,
      "ill": 799,
      "Ġdiver": 800,
      "ĠÂ¿": 801,
      "Ġinter": 802,
      "cho": 803,
      "ona": 804,
      "Ġespa": 805,
      "ĠÃ©l": 806,
      "rÃ³": 807,
      "ĠquÃ©": 808,
      "cos": 809,
      "ĠK": 810,
      "Ġescuch": 811,
      "id": 812,
      "ĠpodÃŃa": 813,
      "Ġir": 814,
      "ĠpÃ¡": 815,
      "Ġllamada": 816,
      "Ġtris": 817,
      "empre": 818,
      "Ġdice": 819,
      "Ġmay": 820,
      "Ġemocion": 821,
      "ĠEsta": 822,
      "ĠLos": 823,
      "jos": 824,
      "âĢ": 825,
      "puÃ©s": 826,
      "Ġna": 827,
      "Âł": 828,
      "Ġ20": 829,
      "Ġalgun": 830,
      "if": 831,
      "Ġmedi": 832,
      "ve": 833,
      "orma": 834,
      "Ġeste": 835,
      "dÃ³": 836,
      "Ġcal": 837,
      "ĠEstaba": 838,
      "Ġreg": 839,
      "Ġcosas": 840,
      "ĠpapÃ¡": 841,
      "ĠcomenzÃ³": 842,
      "ĠMar": 843,
      "Ġus": 844,
      "aban": 845,
      "Ġmon": 846,
      "Ġestaban": 847,
      "Â»": 848,
      "Â«": 849,
      "Ġdio": 850,
      "Ġgen": 851,
      "ĠY": 852,
      "adas": 853,
      "ĠÃ¡r": 854,
      "idos": 855,
      "ĠÃ¡rbol": 856,
      "Ġcab": 857,
      "Ġmejor": 858,
      "Ġpel": 859,
      "Ġella": 860,
      "tico": 861,
      "tiv": 862,
      "Ġpers": 863,
      "ÃŃo": 864,
      "ĠpÃ¡jar": 865,
      "Ġherm": 866,
      "Ġpos": 867,
      "arse": 868,
      "ĠÂ«": 869,
      "fici": 870,
      "rante": 871,
      "Ġgustaba": 872,
      "\"Â¡": 873,
      "Ġpol": 874,
      ",\"": 875,
      "ugar": 876,
      "ias": 877,
      "Ġjuntos": 878,
      "Ġbril": 879,
      "oci": 880,
      "cÃ³": 881,
      "tante": 882,
      "ros": 883,
      "me": 884,
      "ĠRe": 885,
      "Ġese": 886,
      "Ġtriste": 887,
      "Ġsiempre": 888,
      "Ġayudar": 889,
      "amos": 890,
      "Ġlugar": 891,
      "iado": 892,
      "Ġbu": 893,
      "Ġau": 894,
      "Ġestu": 895,
      "uando": 896,
      "Ġag": 897,
      "able": 898,
      "ola": 899,
      "ĠTen": 900,
      "Ġmun": 901,
      "Ġad": 902,
      "Ġimpor": 903,
      "No": 904,
      "Ġsigu": 905,
      "rÃŃa": 906,
      "Ġles": 907,
      "vir": 908,
      "Ġtom": 909,
      "Ġabra": 910,
      "Ġpi": 911,
      "irÃ³": 912,
      "Ġllamado": 913,
      "ĠAn": 914,
      "cio": 915,
      "Ġ200": 916,
      "inci": 917,
      "can": 918,
      "tado": 919,
      "ĠDes": 920,
      "gen": 921,
      "ĠCon": 922,
      "tÃ¡": 923,
      "Ġpu": 924,
      "ĠW": 925,
      "Ġestado": 926,
      "tent": 927,
      "Ġden": 928,
      "Ġparte": 929,
      "ard": 930,
      "ĠDe": 931,
      "ario": 932,
      "Ġval": 933,
      "Ã¡pi": 934,
      "ed": 935,
      "eros": 936,
      "udad": 937,
      "Ġentonces": 938,
      "eo": 939,
      "ĠEra": 940,
      "cional": 941,
      "Ġllev": 942,
      "Ġhombre": 943,
      "Ġagua": 944,
      "ĠSam": 945,
      "Ġya": 946,
      "illa": 947,
      "Ġsegu": 948,
      "Ġhaber": 949,
      "bu": 950,
      "Ġtraba": 951,
      "pres": 952,
      "Ġgra": 953,
      "Ġsolo": 954,
      "Ġtener": 955,
      "Ġespecial": 956,
      "Ġch": 957,
      "Ġperro": 958,
      "ador": 959,
      "tel": 960,
      "ĠespaÃ±": 961,
      "ados": 962,
      "Ġ3": 963,
      "it": 964,
      "ĠDi": 965,
      "onde": 966,
      "pos": 967,
      "ciÃ³": 968,
      "teri": 969,
      "Ġhis": 970,
      "19": 971,
      "ĠTo": 972,
      "Ġlib": 973,
      "Ġmal": 974,
      "icos": 975,
      "ĠAs": 976,
      "iste": 977,
      "viÃ³": 978,
      "Ġjuguetes": 979,
      "Ġpuso": 980,
      "toria": 981,
      "Qu": 982,
      "dieron": 983,
      "ices": 984,
      "Ġagra": 985,
      "Ġdesde": 986,
      "ĠrÃ¡pi": 987,
      "bar": 988,
      "aliz": 989,
      "Ġdemas": 990,
      "cog": 991,
      "Ġuno": 992,
      "izo": 993,
      "Ġanim": 994,
      "Ġprodu": 995,
      "cha": 996,
      "Ġmayor": 997,
      "Ġpoco": 998,
      "Ġfun": 999,
      "gan": 1000,
      "Ġpal": 1001,
      "ĠSan": 1002,
      "so": 1003,
      "Ġsent": 1004,
      "ea": 1005,
      "Ġotro": 1006,
      "Ġfl": 1007,
      "ack": 1008,
      "Ġpuede": 1009,
      "oc": 1010,
      "Ġfueron": 1011,
      "tur": 1012,
      "Ġcada": 1013,
      "dedor": 1014,
      "Ġciudad": 1015,
      "itar": 1016,
      "ay": 1017,
      "ing": 1018,
      "Ġdemasiado": 1019,
      "Ġincl": 1020,
      "Ġfuerte": 1021,
      "ĠCh": 1022,
      "Ġve": 1023,
      "Ġprinci": 1024,
      "iera": 1025,
      "uera": 1026,
      "ĠpÃ¡jaro": 1027,
      "Ġotros": 1028,
      "ĠCor": 1029,
      "Ġmen": 1030,
      "Ġfam": 1031,
      "tÃ¡n": 1032,
      "Ġforma": 1033,
      "Ġven": 1034,
      "Ġfelices": 1035,
      "Ġvar": 1036,
      "tieron": 1037,
      "ĠĠ": 1038,
      "Ġvuel": 1039,
      "Ġri": 1040,
      "Ġexpl": 1041,
      "Ġbus": 1042,
      "Ġinf": 1043,
      "Ġaleg": 1044,
      "ĠMax": 1045,
      "Ġalre": 1046,
      "iden": 1047,
      "Ġdonde": 1048,
      "arr": 1049,
      "Ġcuida": 1050,
      "Ġmientras": 1051,
      "Ġgri": 1052,
      "oy": 1053,
      "Ġhe": 1054,
      "trÃ³": 1055,
      "Ġter": 1056,
      "Ġalrededor": 1057,
      "uan": 1058,
      "Ġrec": 1059,
      "Ġrepente": 1060,
      "Ġsen": 1061,
      "Ġjugando": 1062,
      "Ġbo": 1063,
      "Ġcomer": 1064,
      "ĠsÃŃ": 1065,
      "Pero": 1066,
      "ĠespaÃ±ol": 1067,
      "Ġdeb": 1068,
      "unca": 1069,
      "Ġporque": 1070,
      "ĠCom": 1071,
      "Ġamigo": 1072,
      "Ġdifer": 1073,
      "Ġvis": 1074,
      "Ġdurante": 1075,
      "Ġmos": 1076,
      "jas": 1077,
      "llos": 1078,
      "icas": 1079,
      "Ġ\"Â¿": 1080,
      "quÃŃ": 1081,
      "empo": 1082,
      "ip": 1083,
      "Ġz": 1084,
      "jÃ³": 1085,
      "Ġu": 1086,
      "ĠcÃ³": 1087,
      "orar": 1088,
      "De": 1089,
      "Ã©r": 1090,
      "Ġpelo": 1091,
      "Ġescri": 1092,
      "Ġsue": 1093,
      "dio": 1094,
      "Ġencontrar": 1095,
      "laciÃ³n": 1096,
      "Ġ199": 1097,
      "Ġjuguete": 1098,
      "titu": 1099,
      "tivo": 1100,
      "van": 1101,
      "Ġtiempo": 1102,
      "Ġgusta": 1103,
      "min": 1104,
      "pio": 1105,
      "uc": 1106,
      "sa": 1107,
      "Ġru": 1108,
      "ĠPa": 1109,
      "Ġagrade": 1110,
      "iones": 1111,
      "ĠTenÃŃa": 1112,
      "onto": 1113,
      "eno": 1114,
      "man": 1115,
      "ion": 1116,
      "ĠElla": 1117,
      "Ġafuera": 1118,
      "ĊĊ": 1119,
      "anos": 1120,
      "mi": 1121,
      "Ġga": 1122,
      "Tom": 1123,
      "Ġorgu": 1124,
      "Ġbar": 1125,
      "Ġtiene": 1126,
      "Ġhizo": 1127,
      "Ġform": 1128,
      "Ġsig": 1129,
      "ĠLo": 1130,
      "Ġmismo": 1131,
      "Ġfamil": 1132,
      "gar": 1133,
      "Ġacer": 1134,
      "ĠdecidiÃ³": 1135,
      "all": 1136,
      "Ġ201": 1137,
      "mÃ¡s": 1138,
      "Ġestar": 1139,
      "ĠllegÃ³": 1140,
      "Ġcerca": 1141,
      "Ġins": 1142,
      "Ġbrill": 1143,
      "Ãºs": 1144,
      "avor": 1145,
      "Ġfr": 1146,
      "Ġtres": 1147,
      "entro": 1148,
      "eza": 1149,
      "pen": 1150,
      "ĠdÃŃas": 1151,
      "ctor": 1152,
      "entos": 1153,
      "ĠSara": 1154,
      "Ġsab": 1155,
      "Ġtran": 1156,
      "Ġfavor": 1157,
      "tis": 1158,
      "dose": 1159,
      "hora": 1160,
      "Ġta": 1161,
      "Ġmuchos": 1162,
      "Ġpelota": 1163,
      "bo": 1164,
      "he": 1165,
      "Ġpens": 1166,
      "ĠencontrÃ³": 1167,
      "Ġtodas": 1168,
      "bl": 1169,
      "vis": 1170,
      "ĠQuerÃŃa": 1171,
      "tre": 1172,
      "emos": 1173,
      "uy": 1174,
      "onas": 1175,
      "Ġcuenta": 1176,
      "ÃŃcu": 1177,
      "Ġorgullos": 1178,
      "Ġintent": 1179,
      "Ġfu": 1180,
      "qui": 1181,
      "Ġcompar": 1182,
      "dido": 1183,
      "ĠAr": 1184,
      "cep": 1185,
      "ĠestÃ¡n": 1186,
      "Ġantes": 1187,
      "Ġcual": 1188,
      "tÃ³n": 1189,
      "Ġasus": 1190,
      "HabÃŃa": 1191,
      "embre": 1192,
      "Ġol": 1193,
      "Ġapren": 1194,
      "ple": 1195,
      "Ġtar": 1196,
      "ĠLas": 1197,
      "uela": 1198,
      "ĠLes": 1199,
      "vol": 1200,
      "ĠsabÃŃa": 1201,
      "taron": 1202,
      "ton": 1203,
      "gos": 1204,
      "Ġplan": 1205,
      "Ġpoder": 1206,
      "Ġeran": 1207,
      "Ġcaja": 1208,
      "\",": 1209,
      "Ġellos": 1210,
      "ĠaÃ±o": 1211,
      "Ġbas": 1212,
      "Ġej": 1213,
      "Ġlim": 1214,
      "ĠJack": 1215,
      "ismo": 1216,
      "Ġpla": 1217,
      "Ġhi": 1218,
      "ser": 1219,
      "Ġdivir": 1220,
      "Ġpuer": 1221,
      "Ġda": 1222,
      "Ġide": 1223,
      "pren": 1224,
      "vieron": 1225,
      "ii": 1226,
      "ĠcÃ³mo": 1227,
      "lti": 1228,
      "MamÃ¡": 1229,
      "Ġpueden": 1230,
      "eta": 1231,
      "ira": 1232,
      "th": 1233,
      "and": 1234,
      "Ġgener": 1235,
      "ĠseÃ±": 1236,
      "uniden": 1237,
      "Ġbrillante": 1238,
      "ĠU": 1239,
      "ĠdespuÃ©s": 1240,
      "ĠescuchÃ³": 1241,
      "Los": 1242,
      "Ġconf": 1243,
      "Ġterm": 1244,
      "Ġtanto": 1245,
      "ĠpaÃŃs": 1246,
      "Ġsub": 1247,
      "Ġpon": 1248,
      "ĠDijo": 1249,
      "Ġanimales": 1250,
      "cre": 1251,
      "Ġneces": 1252,
      "Ġmie": 1253,
      "Ġpes": 1254,
      "vil": 1255,
      "ĠnÃº": 1256,
      "rar": 1257,
      "Ġvuelta": 1258,
      "Ġmiedo": 1259,
      "cen": 1260,
      "Ġrom": 1261,
      "Ġ198": 1262,
      "Ġcone": 1263,
      "Ġnunca": 1264,
      "Ġcontra": 1265,
      "ya": 1266,
      "Ġestadouniden": 1267,
      "demos": 1268,
      "Ġgu": 1269,
      "Ġhabita": 1270,
      "ne": 1271,
      "Ġmundo": 1272,
      "unque": 1273,
      "Ġbos": 1274,
      "Ġmuchas": 1275,
      "Ġfamilia": 1276,
      "Ġsor": 1277,
      "ĠpolÃŃ": 1278,
      "Ġrecog": 1279,
      "ĠTodos": 1280,
      "Ġrespon": 1281,
      "Ġ4": 1282,
      "ĠMamÃ¡": 1283,
      "Ġdentro": 1284,
      "zar": 1285,
      "Ġgru": 1286,
      "ich": 1287,
      "ila": 1288,
      "iciÃ³n": 1289,
      "ocu": 1290,
      "rieron": 1291,
      "tiva": 1292,
      "Ġtuvo": 1293,
      "Ġcielo": 1294,
      "tiliz": 1295,
      "vers": 1296,
      "cial": 1297,
      "lÃŃ": 1298,
      "ima": 1299,
      "Ġhistoria": 1300,
      "zaron": 1301,
      "Ġprimer": 1302,
      "cur": 1303,
      "Ġalgunos": 1304,
      "Ġoso": 1305,
      "Se": 1306,
      "Su": 1307,
      "Des": 1308,
      "tando": 1309,
      "Ġjard": 1310,
      "Ġesper": 1311,
      "nos": 1312,
      "ticas": 1313,
      "Ġ5": 1314,
      "Ġcamin": 1315,
      "Ġayuda": 1316,
      "fec": 1317,
      "Ġvi": 1318,
      "Ġnombre": 1319,
      "ĠCar": 1320,
      "ote": 1321,
      "Ġnuev": 1322,
      "ud": 1323,
      "Ġlar": 1324,
      "Ġbosque": 1325,
      "Ġprincip": 1326,
      "cil": 1327,
      "Ġbon": 1328,
      "ambiÃ©n": 1329,
      "Ġsuper": 1330,
      "ĠMe": 1331,
      "ĠÃº": 1332,
      "ciendo": 1333,
      "Ġconoci": 1334,
      "SÃŃ": 1335,
      "ĠPar": 1336,
      "alle": 1337,
      "Ġatra": 1338,
      "rica": 1339,
      "ĠAna": 1340,
      "miento": 1341,
      "Ġtermin": 1342,
      "edad": 1343,
      "Ġsido": 1344,
      "Ġ197": 1345,
      "Ġhecho": 1346,
      "ĠhabitaciÃ³n": 1347,
      "Ġviv": 1348,
      "bos": 1349,
      "vel": 1350,
      "jeron": 1351,
      "Ġimportante": 1352,
      "ĠjardÃŃn": 1353,
      "Ġutiliz": 1354,
      "segu": 1355,
      "tbol": 1356,
      "Ġmor": 1357,
      "alidad": 1358,
      "Ġmano": 1359,
      "ome": 1360,
      "Ġtras": 1361,
      "ern": 1362,
      "ĠâĢ": 1363,
      "illo": 1364,
      "QuÃ©": 1365,
      "Ġeno": 1366,
      "Ġestadounidense": 1367,
      "Ġtor": 1368,
      "Ġalgunas": 1369,
      "arrol": 1370,
      "Ġreci": 1371,
      "ĠSal": 1372,
      "biÃ³": 1373,
      "iso": 1374,
      "ĠAsÃŃ": 1375,
      "ĠsentÃŃa": 1376,
      "ves": 1377,
      "ientos": 1378,
      "rÃ¡": 1379,
      "Ġcuidado": 1380,
      "dia": 1381,
      "ĠmirÃ³": 1382,
      "Ġlu": 1383,
      "ĠSon": 1384,
      "Ġamable": 1385,
      "ĠvolviÃ³": 1386,
      "Ġanti": 1387,
      "Ġcin": 1388,
      "Ġluego": 1389,
      "Ġencu": 1390,
      "siÃ³n": 1391,
      "ĠFran": 1392,
      "trar": 1393,
      "rÃŃ": 1394,
      "uro": 1395,
      "oma": 1396,
      "Ġdar": 1397,
      "Ġprimera": 1398,
      "ĠniÃ±os": 1399,
      "uerra": 1400,
      "Ġsiste": 1401,
      "ĠCuando": 1402,
      "ĠVio": 1403,
      "pues": 1404,
      "cer": 1405,
      "unto": 1406,
      "Ġapar": 1407,
      "tener": 1408,
      "Ġmom": 1409,
      "Ġvolver": 1410,
      "Ġtrans": 1411,
      "Cuando": 1412,
      "Ġref": 1413,
      "ĠPor": 1414,
      "antes": 1415,
      "Ġconstru": 1416,
      "Ġactu": 1417,
      "ber": 1418,
      "Ġdesarrol": 1419,
      "ĠNa": 1420,
      "ĠnÃºm": 1421,
      "Ġtoda": 1422,
      "olog": 1423,
      "Ġvo": 1424,
      "ĠMan": 1425,
      "ducciÃ³n": 1426,
      "Ġgrandes": 1427,
      "Ġsim": 1428,
      "Ġpin": 1429,
      "ĠmÃ¡": 1430,
      "Ġobser": 1431,
      "Ġbajo": 1432,
      "Ġcl": 1433,
      "icaciÃ³n": 1434,
      "terior": 1435,
      "Ġpartir": 1436,
      "bajo": 1437,
      "tales": 1438,
      "Ġtienen": 1439,
      "Ġcul": 1440,
      "rig": 1441,
      "Ġoc": 1442,
      "Ġcoche": 1443,
      "Ġcuer": 1444,
      "pul": 1445,
      "lu": 1446,
      "Ġgato": 1447,
      "ierra": 1448,
      "ice": 1449,
      "ĠJuan": 1450,
      "Ġdivertido": 1451,
      "olÃ³": 1452,
      "Ġparti": 1453,
      "Al": 1454,
      "Ġaven": 1455,
      "Ġis": 1456,
      "Ãºbl": 1457,
      "Ġotra": 1458,
      "Ġotras": 1459,
      "ĠTambiÃ©n": 1460,
      "tantes": 1461,
      "Ã¡l": 1462,
      "ĠAm": 1463,
      "ĠmuÃ±": 1464,
      "zÃ³n": 1465,
      "pera": 1466,
      "inas": 1467,
      "rado": 1468,
      "Ġenf": 1469,
      "ĠrÃ¡pido": 1470,
      "Ġ15": 1471,
      "cri": 1472,
      "esta": 1473,
      "Ġidea": 1474,
      "ques": 1475,
      "Ġ-": 1476,
      "ĠÃ": 1477,
      "Ġembar": 1478,
      "omin": 1479,
      "Ġ17": 1480,
      "adre": 1481,
      "ĠJo": 1482,
      "iero": 1483,
      "Ġpob": 1484,
      "Ġbol": 1485,
      "ĠPo": 1486,
      "Ġaz": 1487,
      "Ġalto": 1488,
      "ientes": 1489,
      "ĠZ": 1490,
      "Ġestre": 1491,
      "Ġsa": 1492,
      "Ġfran": 1493,
      "omo": 1494,
      "ĠTien": 1495,
      "tuvo": 1496,
      "reg": 1497,
      "Ġgob": 1498,
      "Ġpersonas": 1499,
      "Ġdelici": 1500,
      "pec": 1501,
      "Ġdef": 1502,
      "gÃºn": 1503,
      "Ġorig": 1504,
      "Ġhan": 1505,
      "Ġsuelo": 1506,
      "ierno": 1507,
      "damente": 1508,
      "Ġbuen": 1509,
      "cul": 1510,
      "ial": 1511,
      "Ġ196": 1512,
      "Ġrela": 1513,
      "Ġrealiz": 1514,
      "Ġgan": 1515,
      "Por": 1516,
      "ny": 1517,
      "cina": 1518,
      "Ġpuerta": 1519,
      "Ġ6": 1520,
      "Ġmomento": 1521,
      "ĠMia": 1522,
      "turas": 1523,
      "ĠallÃŃ": 1524,
      "Ġban": 1525,
      "oteo": 1526,
      "Ġeso": 1527,
      "ĠcorriÃ³": 1528,
      "Ġmil": 1529,
      "ĠÃºlti": 1530,
      "Ġveces": 1531,
      "tran": 1532,
      "racias": 1533,
      "ĠmÃºs": 1534,
      "ala": 1535,
      "Ġhay": 1536,
      "Ġpudo": 1537,
      "tim": 1538,
      "Ġli": 1539,
      "Ġtel": 1540,
      "ĠaÃºn": 1541,
      "Ġpronto": 1542,
      "riendo": 1543,
      "Ġsuav": 1544,
      "Ġdire": 1545,
      "Ġmin": 1546,
      "tivos": 1547,
      "Ġtrabajo": 1548,
      "ag": 1549,
      "Ġesto": 1550,
      "Ġcontin": 1551,
      "Pue": 1552,
      "Ġnueva": 1553,
      "Ġcel": 1554,
      "tien": 1555,
      "ĠQu": 1556,
      "Ġtarde": 1557,
      "tonces": 1558,
      "tada": 1559,
      "paÃ±a": 1560,
      "bido": 1561,
      "Ġprof": 1562,
      "Ġmuer": 1563,
      "Ġpreocu": 1564,
      "ĠSus": 1565,
      "Ġrecor": 1566,
      "arlo": 1567,
      "taciÃ³n": 1568,
      "Ġhum": 1569,
      "rero": 1570,
      "Ġembargo": 1571,
      "ĠJos": 1572,
      "Ġcomple": 1573,
      "ticos": 1574,
      "demÃ¡s": 1575,
      "Ġmes": 1576,
      "ologÃŃa": 1577,
      "vin": 1578,
      "Ġnada": 1579,
      "ĠrespondiÃ³": 1580,
      "ge": 1581,
      "Ġos": 1582,
      "Ġelec": 1583,
      "EstÃ¡": 1584,
      "Ġfinal": 1585,
      "Ġextra": 1586,
      "ior": 1587,
      "Ġfuera": 1588,
      "tera": 1589,
      "immy": 1590,
      "cto": 1591,
      "yo": 1592,
      "ĠagradeciÃ³": 1593,
      "quier": 1594,
      "Ġlan": 1595,
      "Ġvida": 1596,
      "amiento": 1597,
      "Ġruido": 1598,
      "ilidad": 1599,
      "Ġ194": 1600,
      "Ġexplorar": 1601,
      "jer": 1602,
      "olÃ³g": 1603,
      "Ġvaliente": 1604,
      "Ġvieron": 1605,
      "Ġrepres": 1606,
      "tural": 1607,
      "Ġpapel": 1608,
      "Ġind": 1609,
      "ĠAb": 1610,
      "ĠFin": 1611,
      "uerÃŃan": 1612,
      "Ġcos": 1613,
      "tamente": 1614,
      "Ġdibu": 1615,
      "Ġemocionada": 1616,
      "Ġdisf": 1617,
      "ĠEstados": 1618,
      "Ã³m": 1619,
      "cado": 1620,
      "orte": 1621,
      "ilo": 1622,
      "ĠsaliÃ³": 1623,
      "Ġho": 1624,
      "Ġquien": 1625,
      "ĠpensÃ³": 1626,
      "ĠDesde": 1627,
      "fÃŃa": 1628,
      "torio": 1629,
      "Ġcabeza": 1630,
      "Ġmas": 1631,
      "Ben": 1632,
      "Ġdiferentes": 1633,
      "pios": 1634,
      "ivers": 1635,
      "Ġdec": 1636,
      "emplo": 1637,
      "Ġtem": 1638,
      "eja": 1639,
      "Ġpie": 1640,
      "Ġcomun": 1641,
      "Ġaunque": 1642,
      "et": 1643,
      "icÃ³": 1644,
      "var": 1645,
      "uerdo": 1646,
      "Ġsur": 1647,
      "rer": 1648,
      "ĠUnidos": 1649,
      "Ġof": 1650,
      "Ġhici": 1651,
      "dir": 1652,
      "tados": 1653,
      "Ġcompartir": 1654,
      "ĠSi": 1655,
      "ible": 1656,
      "ĠLuc": 1657,
      "Ġk": 1658,
      "ares": 1659,
      "ĠSin": 1660,
      "Ġorgan": 1661,
      "Ġsac": 1662,
      "Ġneg": 1663,
      "Ã¡m": 1664,
      "Ġ7": 1665,
      "vÃŃa": 1666,
      "ura": 1667,
      "ap": 1668,
      "ron": 1669,
      "Ġsegun": 1670,
      "pez": 1671,
      "Ġestrel": 1672,
      "Ġemocionado": 1673,
      "trÃ¡s": 1674,
      "atro": 1675,
      "Ġmanera": 1676,
      "adores": 1677,
      "Ġflores": 1678,
      "000": 1679,
      "Ġhaciendo": 1680,
      "Ġsiendo": 1681,
      "Ġ195": 1682,
      "\"Â¿": 1683,
      "Ġcolor": 1684,
      "Ġher": 1685,
      "ĠTimoteo": 1686,
      "vÃ©s": 1687,
      "Ġquier": 1688,
      "ĠEm": 1689,
      "20": 1690,
      "ĠhabÃŃan": 1691,
      "Ġ16": 1692,
      "Ġunos": 1693,
      "istas": 1694,
      "Ġparec": 1695,
      "Ġing": 1696,
      "ubl": 1697,
      "teg": 1698,
      "Ġencontra": 1699,
      "Ġfutbol": 1700,
      "chas": 1701,
      "Ġcuri": 1702,
      "Ġlibro": 1703,
      "Ġsistema": 1704,
      "Ã©ndose": 1705,
      "orro": 1706,
      "ĠabrazÃ³": 1707,
      "ĠllevÃ³": 1708,
      "Ġcomida": 1709,
      "AquÃŃ": 1710,
      "Ġpl": 1711,
      "Ġtal": 1712,
      "ĠtravÃ©s": 1713,
      "ĠtraducciÃ³n": 1714,
      "Ġlado": 1715,
      "isten": 1716,
      "zas": 1717,
      "Ġne": 1718,
      "cido": 1719,
      "cidad": 1720,
      "dida": 1721,
      "Ġ8": 1722,
      "Ġpueb": 1723,
      "Ġvoz": 1724,
      "Lo": 1725,
      "Ġhor": 1726,
      "ider": 1727,
      "Ġgol": 1728,
      "Ġtienda": 1729,
      "Ġojos": 1730,
      "Ġ193": 1731,
      "Ġfutbolista": 1732,
      "tores": 1733,
      "ĠquedÃ³": 1734,
      "lig": 1735,
      "erg": 1736,
      "ĠnÃºmero": 1737,
      "entra": 1738,
      "Ġhace": 1739,
      "rag": 1740,
      "yÃ³": 1741,
      "ÃŃf": 1742,
      "Ġtipo": 1743,
      "Ġazul": 1744,
      "Ġdif": 1745,
      "vidad": 1746,
      "Ġorden": 1747,
      "Ġrey": 1748,
      "Â».": 1749,
      "ĠsiguiÃ³": 1750,
      "Ġsiguiente": 1751,
      "ire": 1752,
      "ĠpelÃŃcu": 1753,
      "udo": 1754,
      "Ġvia": 1755,
      "dÃŃa": 1756,
      "Ġbal": 1757,
      "ĠLuego": 1758,
      "Ġmisma": 1759,
      "Ã©c": 1760,
      "Ġahora": 1761,
      "zos": 1762,
      "tio": 1763,
      "Ġedi": 1764,
      "ine": 1765,
      "Ġsentir": 1766,
      "Ġnues": 1767,
      "Gracias": 1768,
      "jado": 1769,
      "Ġagu": 1770,
      "Ã©l": 1771,
      "Ġloc": 1772,
      "erÃŃa": 1773,
      "idente": 1774,
      "Ġdivirtieron": 1775,
      "Ġpan": 1776,
      "ĠCa": 1777,
      "ÃŃr": 1778,
      "pÃ³": 1779,
      "cios": 1780,
      "ĠacercÃ³": 1781,
      "via": 1782,
      "anas": 1783,
      "iano": 1784,
      "Ġacuerdo": 1785,
      "ĠrÃŃo": 1786,
      "As": 1787,
      "Ġalcan": 1788,
      "ĠÃī": 1789,
      "jero": 1790,
      "ef": 1791,
      "ĠAle": 1792,
      "Ġdijeron": 1793,
      "Ġva": 1794,
      "Ġescon": 1795,
      "itas": 1796,
      "Ġpubl": 1797,
      "Ġfi": 1798,
      "cle": 1799,
      "ĠBob": 1800,
      "Ġdescu": 1801,
      "Ġcolores": 1802,
      "ĠJosÃ©": 1803,
      "dr": 1804,
      "nif": 1805,
      "Ġves": 1806,
      "Ġconsider": 1807,
      "Ġblo": 1808,
      "Ġasin": 1809,
      "Ġpalab": 1810,
      "Ġincluso": 1811,
      "Ġpastel": 1812,
      "ly": 1813,
      "Vamos": 1814,
      "Ġmir": 1815,
      "Ã¡r": 1816,
      "Ġconten": 1817,
      "rir": 1818,
      "pas": 1819,
      "Ġlen": 1820,
      "ĠpidiÃ³": 1821,
      "gent": 1822,
      "ĠmuÃ±e": 1823,
      "Ġdul": 1824,
      "Ġgrupo": 1825,
      "be": 1826,
      "Ġusar": 1827,
      "lado": 1828,
      "ĠdÃ©": 1829,
      "ĠmÃ©": 1830,
      "Ġlargo": 1831,
      "ile": 1832,
      "truc": 1833,
      "paÃ±": 1834,
      "Ġiba": 1835,
      "entar": 1836,
      "imo": 1837,
      "Ġhora": 1838,
      "Ġ10": 1839,
      "tral": 1840,
      "Ġcolum": 1841,
      "Ġlejos": 1842,
      "oro": 1843,
      "chos": 1844,
      "Ġresul": 1845,
      "Ġdisfru": 1846,
      "Ġcorriendo": 1847,
      "Ġpues": 1848,
      "18": 1849,
      "ĠpoblaciÃ³n": 1850,
      "Ġcamino": 1851,
      "cular": 1852,
      "Ġfuerza": 1853,
      "Ġtri": 1854,
      "men": 1855,
      "icado": 1856,
      "Ġclas": 1857,
      "ĠBa": 1858,
      "ord": 1859,
      "Ġestos": 1860,
      "Ġpermi": 1861,
      "una": 1862,
      "ĠGu": 1863,
      "Ġobje": 1864,
      "izaciÃ³n": 1865,
      "ĠrÃ¡pidamente": 1866,
      "ĠCas": 1867,
      "Ġpajar": 1868,
      "Ġtomar": 1869,
      "presa": 1870,
      "Ġmanos": 1871,
      "Ġjunto": 1872,
      "tem": 1873,
      "Ġmol": 1874,
      "emb": 1875,
      "ĠÃºn": 1876,
      "ĠPer": 1877,
      "ĠSol": 1878,
      "ĠPue": 1879,
      "Ġproble": 1880,
      "Ġ,": 1881,
      "tad": 1882,
      "Ġ9": 1883,
      "Ġjuego": 1884,
      "ĠCada": 1885,
      "Ġejemplo": 1886,
      "ĠFue": 1887,
      "Ġorgullosa": 1888,
      "ell": 1889,
      "pia": 1890,
      "Ġestable": 1891,
      "ela": 1892,
      "Ġcorrer": 1893,
      "Ġcontinu": 1894,
      "II": 1895,
      "Ġsalvo": 1896,
      "ĠgritÃ³": 1897,
      "Ġsignif": 1898,
      "eciÃ³": 1899,
      "Ġamiga": 1900,
      "Hola": 1901,
      "vier": 1902,
      "Ġfil": 1903,
      "usto": 1904,
      "Ġsuave": 1905,
      "ĠTe": 1906,
      "Ġbuscar": 1907,
      "alo": 1908,
      "jes": 1909,
      "Ġgente": 1910,
      "Ġgeneral": 1911,
      "ist": 1912,
      "Ġpartes": 1913,
      "Ġinten": 1914,
      "Ġequi": 1915,
      "Ġapro": 1916,
      "ĠhacÃŃa": 1917,
      "fo": 1918,
      "Ġblan": 1919,
      "Ġflor": 1920,
      "Ġestan": 1921,
      "Ġsep": 1922,
      "pital": 1923,
      "Ġterri": 1924,
      "viera": 1925,
      "tividad": 1926,
      "acter": 1927,
      "Ġpajarito": 1928,
      "ĠX": 1929,
      "cando": 1930,
      "Ġcondu": 1931,
      "ĠintentÃ³": 1932,
      "Ġpersona": 1933,
      "Ġnoche": 1934,
      "Ġdecir": 1935,
      "ables": 1936,
      "Ġcorre": 1937,
      "ĠEste": 1938,
      "idades": 1939,
      "Ã¡c": 1940,
      "Ġsiento": 1941,
      "Ġcama": 1942,
      "tribu": 1943,
      "Ġlevan": 1944,
      "ono": 1945,
      "DespuÃ©s": 1946,
      "ĠRo": 1947,
      "gi": 1948,
      "uciÃ³n": 1949,
      "ĠcamiÃ³n": 1950,
      "gas": 1951,
      "Fin": 1952,
      "ĠEspaÃ±a": 1953,
      "ĠveÃŃa": 1954,
      "ilar": 1955,
      "raba": 1956,
      "Las": 1957,
      "bas": 1958,
      "Ġmenos": 1959,
      "Ġamar": 1960,
      "terna": 1961,
      "ĠĠĠĠ": 1962,
      "Ġecon": 1963,
      "AsÃŃ": 1964,
      "Ġmunici": 1965,
      "Ġocu": 1966,
      "Ġabuela": 1967,
      "Ġolvi": 1968,
      "Ġcum": 1969,
      "ĠLu": 1970,
      "Ġfinalmente": 1971,
      "Timmy": 1972,
      "Ġguerra": 1973,
      "Ġsomb": 1974,
      "tillo": 1975,
      "ÃŃm": 1976,
      "visiÃ³n": 1977,
      "iiii": 1978,
      "ustri": 1979,
      "ĠabriÃ³": 1980,
      "ĠmÃºsica": 1981,
      "Ġpueblo": 1982,
      "Ã±as": 1983,
      "igo": 1984,
      "ĠÃīl": 1985,
      "ĠtenÃŃan": 1986,
      "ĠÃģ": 1987,
      "idas": 1988,
      "ĠCam": 1989,
      "ts": 1990,
      "Ġ192": 1991,
      "ke": 1992,
      "ritÃ¡n": 1993,
      "Ġnar": 1994,
      "cimiento": 1995,
      "icar": 1996,
      "ĠIs": 1997,
      "Ġder": 1998,
      "Ġproces": 1999,
      "Ġrecon": 2000,
      "ĠaquÃŃ": 2001,
      "ula": 2002,
      "Ġmantener": 2003,
      "Ġdescub": 2004,
      "fa": 2005,
      "Ġauto": 2006,
      "Ġpreocup": 2007,
      "pre": 2008,
      "Mira": 2009,
      "ueva": 2010,
      "Ġmill": 2011,
      "ign": 2012,
      "Ġhoy": 2013,
      "imiento": 2014,
      "ĠMarÃŃa": 2015,
      "Ġestudi": 2016,
      "Ġjue": 2017,
      "Ġgobierno": 2018,
      "dial": 2019,
      "Ġmujer": 2020,
      "usa": 2021,
      "Ġpuedes": 2022,
      "Ã¼": 2023,
      "Ġofici": 2024,
      "iza": 2025,
      "Ġcocina": 2026,
      "ulio": 2027,
      "gel": 2028,
      "Ġbeb": 2029,
      "cel": 2030,
      "Ġcen": 2031,
      "laba": 2032,
      "ĠCol": 2033,
      "Ġsorpren": 2034,
      "ĠmostrÃ³": 2035,
      "rio": 2036,
      "risa": 2037,
      "Ġconejo": 2038,
      "depen": 2039,
      "Ġvie": 2040,
      "ĠCo": 2041,
      "Ã¡ndose": 2042,
      "ĠVen": 2043,
      "Ġmer": 2044,
      "Ġcris": 2045,
      "Ġfo": 2046,
      "Ġllegaron": 2047,
      "ĠdetrÃ¡s": 2048,
      "Ġrojo": 2049,
      "ĠEstaban": 2050,
      "Ġsan": 2051,
      "itos": 2052,
      "Ana": 2053,
      "Ġtocar": 2054,
      "Ġdesa": 2055,
      "lau": 2056,
      "Ġtro": 2057,
      "Ġdere": 2058,
      "Ġmus": 2059,
      "Ġpied": 2060,
      "ĠpelÃŃcula": 2061,
      "Sara": 2062,
      "Ġcier": 2063,
      "ĠMirÃ³": 2064,
      "ĠasintiÃ³": 2065,
      "Ġdin": 2066,
      "Ġexten": 2067,
      "son": 2068,
      "rÃ¡f": 2069,
      "adres": 2070,
      "Ġprovin": 2071,
      "Ġsos": 2072,
      "Ġinici": 2073,
      "pan": 2074,
      "ĠDa": 2075,
      "Ġcontr": 2076,
      "dencia": 2077,
      "cada": 2078,
      "ĠpodrÃŃa": 2079,
      "Ġcaracter": 2080,
      "Ġdistin": 2081,
      "Ġpresidente": 2082,
      "tidad": 2083,
      "ĠPens": 2084,
      "Ġincluy": 2085,
      "ĠÃ³": 2086,
      "isa": 2087,
      "..": 2088,
      "arios": 2089,
      "ck": 2090,
      "Ġlimpi": 2091,
      "ĠriÃ³": 2092,
      "ĠbritÃ¡n": 2093,
      "ĠPro": 2094,
      "Ġhicieron": 2095,
      "arÃŃa": 2096,
      "Ġvisto": 2097,
      "Puedo": 2098,
      "Ġmalo": 2099,
      "Ġhel": 2100,
      "ĠDespuÃ©s": 2101,
      "Ġconvir": 2102,
      "Ġobra": 2103,
      "ĠBar": 2104,
      "sos": 2105,
      "Ġesa": 2106,
      "Ġtierra": 2107,
      "ĠEuro": 2108,
      "seÃ±": 2109,
      "Ġcampo": 2110,
      "Ġmedio": 2111,
      "tom": 2112,
      "ĠHabÃŃa": 2113,
      "Ġnatural": 2114,
      "yec": 2115,
      "aria": 2116,
      "Ġcuatro": 2117,
      "Ġanci": 2118,
      "Ġtob": 2119,
      "Po": 2120,
      "inaciÃ³n": 2121,
      "ensa": 2122,
      "riba": 2123,
      "Ġnuevas": 2124,
      "lam": 2125,
      "Ġmejores": 2126,
      "Ġgalle": 2127,
      "die": 2128,
      "Ġestuvo": 2129,
      "Ġsitu": 2130,
      "grafÃŃa": 2131,
      "Ġaventura": 2132,
      "dado": 2133,
      "Ġbarco": 2134,
      "Ġtobog": 2135,
      "ĠpÃ¡jaros": 2136,
      "ĠCan": 2137,
      "urante": 2138,
      "Ġpadres": 2139,
      "triz": 2140,
      "inos": 2141,
      "Ġhermoso": 2142,
      "terra": 2143,
      "Ġponer": 2144,
      "illas": 2145,
      "ĠmuÃ±eca": 2146,
      "tion": 2147,
      "Ġpunto": 2148,
      "ĠDice": 2149,
      "ĠLucÃŃa": 2150,
      "ow": 2151,
      "cÃ©s": 2152,
      "Ġ14": 2153,
      "cionales": 2154,
      "ĠalegrÃ³": 2155,
      "Ãºblica": 2156,
      "Era": 2157,
      "cis": 2158,
      "tancia": 2159,
      "caba": 2160,
      "ĠtÃ©r": 2161,
      "Ġcuidados": 2162,
      "pol": 2163,
      "zado": 2164,
      "Ġantigu": 2165,
      "Ġoscu": 2166,
      "Ġvolar": 2167,
      "ĠvivÃŃa": 2168,
      "Ġdebido": 2169,
      "Ġquedar": 2170,
      "untos": 2171,
      "ĠtomÃ³": 2172,
      "zan": 2173,
      "encias": 2174,
      "Ġtemp": 2175,
      "Ġmillones": 2176,
      "Ġarreg": 2177,
      "Ġdesta": 2178,
      "ami": 2179,
      "Ġnuevos": 2180,
      "ĠquerÃŃan": 2181,
      "rea": 2182,
      "ĠlÃŃ": 2183,
      "Ġservi": 2184,
      "Ġsuce": 2185,
      "dan": 2186,
      "ĠApren": 2187,
      "Ġapo": 2188,
      "ĠGran": 2189,
      "val": 2190,
      "ĠCorriÃ³": 2191,
      "hn": 2192,
      "Ġdejar": 2193,
      "ĠmayorÃŃa": 2194,
      "Ġaire": 2195,
      "Ġobserv": 2196,
      "Ġfal": 2197,
      "Ġluz": 2198,
      "Ġvarios": 2199,
      "ĠdejÃ³": 2200,
      "ece": 2201,
      "Ġestas": 2202,
      "cin": 2203,
      "ĠpolÃŃtico": 2204,
      "Ġuso": 2205,
      "ĠEsto": 2206,
      "ram": 2207,
      "taban": 2208,
      "Ġasegu": 2209,
      "Ġprofun": 2210,
      "Ġprimero": 2211,
      "Ġalta": 2212,
      "Ġlog": 2213,
      "Ġceleb": 2214,
      "Ġnav": 2215,
      "Ġvent": 2216,
      "ĠEx": 2217,
      "Ġencuentra": 2218,
      "Ġigu": 2219,
      "Ġefec": 2220,
      "Ġcans": 2221,
      "ĠMun": 2222,
      "ĠMientras": 2223,
      "ĠDeci": 2224,
      "dy": 2225,
      "bio": 2226,
      "ĠdemÃ¡s": 2227,
      "Ġasomb": 2228,
      "Ġnivel": 2229,
      "raciÃ³n": 2230,
      "olly": 2231,
      "istra": 2232,
      "Ġesti": 2233,
      "gon": 2234,
      "Ġgracias": 2235,
      "elos": 2236,
      "Ġ12": 2237,
      "Ġcosa": 2238,
      "ĠtobogÃ¡n": 2239,
      "Ġnorte": 2240,
      "Ġllorar": 2241,
      "cal": 2242,
      "Ġesperar": 2243,
      "Ġlengua": 2244,
      "ĠSa": 2245,
      "ciales": 2246,
      "Ġdespi": 2247,
      "ĠlÃŃn": 2248,
      "ĠcÃ¡l": 2249,
      "Ġsalir": 2250,
      "Ġred": 2251,
      "Ġconej": 2252,
      "Ġmuerte": 2253,
      "Ġhojas": 2254,
      "tiendo": 2255,
      "Ġmov": 2256,
      "Ġcien": 2257,
      "Ġhabi": 2258,
      "Ġtradi": 2259,
      "Ġboca": 2260,
      "Ġcaso": 2261,
      "ual": 2262,
      "Ġelem": 2263,
      "tiÃ©ndose": 2264,
      "Ġeleg": 2265,
      "Ġrato": 2266,
      "ĠSo": 2267,
      "ĠEstÃ¡": 2268,
      "Ġalem": 2269,
      "Ġenferm": 2270,
      "Ġpri": 2271,
      "col": 2272,
      "Ġmilitar": 2273,
      "Ã³lo": 2274,
      "ĠMon": 2275,
      "Ġvino": 2276,
      "Ġmarip": 2277,
      "ĠnotÃ³": 2278,
      "tina": 2279,
      "Ġorigin": 2280,
      "ĠÃ¡rboles": 2281,
      "Ã¡ndo": 2282,
      "Ã³nde": 2283,
      "Ġarriba": 2284,
      "Ġdorm": 2285,
      "Ġtotal": 2286,
      "ĠpodÃŃan": 2287,
      "dic": 2288,
      "Ġquiero": 2289,
      "Ġambos": 2290,
      "tamiento": 2291,
      "Ġdese": 2292,
      "Ġmadre": 2293,
      "Ġguar": 2294,
      "Ġbuena": 2295,
      "Ġorgulloso": 2296,
      "Ġtur": 2297,
      "Ġconj": 2298,
      "rando": 2299,
      "Â»,": 2300,
      "tivas": 2301,
      "ĠUna": 2302,
      "Ġpopul": 2303,
      "ĠvolÃ³": 2304,
      "Ġley": 2305,
      "ĠEntonces": 2306,
      "ĠserÃŃa": 2307,
      "Ġdefin": 2308,
      "ĠMÃ©": 2309,
      "ĠThe": 2310,
      "Mientras": 2311,
      "Ġllevar": 2312,
      "Ġpul": 2313,
      "cesa": 2314,
      "Ġtes": 2315,
      "gn": 2316,
      "ĠmaÃ±": 2317,
      "Ġcualquier": 2318,
      "bir": 2319,
      "ĠsegÃºn": 2320,
      "Ġmucha": 2321,
      "Ġprome": 2322,
      "Ġcru": 2323,
      "Ġespec": 2324,
      "vas": 2325,
      "Ġcaminando": 2326,
      "Ġcomenzaron": 2327,
      "orme": 2328,
      "Me": 2329,
      "Ġhub": 2330,
      "Ġnad": 2331,
      "este": 2332,
      "Ġpropi": 2333,
      "Ġregres": 2334,
      "Ġjulio": 2335,
      "orÃŃa": 2336,
      "tubre": 2337,
      "ĠJu": 2338,
      "ĠÃ©po": 2339,
      "Ġsignifica": 2340,
      "vaba": 2341,
      "ĠMo": 2342,
      "Ġenero": 2343,
      "ha": 2344,
      "Ġsil": 2345,
      "tif": 2346,
      "Ġ191": 2347,
      "tÃŃn": 2348,
      "Ġestruc": 2349,
      "Ġviento": 2350,
      "Ġestanque": 2351,
      "Ġmayo": 2352,
      "Ġlastim": 2353,
      "Ġfunda": 2354,
      "ĠaprendiÃ³": 2355,
      "bles": 2356,
      "Ã©rica": 2357,
      "Ġsonrisa": 2358,
      "hi": 2359,
      "Ġlibros": 2360,
      "Ġ190": 2361,
      "Ġperten": 2362,
      "Ġperfec": 2363,
      "Ġdici": 2364,
      "ĠmaÃ±ana": 2365,
      "ello": 2366,
      "ciden": 2367,
      "ĠEres": 2368,
      "tiembre": 2369,
      "ĠsaltÃ³": 2370,
      "pÃ¡": 2371,
      "Ġcasi": 2372,
      "ĠademÃ¡s": 2373,
      "ombres": 2374,
      "cito": 2375,
      "Ġnecesi": 2376,
      "Ġlin": 2377,
      "Ġbloques": 2378,
      "Ġavi": 2379,
      "ĠfrancÃ©s": 2380,
      "jaron": 2381,
      "Ġincre": 2382,
      "edro": 2383,
      "tud": 2384,
      "Ġmod": 2385,
      "Ġzona": 2386,
      "Ġevi": 2387,
      "Ġsem": 2388,
      "ĠEstÃ¡n": 2389,
      "anza": 2390,
      "Ġdirig": 2391,
      "Ġ13": 2392,
      "Ġhermano": 2393,
      "Ġdebajo": 2394,
      "Ġformas": 2395,
      "Ġpatio": 2396,
      "Ġfe": 2397,
      "Ġrieron": 2398,
      "Ġcub": 2399,
      "Ġperio": 2400,
      "Ġconejito": 2401,
      "Ġcapa": 2402,
      "stru": 2403,
      "ĠPe": 2404,
      "Ġpodemos": 2405,
      "Ġsaltar": 2406,
      "osto": 2407,
      "Ġvestido": 2408,
      "Ġactor": 2409,
      "Ġmarzo": 2410,
      "Ġran": 2411,
      "Ġindepen": 2412,
      "lor": 2413,
      "Ġale": 2414,
      "Ġempez": 2415,
      "Ġcentro": 2416,
      "Ġisla": 2417,
      "ctos": 2418,
      "mar": 2419,
      "orden": 2420,
      "lesia": 2421,
      "Ġbra": 2422,
      "osos": 2423,
      "Ġcomprar": 2424,
      "Ġoctubre": 2425,
      "ĠPr": 2426,
      "daron": 2427,
      "Ġenerg": 2428,
      "Ġgolpe": 2429,
      "ĠVieron": 2430,
      "mio": 2431,
      "raron": 2432,
      "ĠUnivers": 2433,
      "ĠrecogiÃ³": 2434,
      "Ġrepresenta": 2435,
      "Ġabrazo": 2436,
      "Ġabril": 2437,
      "Ġ.": 2438,
      "guien": 2439,
      "ally": 2440,
      "diendo": 2441,
      "gÃ³": 2442,
      "Ġdiciembre": 2443,
      "Ġdesarrollo": 2444,
      "Ġrecoger": 2445,
      "Ġmara": 2446,
      "ĠRa": 2447,
      "Ġprincipal": 2448,
      "xico": 2449,
      "irse": 2450,
      "ria": 2451,
      "ezas": 2452,
      "cir": 2453,
      "rada": 2454,
      "Ġampl": 2455,
      "Ġpaseo": 2456,
      "Ġroca": 2457,
      "Ġacep": 2458,
      "Ġnacional": 2459,
      "Ġautor": 2460,
      "Ġnie": 2461,
      "Ġagosto": 2462,
      "ĠÃ©poca": 2463,
      "Ġfuncion": 2464,
      "ĠSabÃŃa": 2465,
      "Ġmoder": 2466,
      "ĠNacional": 2467,
      "Ġseptiembre": 2468,
      "dico": 2469,
      "entran": 2470,
      "Ġcara": 2471,
      "Ġconstitu": 2472,
      "Ġprogra": 2473,
      "Ġmariposa": 2474,
      "culo": 2475,
      "Ġcompos": 2476,
      "Ġrelig": 2477,
      "ho": 2478,
      "dilla": 2479,
      "ex": 2480,
      "caron": 2481,
      "Ġjugaron": 2482,
      "Ġactriz": 2483,
      "Ġfrente": 2484,
      "ĠpaÃŃses": 2485,
      "Ġet": 2486,
      "ĠpasÃ³": 2487,
      "Ġ|": 2488,
      "illy": 2489,
      "Ġhermosa": 2490,
      "jada": 2491,
      "tirse": 2492,
      "Ġcir": 2493,
      "Ġarm": 2494,
      "Ġapl": 2495,
      "Ġglo": 2496,
      "Ġviaje": 2497,
      "Ġexper": 2498,
      "vesti": 2499,
      "Ġdiverti": 2500,
      "Ġhacerlo": 2501,
      "Ġcastillo": 2502,
      "tiene": 2503,
      "Ġprobar": 2504,
      "Ġbonita": 2505,
      "ye": 2506,
      "Ġprovincia": 2507,
      "eras": 2508,
      "Ġsorpresa": 2509,
      "Ġverde": 2510,
      "ĠseÃ±al": 2511,
      "si": 2512,
      "uda": 2513,
      "Juan": 2514,
      "ĠCu": 2515,
      "Sam": 2516,
      "ph": 2517,
      "eraciÃ³n": 2518,
      "Ġmiemb": 2519,
      "xim": 2520,
      "ĠmÃ¡g": 2521,
      "ĠVal": 2522,
      "iguiÃ³": 2523,
      "dores": 2524,
      "talla": 2525,
      "Ġjunio": 2526,
      "Ġencontrado": 2527,
      "Ġaum": 2528,
      "ane": 2529,
      "Ġtienes": 2530,
      "Podemos": 2531,
      "ĠterminÃ³": 2532,
      "ebrero": 2533,
      "Ġalim": 2534,
      "Estaba": 2535,
      "omÃŃa": 2536,
      "ĠOr": 2537,
      "Ġpelig": 2538,
      "tino": 2539,
      "ĠtÃŃ": 2540,
      "lÃ³": 2541,
      "puesto": 2542,
      "Ġarena": 2543,
      "Ġvista": 2544,
      "rom": 2545,
      "Ġinterna": 2546,
      "Ġren": 2547,
      "viembre": 2548,
      "Ġmostrar": 2549,
      "Ġescal": 2550,
      "laro": 2551,
      "ty": 2552,
      "tero": 2553,
      "Ġ11": 2554,
      "telig": 2555,
      "Ġpalabras": 2556,
      "Ġaprender": 2557,
      "mientos": 2558,
      "Ġsino": 2559,
      "Ġorigen": 2560,
      "rid": 2561,
      "ĠlecciÃ³n": 2562,
      "Ġencontraron": 2563,
      "Ġpez": 2564,
      "Ġce": 2565,
      "ĠĊĊ": 2566,
      "Ġdue": 2567,
      "ĠTu": 2568,
      "ĠFrancia": 2569,
      "adamente": 2570,
      "entemente": 2571,
      "ĠdifÃŃ": 2572,
      "rera": 2573,
      "Ġamaba": 2574,
      "tÃŃcu": 2575,
      "Ġpudi": 2576,
      "ĠMi": 2577,
      "ĠEstado": 2578,
      "Ġja": 2579,
      "diente": 2580,
      "Ġenten": 2581,
      "Ġentrar": 2582,
      "Ġllen": 2583,
      "Ġdelicioso": 2584,
      "Ġdetuvo": 2585,
      "ĠâĢĶ": 2586,
      "ĠGuerra": 2587,
      "seguir": 2588,
      "ka": 2589,
      "Ġital": 2590,
      "Ġsonido": 2591,
      "char": 2592,
      "Ġruidos": 2593,
      "icia": 2594,
      "Ġalguien": 2595,
      "Ã³s": 2596,
      "ĠFern": 2597,
      "icaciones": 2598,
      "ĠalegrÃŃa": 2599,
      "Una": 2600,
      "Ġescuchar": 2601,
      "ĠAnna": 2602,
      "Con": 2603,
      "Ġserie": 2604,
      "Ġescritor": 2605,
      "Ġdescri": 2606,
      "ĠJohn": 2607,
      "ĠpolÃŃtica": 2608,
      "ĠregiÃ³n": 2609,
      "tivamente": 2610,
      "Ġllor": 2611,
      "Ġargent": 2612,
      "Ġigual": 2613,
      "Ġadentro": 2614,
      "ĠIm": 2615,
      "Ġtele": 2616,
      "Ġabajo": 2617,
      "ĠPara": 2618,
      "Ġpartici": 2619,
      "gre": 2620,
      "Ġcontrol": 2621,
      "Ġequ": 2622,
      "Ġfebrero": 2623,
      "ĠJug": 2624,
      "ĠseÃ±ora": 2625,
      "ĠTal": 2626,
      "cor": 2627,
      "Ġrefer": 2628,
      "perio": 2629,
      "tista": 2630,
      "ĠBus": 2631,
      "Ġtren": 2632,
      "Ġmediante": 2633,
      "icano": 2634,
      "Ġnorm": 2635,
      "Ġpiso": 2636,
      "ĠpÃºbl": 2637,
      "Ġcomien": 2638,
      "Ġsecre": 2639,
      "Ġnoviembre": 2640,
      "Ġindustri": 2641,
      "Ġsea": 2642,
      "ĠestÃ¡s": 2643,
      "ĠAhora": 2644,
      "Ġdesapar": 2645,
      "Ġnos": 2646,
      "ĠcomÃºn": 2647,
      "ĠentrÃ³": 2648,
      "Entonces": 2649,
      "Ġmues": 2650,
      "ĠPedro": 2651,
      "ĠTiene": 2652,
      "ches": 2653,
      "Ġvarias": 2654,
      "ĠMad": 2655,
      "Ġproyec": 2656,
      "Ġham": 2657,
      "Ġcach": 2658,
      "Ġreal": 2659,
      "Ġllu": 2660,
      "Ġnadie": 2661,
      "rÃ³n": 2662,
      "Ġgenial": 2663,
      "Ġnieve": 2664,
      "Eso": 2665,
      "Ġobras": 2666,
      "eas": 2667,
      "ĠNe": 2668,
      "Ġencuentran": 2669,
      "Ġcantante": 2670,
      "hor": 2671,
      "cida": 2672,
      "Ġcuerpo": 2673,
      "Ġseguir": 2674,
      "lantes": 2675,
      "Ġdeter": 2676,
      "Ã©tica": 2677,
      "ĠeconÃ³m": 2678,
      "Ġintelig": 2679,
      "ĠenseÃ±": 2680,
      "Ġmone": 2681,
      "Ġhog": 2682,
      "Ġcuad": 2683,
      "Ġpadre": 2684,
      "Ġexisten": 2685,
      "Ġjuntas": 2686,
      "ĠparecÃŃa": 2687,
      "Ġprincipales": 2688,
      "cidental": 2689,
      "Ġconm": 2690,
      "Ġactividad": 2691,
      "iga": 2692,
      "Ġliber": 2693,
      "ÃŃos": 2694,
      "rac": 2695,
      "Ġmesa": 2696,
      "Ġunas": 2697,
      "agen": 2698,
      "Ġpasa": 2699,
      "Quier": 2700,
      "Ġvelo": 2701,
      "ĠPapÃ¡": 2702,
      "ĠBenny": 2703,
      "Ġante": 2704,
      "ĠenergÃŃa": 2705,
      "Ġmaravil": 2706,
      "ĠTomÃ¡s": 2707,
      "Ġaque": 2708,
      "entan": 2709,
      "uelo": 2710,
      "ĠasustÃ³": 2711,
      "ĠMÃ©xico": 2712,
      "tun": 2713,
      "alla": 2714,
      "ĠBo": 2715,
      "ĠemocionÃ³": 2716,
      "icamente": 2717,
      "porte": 2718,
      "Ġmanz": 2719,
      "Ġbonito": 2720,
      "Ã©cn": 2721,
      "Ġnum": 2722,
      "ĠcayÃ³": 2723,
      "Ġestrellas": 2724,
      "Ġventana": 2725,
      "cÃŃa": 2726,
      "ĠIntent": 2727,
      "Ġabrazaron": 2728,
      "nas": 2729,
      "bal": 2730,
      "Ġsuperfici": 2731,
      "Ġseguro": 2732,
      "cta": 2733,
      "ĠÃ©x": 2734,
      "ĠtÃ©rm": 2735,
      "Ġocur": 2736,
      "Ġata": 2737,
      "Ġarte": 2738,
      "To": 2739,
      "Ġvolvieron": 2740,
      "Ġbolsa": 2741,
      "Ġirse": 2742,
      "Desde": 2743,
      "Ġconse": 2744,
      "Ġbuscando": 2745,
      "Ġ%": 2746,
      "Ġaten": 2747,
      "ĠPre": 2748,
      "Ġpuedo": 2749,
      "ĠSue": 2750,
      "Ġpropio": 2751,
      "Ġimportantes": 2752,
      "Ġpopular": 2753,
      "Ġcapital": 2754,
      "Ġpregunta": 2755,
      "Ġdomin": 2756,
      "Ġroja": 2757,
      "Ġimagen": 2758,
      "ierto": 2759,
      "Ġfru": 2760,
      "yas": 2761,
      "Ġatrapar": 2762,
      "Ma": 2763,
      "iere": 2764,
      "Ã³x": 2765,
      "roso": 2766,
      "Ġespecialmente": 2767,
      "inaba": 2768,
      "ĠratÃ³n": 2769,
      "ragÃ³n": 2770,
      "Ġmad": 2771,
      "Te": 2772,
      "uerto": 2773,
      "ĠComen": 2774,
      "pac": 2775,
      "ciente": 2776,
      "Ã¡tico": 2777,
      "Ġpelu": 2778,
      "Ġsufici": 2779,
      "Ġveci": 2780,
      "ĠLila": 2781,
      "Ġedu": 2782,
      "Ġcambi": 2783,
      "Ġestrella": 2784,
      "Ġplaya": 2785,
      "ĠseguÃŃa": 2786,
      "Ġdieron": 2787,
      "rico": 2788,
      "Ġdebe": 2789,
      "ama": 2790,
      "Ġmaes": 2791,
      "Ġproblemas": 2792,
      "ĠfÃŃs": 2793,
      "Ġconoc": 2794,
      "ĠJa": 2795,
      "Ġros": 2796,
      "Ġanciano": 2797,
      "eso": 2798,
      "Ġrosa": 2799,
      "Ġquiso": 2800,
      "Ġposible": 2801,
      "rÃ¡n": 2802,
      "Ġgas": 2803,
      "âĢĿ": 2804,
      "enas": 2805,
      "Ġgalletas": 2806,
      "ĠdÃ³nde": 2807,
      "âĢĶ": 2808,
      "Ġconocido": 2809,
      "Ġtre": 2810,
      "Ġmaravillos": 2811,
      "Ġil": 2812,
      "ema": 2813,
      "Ġinvesti": 2814,
      "Ġhijo": 2815,
      "tic": 2816,
      "ĠfÃ¡": 2817,
      "Ġllegar": 2818,
      "Ġtristes": 2819,
      "ĠbebÃ©": 2820,
      "ĠEuropa": 2821,
      "ĠCarlos": 2822,
      "Ġconver": 2823,
      "Ġsegundo": 2824,
      "ĠCal": 2825,
      "Ġcola": 2826,
      "ĠDese": 2827,
      "genes": 2828,
      "ĠÃºltimo": 2829,
      "gado": 2830,
      "ĠpequeÃ±os": 2831,
      "ÃŃsticas": 2832,
      "Ġabrir": 2833,
      "Ġsintieron": 2834,
      "Ġeres": 2835,
      "Ġ189": 2836,
      "ĠVe": 2837,
      "teriormente": 2838,
      "ear": 2839,
      "anto": 2840,
      "ĠconvirtiÃ³": 2841,
      "ridad": 2842,
      "ĠleÃ³n": 2843,
      "Ġlis": 2844,
      "Ġbor": 2845,
      "usiÃ³n": 2846,
      "Ġbici": 2847,
      "Ġcuales": 2848,
      "Ġhablar": 2849,
      "stitu": 2850,
      "recu": 2851,
      "ĠTienen": 2852,
      "ecÃŃa": 2853,
      "lares": 2854,
      "Ġespacio": 2855,
      "Ġdesorden": 2856,
      "Ġinflu": 2857,
      "Ġfa": 2858,
      "Ġsegunda": 2859,
      "Ġcarrera": 2860,
      "Ġverdad": 2861,
      "Ġorganiz": 2862,
      "cleta": 2863,
      "Ġarro": 2864,
      "Ġdinero": 2865,
      "rÃŃan": 2866,
      "Ġur": 2867,
      "sas": 2868,
      "iÃ©n": 2869,
      "ormaciÃ³n": 2870,
      "liz": 2871,
      "Ġdecidieron": 2872,
      "ĠPensÃ³": 2873,
      "ĠSer": 2874,
      "Ġ0": 2875,
      "Ġagar": 2876,
      "Ġrespec": 2877,
      "gres": 2878,
      "In": 2879,
      "para": 2880,
      "Ġlago": 2881,
      "Ġropa": 2882,
      "Ġresto": 2883,
      "Jack": 2884,
      "ĠâĢľ": 2885,
      "usieron": 2886,
      "Ġcantidad": 2887,
      "ĠdifÃŃcil": 2888,
      "ministra": 2889,
      "tl": 2890,
      "Ġnub": 2891,
      "Esto": 2892,
      "Ġbanda": 2893,
      "olÃ³gico": 2894,
      "isiÃ³n": 2895,
      "torias": 2896,
      "Ġmira": 2897,
      "Ġvalor": 2898,
      "trÃ³n": 2899,
      "Ġcachorro": 2900,
      "17": 2901,
      "Ġmateri": 2902,
      "Ġequipo": 2903,
      "ĠUniversidad": 2904,
      "Ġindi": 2905,
      "ulas": 2906,
      "quina": 2907,
      "Ġ25": 2908,
      "tÃŃa": 2909,
      "Ġdiscul": 2910,
      "Ġdulce": 2911,
      "bor": 2912,
      "Ġfir": 2913,
      "Ġarreglar": 2914,
      "ĠMundial": 2915,
      "Ġconjunto": 2916,
      "dente": 2917,
      "ki": 2918,
      "Ġreun": 2919,
      "itor": 2920,
      "ĠsÃ©": 2921,
      "ĠfrÃŃo": 2922,
      "ĠlÃŃnea": 2923,
      "Ġju": 2924,
      "entÃ³": 2925,
      "ĠII": 2926,
      "ĠextraÃ±o": 2927,
      "Ġfor": 2928,
      "Ġduro": 2929,
      "bus": 2930,
      "ry": 2931,
      "Ġ=": 2932,
      "idera": 2933,
      "Ġrecu": 2934,
      "Ġofre": 2935,
      "Ġellas": 2936,
      "Ġregalo": 2937,
      "Ġmez": 2938,
      "Ġtuvieron": 2939,
      "ĠHac": 2940,
      "Ġbase": 2941,
      "Ġello": 2942,
      "ecer": 2943,
      "Ġfrecu": 2944,
      "Ġescuela": 2945,
      "iva": 2946,
      "Ġempu": 2947,
      "Ġcaus": 2948,
      "jando": 2949,
      "ĠYa": 2950,
      "cieron": 2951,
      "voluciÃ³n": 2952,
      "Ġproceso": 2953,
      "tarse": 2954,
      "Ġconser": 2955,
      "ĠtelevisiÃ³n": 2956,
      "ivo": 2957,
      "Ġdol": 2958,
      "dri": 2959,
      "Ġpic": 2960,
      "Ġer": 2961,
      "Â°": 2962,
      "ĠcanciÃ³n": 2963,
      "ff": 2964,
      "Ġcambio": 2965,
      "Ġpresenta": 2966,
      "ĠNueva": 2967,
      "ĠJuana": 2968,
      "ĠSammy": 2969,
      "Ġpesar": 2970,
      "Ġhogar": 2971,
      "ĠaviÃ³n": 2972,
      "ft": 2973,
      "Ġdesper": 2974,
      "Ġpeda": 2975,
      "lave": 2976,
      "onio": 2977,
      "Ġprimeros": 2978,
      "Ġlluvia": 2979,
      "ĠRep": 2980,
      "Ġlibre": 2981,
      "Ġfiesta": 2982,
      "ĠproducciÃ³n": 2983,
      "edades": 2984,
      "Ġcolina": 2985,
      "Ġemple": 2986,
      "Ġpeluche": 2987,
      "Ġaplau": 2988,
      "Ġasustado": 2989,
      "ingun": 2990,
      "aya": 2991,
      "ĠÃ©xito": 2992,
      "Ġyo": 2993,
      "Ġjo": 2994,
      "Ġcuar": 2995,
      "Ġcontar": 2996,
      "Ġconseguir": 2997,
      "Ġlista": 2998,
      "esa": 2999,
      "puesta": 3000,
      "Ġlleno": 3001,
      "Ġimpres": 3002,
      "ĠtÃ©rmino": 3003,
      "traron": 3004,
      "Ġsocial": 3005,
      "Ġvas": 3006,
      "Ġmover": 3007,
      "don": 3008,
      "Ġmonta": 3009,
      "Ġfuego": 3010,
      "ĠSusana": 3011,
      "Ã¡tica": 3012,
      "Ġcarro": 3013,
      "ÃŃstica": 3014,
      "10": 3015,
      "Ġprote": 3016,
      "ĠbritÃ¡nico": 3017,
      "Ġexpres": 3018,
      "posiciÃ³n": 3019,
      "Ġcaliente": 3020,
      "Ġfavorito": 3021,
      "omas": 3022,
      "Ġcumpl": 3023,
      "ste": 3024,
      "ĠSally": 3025,
      "Ġmic": 3026,
      "Ġsimple": 3027,
      "onal": 3028,
      "Ġcalle": 3029,
      "Ġsombrero": 3030,
      "icada": 3031,
      "ete": 3032,
      "lÃ©s": 3033,
      "ĠcompaÃ±": 3034,
      "ĠincreÃŃ": 3035,
      "pado": 3036,
      "Ġalm": 3037,
      "tug": 3038,
      "Ġnovel": 3039,
      "Ãºtbol": 3040,
      "Ġbrillantes": 3041,
      "ĠSiempre": 3042,
      "Ġgrupos": 3043,
      "Ġmoral": 3044,
      "ĠgÃ©n": 3045,
      "Ġabs": 3046,
      "cciones": 3047,
      "daba": 3048,
      "Ġdatos": 3049,
      "pal": 3050,
      "Ġterritorio": 3051,
      "Ġquiere": 3052,
      "Ġdulces": 3053,
      "Ġdescan": 3054,
      "Ġarre": 3055,
      "Ġlimpiar": 3056,
      "Ġeje": 3057,
      "Ġop": 3058,
      "Ġinclu": 3059,
      "ĠsonrÃŃ": 3060,
      "illos": 3061,
      "Ġopera": 3062,
      "ey": 3063,
      "ped": 3064,
      "ĠtÃ©cn": 3065,
      "Ġcinco": 3066,
      "Ġpreocupes": 3067,
      "ĠSanta": 3068,
      "ĠFinalmente": 3069,
      "irar": 3070,
      "dable": 3071,
      "Ġtranqu": 3072,
      "Ġedad": 3073,
      "ĠAbra": 3074,
      "Ġhabitantes": 3075,
      "ĠHa": 3076,
      "mon": 3077,
      "Ġcondi": 3078,
      "Ã¡rs": 3079,
      "iar": 3080,
      "Wow": 3081,
      "ĠDis": 3082,
      "bur": 3083,
      "ĠcrÃŃ": 3084,
      "Ã©rcito": 3085,
      "inar": 3086,
      "ame": 3087,
      "ĠVol": 3088,
      "pot": 3089,
      "ĠalemÃ¡n": 3090,
      "Ġmirar": 3091,
      "ee": 3092,
      "Ġpen": 3093,
      "Ġprincipio": 3094,
      "tÃŃf": 3095,
      "Ġagujero": 3096,
      "Ġningun": 3097,
      "Ġsex": 3098,
      "Ġsuf": 3099,
      "Ġ30": 3100,
      "cimientos": 3101,
      "Ġhar": 3102,
      "ĠRob": 3103,
      "Ġprofes": 3104,
      "Ġmovimiento": 3105,
      "caciÃ³n": 3106,
      "Ġedifici": 3107,
      "ĠJen": 3108,
      "Ġjuegos": 3109,
      "ĠRepÃºblica": 3110,
      "vado": 3111,
      "eran": 3112,
      "ĠcontÃ³": 3113,
      "Ġaver": 3114,
      "istro": 3115,
      "osidad": 3116,
      "ĠprÃ¡c": 3117,
      "Ġsubir": 3118,
      "inado": 3119,
      "ĠsintiÃ©ndose": 3120,
      "com": 3121,
      "ĠrelaciÃ³n": 3122,
      "bel": 3123,
      "Ġhambre": 3124,
      "Ġele": 3125,
      "ĠTra": 3126,
      "chÃ³": 3127,
      "Ġinterpre": 3128,
      "onia": 3129,
      "inÃ³": 3130,
      "Ġmedida": 3131,
      "Ġhija": 3132,
      "Ġnaveg": 3133,
      "ite": 3134,
      "eral": 3135,
      "ĠhistÃ³": 3136,
      "Ġalcanzar": 3137,
      "teriores": 3138,
      "ĠespaÃ±ola": 3139,
      "Ġenojado": 3140,
      "Ġcabello": 3141,
      "Ġbuenos": 3142,
      "ĠMor": 3143,
      "Ġdiferente": 3144,
      "Ġlugares": 3145,
      "Ġsuperior": 3146,
      "15": 3147,
      "ĠSh": 3148,
      "ĠsorprendiÃ³": 3149,
      "Ġdo": 3150,
      "An": 3151,
      "Ġsola": 3152,
      "itÃ³": 3153,
      "pla": 3154,
      "Ġpasar": 3155,
      "Ġhon": 3156,
      "Ġcora": 3157,
      "Ġtama": 3158,
      "Ġsien": 3159,
      "Ġesf": 3160,
      "Ġinteres": 3161,
      "bÃ³": 3162,
      "Ġ202": 3163,
      "ĠMadrid": 3164,
      "Ġdan": 3165,
      "16": 3166,
      "iles": 3167,
      "Ġestudio": 3168,
      "Ġcompe": 3169,
      "vos": 3170,
      "200": 3171,
      "Ġbicicleta": 3172,
      "Ġquedarse": 3173,
      "Ġenorme": 3174,
      "Ġvolando": 3175,
      "Ġsuperficie": 3176,
      "Ġcivil": 3177,
      "ĠHab": 3178,
      "Ġelementos": 3179,
      "ĠrecordÃ³": 3180,
      "Ġreconoci": 3181,
      "ĠinglÃ©s": 3182,
      "Ġentra": 3183,
      "etas": 3184,
      "Ġdicen": 3185,
      "Ġmex": 3186,
      "Ġhier": 3187,
      "ĠIg": 3188,
      "Ġdivi": 3189,
      "land": 3190,
      "ua": 3191,
      "Ġestructura": 3192,
      "Ġge": 3193,
      "ĠDic": 3194,
      "Ġig": 3195,
      "orge": 3196,
      "Ġbailar": 3197,
      "ĠAdemÃ¡s": 3198,
      "Ã³r": 3199,
      "ĠTh": 3200,
      "Ġperman": 3201,
      "lio": 3202,
      "cioso": 3203,
      "Ġespecies": 3204,
      "ĠdÃ©cada": 3205,
      "Ġarco": 3206,
      "Ġ188": 3207,
      "Ġmec": 3208,
      "ĠÃºnico": 3209,
      "Ġpasado": 3210,
      "respon": 3211,
      "gue": 3212,
      "Ġacu": 3213,
      "tito": 3214,
      "ĠCl": 3215,
      "Ġtex": 3216,
      "tidos": 3217,
      "Ġdenomin": 3218,
      "Quieres": 3219,
      "Ġcuriosidad": 3220,
      "ĠVamos": 3221,
      "Ġ187": 3222,
      "ĠprÃ³x": 3223,
      "iiiiiiii": 3224,
      "ĠQuerÃŃan": 3225,
      "urope": 3226,
      "enter": 3227,
      "Ġmenudo": 3228,
      "ĠDecidiÃ³": 3229,
      "Ġjoven": 3230,
      "Ġ'": 3231,
      "lada": 3232,
      "ular": 3233,
      "Ġviejo": 3234,
      "Ġdesliz": 3235,
      "ĠOl": 3236,
      "ĠAlgun": 3237,
      "Ġplantas": 3238,
      "ĠSonriÃ³": 3239,
      "Ġfigu": 3240,
      "pro": 3241,
      "Ġw": 3242,
      "tia": 3243,
      "Ġza": 3244,
      "Ġrealmente": 3245,
      "ĠNunca": 3246,
      "ĠrazÃ³n": 3247,
      "ĠMu": 3248,
      "ĠImperio": 3249,
      "Ġmunicipio": 3250,
      "Ġpuesto": 3251,
      "isy": 3252,
      "Ġproba": 3253,
      "Ġrana": 3254,
      "rido": 3255,
      "ĠayudÃ³": 3256,
      "Ġcap": 3257,
      "Ġub": 3258,
      "ĠlÃ¡": 3259,
      "Ġvamos": 3260,
      "Ġcena": 3261,
      "tigo": 3262,
      "Ġpartido": 3263,
      "Ġmanten": 3264,
      "Ġvelocidad": 3265,
      "ĠdecÃŃa": 3266,
      "tec": 3267,
      "ĠMus": 3268,
      "Ten": 3269,
      "dis": 3270,
      "Ġconmigo": 3271,
      "Ã©sped": 3272,
      "Ġfinales": 3273,
      "Ġprincipalmente": 3274,
      "istoria": 3275,
      "ĠBu": 3276,
      "Ġdirector": 3277,
      "Ġido": 3278,
      "Ġgem": 3279,
      "Ġ2000": 3280,
      "Ġactual": 3281,
      "culos": 3282,
      "ĠdespidiÃ³": 3283,
      "iene": 3284,
      "Ġpudiera": 3285,
      "Ġprepar": 3286,
      "Tal": 3287,
      "Ġens": 3288,
      "trim": 3289,
      "tones": 3290,
      "Ġvac": 3291,
      "Ġhelado": 3292,
      "Ġib": 3293,
      "Ġfing": 3294,
      "Ġmonstru": 3295,
      "tual": 3296,
      "ĠAmy": 3297,
      "ĠFernando": 3298,
      "Ġardilla": 3299,
      "Ġlenta": 3300,
      "Ġocas": 3301,
      "iana": 3302,
      "ĠSolo": 3303,
      "Ġblanco": 3304,
      "ide": 3305,
      "Ġpeces": 3306,
      "Ġamor": 3307,
      "Ġfuerzas": 3308,
      "Ġtus": 3309,
      "Ġthe": 3310,
      "Finalmente": 3311,
      "Ġaterra": 3312,
      "ĠIntentÃ³": 3313,
      "rez": 3314,
      "Ġpiedra": 3315,
      "cidos": 3316,
      "ĠJane": 3317,
      "ĠTommy": 3318,
      "Ġfres": 3319,
      "Oh": 3320,
      "ies": 3321,
      "ental": 3322,
      "Ġproteg": 3323,
      "Ġtempera": 3324,
      "rique": 3325,
      "Ġsala": 3326,
      "Ġcorrespon": 3327,
      "Ġprin": 3328,
      "guas": 3329,
      "Ġextre": 3330,
      "eric": 3331,
      "piÃ³": 3332,
      "Ġzapa": 3333,
      "Ġtorre": 3334,
      "jan": 3335,
      "Ġvan": 3336,
      "Ġpropor": 3337,
      "Ġbueno": 3338,
      "hÃŃ": 3339,
      "Ġleg": 3340,
      "Ġdetermin": 3341,
      "Ġsonrieron": 3342,
      "Ġconsidera": 3343,
      "Ġparticular": 3344,
      "Ġantiguo": 3345,
      "mÃ³": 3346,
      "Ġradio": 3347,
      "Ġmodelo": 3348,
      "ĠComenzÃ³": 3349,
      "ĠDan": 3350,
      "turales": 3351,
      "Ġdevol": 3352,
      "Ġcabal": 3353,
      "ĠcÃ©sped": 3354,
      "Ġprovo": 3355,
      "Ġleer": 3356,
      "Ġzorro": 3357,
      "Ġpropia": 3358,
      "Ġbur": 3359,
      "ĠInterna": 3360,
      "Ġconstruir": 3361,
      "Ġestilo": 3362,
      "cun": 3363,
      "Ġsoci": 3364,
      "gaciÃ³n": 3365,
      "Ġargentino": 3366,
      "mento": 3367,
      "Ġrelacion": 3368,
      "Ġdepen": 3369,
      "Ġat": 3370,
      "Ġagradable": 3371,
      "Ġnecesitaba": 3372,
      "Ġhu": 3373,
      "Ġmasa": 3374,
      "vÃ³": 3375,
      "ional": 3376,
      "ĠmuÃ±ec": 3377,
      "ĠagarrÃ³": 3378,
      "Fue": 3379,
      "Ġcompues": 3380,
      "Ġsaber": 3381,
      "Ġcine": 3382,
      "ror": 3383,
      "ĠGar": 3384,
      "orn": 3385,
      "ieren": 3386,
      "Ġpalo": 3387,
      "talia": 3388,
      "Ġdoc": 3389,
      "Ġfon": 3390,
      "dif": 3391,
      "Ã¡nd": 3392,
      "enci": 3393,
      "Ġton": 3394,
      "ĠTomÃ³": 3395,
      "Ġrostro": 3396,
      "Ġamb": 3397,
      "dora": 3398,
      "Ġalf": 3399,
      "ĠcientÃŃf": 3400,
      "Ġesca": 3401,
      "ĠteorÃŃa": 3402,
      "ĠFrancis": 3403,
      "mania": 3404,
      "Ġaproxim": 3405,
      "Ġand": 3406,
      "Ġinteligente": 3407,
      "Ġcamp": 3408,
      "Ġnomb": 3409,
      "Ã©tico": 3410,
      "Ġbomb": 3411,
      "ase": 3412,
      "=\"": 3413,
      "Ġhue": 3414,
      "Ġpolic": 3415,
      "Ġetc": 3416,
      "Ġcorrieron": 3417,
      "dario": 3418,
      "Ġpalabra": 3419,
      "ĠfunciÃ³n": 3420,
      "Ġviol": 3421,
      "Ġpaso": 3422,
      "Ġdeliciosa": 3423,
      "ĠincreÃŃble": 3424,
      "Ġsupo": 3425,
      "ĠEncon": 3426,
      "Ġconcep": 3427,
      "Ġprograma": 3428,
      "paciÃ³n": 3429,
      "ĠEsper": 3430,
      "ĠAmbos": 3431,
      "Ġunivers": 3432,
      "entado": 3433,
      "lic": 3434,
      "Ġamables": 3435,
      "ĠAnton": 3436,
      "ĠÃºltima": 3437,
      "Cor": 3438,
      "Ġclasif": 3439,
      "are": 3440,
      "Ġredu": 3441,
      "ko": 3442,
      "enos": 3443,
      "media": 3444,
      "Ġcic": 3445,
      "Ġcur": 3446,
      "ĠperÃŃo": 3447,
      "Ġmatem": 3448,
      "Ġado": 3449,
      "Ġcolo": 3450,
      "Ġmiraron": 3451,
      "ĠJer": 3452,
      "ĠPas": 3453,
      "jaba": 3454,
      "Ġcima": 3455,
      "Ġencar": 3456,
      "Ġmono": 3457,
      "Ġestuviera": 3458,
      "Ġdestru": 3459,
      "Ġprincipios": 3460,
      "ĠconstrucciÃ³n": 3461,
      "ĠnÃºmeros": 3462,
      "ĠDeb": 3463,
      "Ġiden": 3464,
      "Le": 3465,
      "Ġdise": 3466,
      "Ġasustada": 3467,
      "Ġdibujar": 3468,
      "tulo": 3469,
      "Ġmiembros": 3470,
      "ical": 3471,
      "Ġtenemos": 3472,
      "arca": 3473,
      "lex": 3474,
      "Ġperdido": 3475,
      "dientes": 3476,
      "ler": 3477,
      "emente": 3478,
      "Max": 3479,
      "fe": 3480,
      "Ġsir": 3481,
      "Ġhermana": 3482,
      "Ġinse": 3483,
      "Ġtrabajar": 3484,
      "Ġciudades": 3485,
      "Ġayud": 3486,
      "Ġanimal": 3487,
      "bil": 3488,
      "ĠtodavÃŃa": 3489,
      "Ġgobern": 3490,
      "Ġhubiera": 3491,
      "Ġhom": 3492,
      "Ġcristi": 3493,
      "zada": 3494,
      "deo": 3495,
      "ĠPol": 3496,
      "Ġdicho": 3497,
      "ĠsacÃ³": 3498,
      "ĠcorazÃ³n": 3499,
      "ĠBilly": 3500,
      "siones": 3501,
      "Ġcantar": 3502,
      "Ġitaliano": 3503,
      "ĠmÃŃ": 3504,
      "tadas": 3505,
      "Ġpusieron": 3506,
      "Ġinterior": 3507,
      "ĠmuÃ±ecas": 3508,
      "ĠÃ¡rea": 3509,
      "Ġproblema": 3510,
      "ĠBol": 3511,
      "ĠquÃŃm": 3512,
      "Ġeurope": 3513,
      "Ġcrea": 3514,
      "anda": 3515,
      "sar": 3516,
      "ĠcuÃ¡n": 3517,
      "idar": 3518,
      "Ġdiferencia": 3519,
      "Ġras": 3520,
      "ĠGen": 3521,
      "ĠDijeron": 3522,
      "terÃŃa": 3523,
      "Ġgranjero": 3524,
      "uerzo": 3525,
      "Ġlad": 3526,
      "Ġfron": 3527,
      "ork": 3528,
      "Ġadel": 3529,
      "quiera": 3530,
      "Ġfoto": 3531,
      "Ġprincesa": 3532,
      "oo": 3533,
      "Ġtec": 3534,
      "ÃŃz": 3535,
      "gular": 3536,
      "ĠGe": 3537,
      "uyÃ³": 3538,
      "Ġcompositor": 3539,
      "tren": 3540,
      "Ġcarta": 3541,
      "Ġenojada": 3542,
      "Ġminu": 3543,
      "ĠrÃŃ": 3544,
      "Ġcaer": 3545,
      "Ġanterior": 3546,
      "pciÃ³n": 3547,
      "Ġafir": 3548,
      "dios": 3549,
      "Ġhos": 3550,
      "isis": 3551,
      "Ġcuerda": 3552,
      "Ġintro": 3553,
      "Ġcaminaba": 3554,
      "iÃ±o": 3555,
      "taciones": 3556,
      "ray": 3557,
      "Ġderro": 3558,
      "ocia": 3559,
      "Ġsonre": 3560,
      "Ġ24": 3561,
      "anahor": 3562,
      "Ġdivertirse": 3563,
      "Ġvisitar": 3564,
      "ĠLuis": 3565,
      "Ġtoma": 3566,
      "ĠtamaÃ±o": 3567,
      "ĠDurante": 3568,
      "ĠCer": 3569,
      "Ġsistemas": 3570,
      "Ġcometa": 3571,
      "Ġarqui": 3572,
      "Ġnuestro": 3573,
      "Ġ186": 3574,
      "Ġadministra": 3575,
      "rados": 3576,
      "fon": 3577,
      "rito": 3578,
      "Ġmenor": 3579,
      "iensa": 3580,
      "ĠllamÃ³": 3581,
      "Ġrama": 3582,
      "tol": 3583,
      "Ġhacen": 3584,
      "Ġzanahor": 3585,
      "199": 3586,
      "Ġexplor": 3587,
      "tt": 3588,
      "Ġfac": 3589,
      "Ġinv": 3590,
      "Ġdenom": 3591,
      "ĠpequeÃ±as": 3592,
      "vierten": 3593,
      "Ġmujeres": 3594,
      "tamos": 3595,
      "Ġescucharon": 3596,
      "ĠSarah": 3597,
      "Ġpremio": 3598,
      "ĠManchas": 3599,
      "Ġmonstruo": 3600,
      "Ġcad": 3601,
      "ĠBer": 3602,
      "iencia": 3603,
      "ĠRus": 3604,
      "Ã¡genes": 3605,
      "arla": 3606,
      "ĠKa": 3607,
      "rael": 3608,
      "Claro": 3609,
      "Ġbrillaba": 3610,
      "gentina": 3611,
      "ĠseÃ±or": 3612,
      "Ġderi": 3613,
      "Ġrode": 3614,
      "Ġautos": 3615,
      "Ġlarga": 3616,
      ");": 3617,
      "Ġases": 3618,
      "Ġenci": 3619,
      "Eres": 3620,
      "dica": 3621,
      "Ġdispon": 3622,
      "jeros": 3623,
      "ĠtÃº": 3624,
      "ĠNorte": 3625,
      "Ġprue": 3626,
      "Ġorien": 3627,
      "Ġsegura": 3628,
      "50": 3629,
      "tron": 3630,
      "Ġlig": 3631,
      "Ġpaz": 3632,
      "12": 3633,
      "Ġquer": 3634,
      "und": 3635,
      "Ġjusto": 3636,
      "Ġcaminar": 3637,
      "Ã¡ticas": 3638,
      "fono": 3639,
      "Ġaus": 3640,
      "Ġcome": 3641,
      "ĠVer": 3642,
      "Ġhistorias": 3643,
      "Ã©lulas": 3644,
      "ibilidad": 3645,
      "Ġsel": 3646,
      "tÃ³l": 3647,
      "Ġaquel": 3648,
      "Ġamarillo": 3649,
      "Ġnadar": 3650,
      "Ġrealidad": 3651,
      "Ġrecuper": 3652,
      "ĠprÃ³xima": 3653,
      "Ġon": 3654,
      "ger": 3655,
      "Ġmita": 3656,
      "ĠSpot": 3657,
      "Puedes": 3658,
      "Ġoriginal": 3659,
      "ale": 3660,
      "Ġmezc": 3661,
      "ĠimÃ¡genes": 3662,
      "ĠversiÃ³n": 3663,
      "ĠAunque": 3664,
      "geno": 3665,
      "Ġresultado": 3666,
      "ĠTenÃŃan": 3667,
      "cra": 3668,
      "Ġsiente": 3669,
      "tilla": 3670,
      "ĠlevantÃ³": 3671,
      "Ġjugaba": 3672,
      "Ġcuch": 3673,
      "Ġmoraleja": 3674,
      "ĠUniÃ³n": 3675,
      "Ġcono": 3676,
      "Ġpedir": 3677,
      "Ġgemelos": 3678,
      "Ġalas": 3679,
      "Ġcolec": 3680,
      "ingÃºn": 3681,
      "...": 3682,
      "Ġnaturaleza": 3683,
      "Ġaventuras": 3684,
      "Ar": 3685,
      "Ġdistribu": 3686,
      "ĠReino": 3687,
      "trimonio": 3688,
      "):": 3689,
      "Ġjud": 3690,
      "ĠocÃ©": 3691,
      "ecen": 3692,
      "Ġuste": 3693,
      "quer": 3694,
      "ĠDaisy": 3695,
      "ĠEntre": 3696,
      "Ġinm": 3697,
      "Ġleche": 3698,
      "mentos": 3699,
      "Ġtenido": 3700,
      "Ġcontenta": 3701,
      "ĠdueÃ±o": 3702,
      "ric": 3703,
      "ĠCi": 3704,
      "Ġafec": 3705,
      "reas": 3706,
      "Ġfuertes": 3707,
      "Ġejecu": 3708,
      "Ġevitar": 3709,
      "Ġglobo": 3710,
      "30": 3711,
      "Ġpato": 3712,
      "ĠMolly": 3713,
      "Ġcompon": 3714,
      "ĠdragÃ³n": 3715,
      "ega": 3716,
      "ĠSab": 3717,
      "ĠJill": 3718,
      "Ġcasos": 3719,
      "Ġcarre": 3720,
      "ĠcÃ©lulas": 3721,
      "ĠMal": 3722,
      "Ġmuestra": 3723,
      "Ġllena": 3724,
      "ĠÃ¡l": 3725,
      "Ġ/": 3726,
      "Ġconsecu": 3727,
      "ĠfÃ¡cil": 3728,
      "Ġsiglo": 3729,
      "Ġninguna": 3730,
      "Ġdocu": 3731,
      "Ġpis": 3732,
      "ĠPla": 3733,
      "ibles": 3734,
      "Ãºa": 3735,
      "uri": 3736,
      "ĠbaÃ±o": 3737,
      "Ġnaran": 3738,
      "Ġsepar": 3739,
      "ĠRos": 3740,
      "ĠItalia": 3741,
      "grÃ¡f": 3742,
      "oraciÃ³n": 3743,
      "ins": 3744,
      "ĠTa": 3745,
      "Ġmanta": 3746,
      "ancia": 3747,
      "ĠpolicÃŃa": 3748,
      "Ġhombres": 3749,
      "Ġexp": 3750,
      "ĠDicen": 3751,
      "ĠFrancisco": 3752,
      "Ġtipos": 3753,
      "Ġmercado": 3754,
      ".,": 3755,
      "eado": 3756,
      "ĠfÃºtbol": 3757,
      "ĠInternacional": 3758,
      "ierta": 3759,
      "ĠempezÃ³": 3760,
      "Ġmitad": 3761,
      "ang": 3762,
      "Ġhid": 3763,
      "ĠgÃ©nero": 3764,
      "mit": 3765,
      "Ġreac": 3766,
      "cÃ¡n": 3767,
      "Ġresta": 3768,
      "Ġpintura": 3769,
      "ĠÃ³r": 3770,
      "ĠJugaron": 3771,
      "Ġlisto": 3772,
      "Ġsector": 3773,
      "quista": 3774,
      "Yo": 3775,
      "ĠmÃ©dico": 3776,
      "dem": 3777,
      "volu": 3778,
      "Ġexperim": 3779,
      "14": 3780,
      "ĠcomiÃ³": 3781,
      "dez": 3782,
      "ĠdeberÃŃa": 3783,
      "Ġmoneda": 3784,
      "Ġexcl": 3785,
      "Ġhues": 3786,
      "ĠLle": 3787,
      "Ġdescon": 3788,
      "Ġapre": 3789,
      "Ġhoras": 3790,
      "Âº": 3791,
      "Ġdado": 3792,
      "Ġsens": 3793,
      "Ġcri": 3794,
      "Ġtron": 3795,
      "ĠningÃºn": 3796,
      "ses": 3797,
      "Ġpilo": 3798,
      "ines": 3799,
      "Ġzonas": 3800,
      "Ġcalor": 3801,
      "nes": 3802,
      "tÃ¡s": 3803,
      "Ġmodo": 3804,
      "ĠAprendieron": 3805,
      "unda": 3806,
      "lie": 3807,
      "ĠTierra": 3808,
      "Ġroto": 3809,
      "ĠAmÃ©rica": 3810,
      "ciar": 3811,
      "Ġpala": 3812,
      "ĠejÃ©rcito": 3813,
      "Ġnegro": 3814,
      "Ġoficial": 3815,
      "Ġsentido": 3816,
      "zaba": 3817,
      "Ġperfecto": 3818,
      "tador": 3819,
      "amen": 3820,
      "Ġinte": 3821,
      "Ġtengo": 3822,
      "ĠinformaciÃ³n": 3823,
      "ĠCris": 3824,
      "ĠComo": 3825,
      "Ġmagn": 3826,
      "ÃŃnci": 3827,
      "ĠPrim": 3828,
      "tarÃŃa": 3829,
      "ĠperÃŃodo": 3830,
      "vista": 3831,
      "Ġempres": 3832,
      "Ġhorm": 3833,
      "Ġseis": 3834,
      "ĠmÃ©to": 3835,
      "Ġlentamente": 3836,
      "ĠAlemania": 3837,
      "Ġcapacidad": 3838,
      "Ġdeben": 3839,
      "Ġcumple": 3840,
      "iciones": 3841,
      "Ġpared": 3842,
      "ivia": 3843,
      "ĠLucy": 3844,
      "Ġestudios": 3845,
      "ĠAg": 3846,
      "Ġhabl": 3847,
      "iblio": 3848,
      "osotros": 3849,
      "ĠgustÃ³": 3850,
      "ĠsabÃŃan": 3851,
      "by": 3852,
      "titud": 3853,
      "Ġcomb": 3854,
      "Ġsiguientes": 3855,
      "laciones": 3856,
      "Ġoblig": 3857,
      "ĠpÃºblico": 3858,
      "amento": 3859,
      "Ġtempor": 3860,
      "Ġperiodo": 3861,
      "iel": 3862,
      "ĠsubiÃ³": 3863,
      "Ġayudarlo": 3864,
      "ps": 3865,
      "anes": 3866,
      "Ġpreci": 3867,
      "ĠdivirtiÃ³": 3868,
      "Ġnovela": 3869,
      "for": 3870,
      "Ġustedes": 3871,
      "Ġpuntos": 3872,
      "Ġtorm": 3873,
      "asa": 3874,
      "vidu": 3875,
      "teria": 3876,
      "Ġavan": 3877,
      "iraron": 3878,
      "ĠRec": 3879,
      "Ġcentral": 3880,
      "Ġderechos": 3881,
      "ĠGre": 3882,
      "Ġfuente": 3883,
      "Ahora": 3884,
      "ĠÃ¡n": 3885,
      "rin": 3886,
      "Ġsentirse": 3887,
      "Ġingen": 3888,
      "Ġinmedia": 3889,
      "Ġ100": 3890,
      "metros": 3891,
      "ĠrompiÃ³": 3892,
      "ĠolvidÃ³": 3893,
      "Ġ||": 3894,
      "km": 3895,
      "ĠalgÃºn": 3896,
      "Ġproce": 3897,
      "Ġprac": 3898,
      "aran": 3899,
      "ÃŃstico": 3900,
      "Ġalegre": 3901,
      "Ġlon": 3902,
      "Ġjugaban": 3903,
      "Ġamo": 3904,
      "terio": 3905,
      "Ġmeses": 3906,
      "Todos": 3907,
      "istos": 3908,
      "Ġtrata": 3909,
      "Ġllama": 3910,
      "ĠcreaciÃ³n": 3911,
      "ĠIng": 3912,
      "emor": 3913,
      "Ã¡mara": 3914,
      "ĠsonrÃŃe": 3915,
      "del": 3916,
      "omen": 3917,
      "Ġ22": 3918,
      "vaciÃ³n": 3919,
      "Este": 3920,
      "Ġclase": 3921,
      "ĠViv": 3922,
      "Ġquieren": 3923,
      "iamente": 3924,
      "Ġoro": 3925,
      "Ġhada": 3926,
      "ĠWill": 3927,
      "Ġindividu": 3928,
      "ĠPuedes": 3929,
      "iguel": 3930,
      "Ġmostr": 3931,
      "ĠsucediÃ³": 3932,
      "ĠahÃŃ": 3933,
      "Ġconocida": 3934,
      "Estoy": 3935,
      "Ġzapatos": 3936,
      "Ġidi": 3937,
      "aciones": 3938,
      "Ġdivierten": 3939,
      "ĠSur": 3940,
      "Ġantigua": 3941,
      "Ġconductor": 3942,
      "ĠGob": 3943,
      "iam": 3944,
      "lec": 3945,
      "Ġcreer": 3946,
      "ĠAntonio": 3947,
      "perador": 3948,
      "Ġemocionados": 3949,
      "Ġbols": 3950,
      "ĠRober": 3951,
      "Ġbloque": 3952,
      "Ġelecciones": 3953,
      "Ġaterrador": 3954,
      "Ġcarb": 3955,
      "ĠOb": 3956,
      "ĠrecibiÃ³": 3957,
      "Ġfer": 3958,
      "Ġreligi": 3959,
      "Ġdormir": 3960,
      "Ġbrazos": 3961,
      "Ġproyecto": 3962,
      "trum": 3963,
      "Ġexiste": 3964,
      "Ġmaestra": 3965,
      "Ġrecur": 3966,
      "ĠFe": 3967,
      "Ġguitar": 3968,
      "drÃŃa": 3969,
      "Ġnariz": 3970,
      "Si": 3971,
      "Ġpier": 3972,
      "Ġintentar": 3973,
      "ik": 3974,
      "aÃ±os": 3975,
      "fÃ¡": 3976,
      "aco": 3977,
      "ecido": 3978,
      "Ġsuces": 3979,
      "Ġgig": 3980,
      "Esta": 3981,
      "Ġfras": 3982,
      "Ġcontigo": 3983,
      "Ġ[": 3984,
      "ĠMin": 3985,
      "Ġadelante": 3986,
      "ĠParÃŃs": 3987,
      "Ã©ctri": 3988,
      "Ġpiedras": 3989,
      "Ġsupuesto": 3990,
      "torios": 3991,
      "Ġavergon": 3992,
      "Ġgranja": 3993,
      "Ġobjeto": 3994,
      "Ġconven": 3995,
      "ĠAc": 3996,
      "ramien": 3997,
      "Ġinstitu": 3998,
      "Ġorgullosos": 3999,
      "dados": 4000,
      "ĠPres": 4001,
      "ĠocÃ©ano": 4002,
      "quÃ©": 4003,
      "Ġcabo": 4004,
      "ican": 4005,
      "alizaciÃ³n": 4006,
      "Ġcultura": 4007,
      "Ġgor": 4008,
      "Ġescribir": 4009,
      "ĠtelÃ©": 4010,
      "ĠLib": 4011,
      "Ġresol": 4012,
      "Ġdeclar": 4013,
      "Ġescondi": 4014,
      "Ġabeja": 4015,
      "Tim": 4016,
      "Ġpun": 4017,
      "bum": 4018,
      "ĠUs": 4019,
      "ĠcÃŃr": 4020,
      "Ġinfluencia": 4021,
      "Ġaband": 4022,
      "Ġcolumpios": 4023,
      "ĠtazÃ³n": 4024,
      "Ġsimplemente": 4025,
      "Ġvir": 4026,
      "ĠEran": 4027,
      "ĠPodemos": 4028,
      "tamento": 4029,
      "Ġpermite": 4030,
      "Ġllave": 4031,
      "Ġacog": 4032,
      "arra": 4033,
      "cluso": 4034,
      "abilidad": 4035,
      "Ġabur": 4036,
      "ĠnÃºcle": 4037,
      "Ġunirse": 4038,
      "Ġner": 4039,
      "Ġmue": 4040,
      "Ġbail": 4041,
      "Quiero": 4042,
      "Ġherramien": 4043,
      "198": 4044,
      "Ġtesoro": 4045,
      "Ġpoten": 4046,
      "Ġnuestra": 4047,
      "Ġayudarte": 4048,
      "Ġdarle": 4049,
      "ĠGal": 4050,
      "ĠReg": 4051,
      "ĠobservÃ³": 4052,
      "Ġinternacional": 4053,
      "mbol": 4054,
      "Ġcanciones": 4055,
      "ix": 4056,
      "pue": 4057,
      "Ġdemos": 4058,
      "Ġcerc": 4059,
      "Ġconfi": 4060,
      "ĠIglesia": 4061,
      "erte": 4062,
      "Ġreino": 4063,
      "Ġsigue": 4064,
      "Ġlindo": 4065,
      "Ġiban": 4066,
      "cam": 4067,
      "Ġbel": 4068,
      "Ġpresencia": 4069,
      "Ġjugo": 4070,
      "Ġ2010": 4071,
      "gada": 4072,
      "ĠsueÃ±o": 4073,
      "Durante": 4074,
      "Ġreina": 4075,
      "Ġrespe": 4076,
      "Ġ2007": 4077,
      "grado": 4078,
      "ÃŃncipe": 4079,
      "ĠSeÃ±": 4080,
      "Ġcorte": 4081,
      "Ġcocin": 4082,
      "Ġarmario": 4083,
      "center": 4084,
      "ĠFuer": 4085,
      "ĠArgentina": 4086,
      "ĠsituaciÃ³n": 4087,
      "Re": 4088,
      "Ġsosten": 4089,
      "ÃŃdo": 4090,
      "riente": 4091,
      "ĠGri": 4092,
      "Ġbatalla": 4093,
      "menta": 4094,
      "araciÃ³n": 4095,
      "iedad": 4096,
      "Ġencima": 4097,
      "Ġinvi": 4098,
      "ĠapareciÃ³": 4099,
      "ĠLeÃ³n": 4100,
      "gip": 4101,
      "ĠdÃ³": 4102,
      "Ġdivirtiendo": 4103,
      "Ġelef": 4104,
      "Ġbe": 4105,
      "Ġmencion": 4106,
      "Ġmoverse": 4107,
      "ers": 4108,
      "Para": 4109,
      "Ġcausa": 4110,
      "cula": 4111,
      "ian": 4112,
      "imen": 4113,
      "Ġpasando": 4114,
      "Ġmoles": 4115,
      "tualmente": 4116,
      "ĠcariÃ±o": 4117,
      "ctamente": 4118,
      "Ġrelo": 4119,
      "Ġpasaba": 4120,
      "Ġterminar": 4121,
      "ĠYo": 4122,
      "Ġmadera": 4123,
      "Ġplanta": 4124,
      "arias": 4125,
      "ingÃ¼": 4126,
      "erop": 4127,
      "Ġimag": 4128,
      "Ġrefrig": 4129,
      "ĠclÃ¡s": 4130,
      "bilidad": 4131,
      "Ġmanzana": 4132,
      "tida": 4133,
      "Ġaspec": 4134,
      "ilib": 4135,
      "ĠGa": 4136,
      "Ġsopa": 4137,
      "Ġprimeras": 4138,
      "Ġcuidar": 4139,
      "Ġpresiden": 4140,
      "Ġindependiente": 4141,
      "tiÃ³n": 4142,
      "cados": 4143,
      "Ġnota": 4144,
      "Ġlleva": 4145,
      "ĠYork": 4146,
      "Ġgracioso": 4147,
      "Ġderecho": 4148,
      "Ġ23": 4149,
      "ĠpodrÃŃan": 4150,
      "rano": 4151,
      "riste": 4152,
      "Ġpintor": 4153,
      "ibliote": 4154,
      "ĠEstos": 4155,
      "Ġsalva": 4156,
      "ĠexplicÃ³": 4157,
      "Ġbarro": 4158,
      "Ġ50": 4159,
      "greso": 4160,
      "ĠHo": 4161,
      "ene": 4162,
      "Ġcrear": 4163,
      "Ġdibujo": 4164,
      "tus": 4165,
      "Ġamistos": 4166,
      "ĠtÃŃtulo": 4167,
      "ĠcÃ¡lido": 4168,
      "ĠprometiÃ³": 4169,
      "Ġ2006": 4170,
      "Ġcha": 4171,
      "ĠChile": 4172,
      "Ġintrodu": 4173,
      "Ġnosotros": 4174,
      "teratura": 4175,
      "Ġiglesia": 4176,
      "fre": 4177,
      "laterra": 4178,
      "Ġqued": 4179,
      "ĠJap": 4180,
      "Ġcontento": 4181,
      "ĠAprendiÃ³": 4182,
      "Ġvin": 4183,
      "din": 4184,
      "ego": 4185,
      "ĠSoci": 4186,
      "ĠMiguel": 4187,
      "Ġarch": 4188,
      "13": 4189,
      "MÃ¡s": 4190,
      "iales": 4191,
      "Ġsilla": 4192,
      "ĠFre": 4193,
      "ĠEso": 4194,
      "ĠlanzÃ³": 4195,
      "Ġcolumpio": 4196,
      "Ġimportancia": 4197,
      "bia": 4198,
      "ĠAd": 4199,
      "Ġabri": 4200,
      "Ġutiliza": 4201,
      "Ã¶": 4202,
      "ley": 4203,
      "ĠsentÃ³": 4204,
      "Ġrefriger": 4205,
      "ĠcaracterÃŃsticas": 4206,
      ".)": 4207,
      "Ġvic": 4208,
      "Ġproductos": 4209,
      "ablo": 4210,
      "Ã©m": 4211,
      "âĢĻ": 4212,
      "ĠJim": 4213,
      "Ġllevaba": 4214,
      "ĠChina": 4215,
      "ĠescribiÃ³": 4216,
      "Ġejer": 4217,
      "Ġfab": 4218,
      "quilla": 4219,
      "Ġvaca": 4220,
      "Ġtrasero": 4221,
      "Ġtransf": 4222,
      "ĠmÃ¡x": 4223,
      "ĠLon": 4224,
      "Ġmetal": 4225,
      "ral": 4226,
      "yos": 4227,
      "Ġparece": 4228,
      "Ġlocalidad": 4229,
      "Ġvig": 4230,
      "tismo": 4231,
      "ĠBel": 4232,
      "Ġserp": 4233,
      "ung": 4234,
      "torial": 4235,
      "Ġproduce": 4236,
      "Ġ27": 4237,
      "Ġtravi": 4238,
      "ĠposiciÃ³n": 4239,
      "Ġ28": 4240,
      "Ġarti": 4241,
      "Ġpiezas": 4242,
      "ĠPronto": 4243,
      "Ġdur": 4244,
      "Ġep": 4245,
      "Ġcargo": 4246,
      "ivos": 4247,
      "Ġconflic": 4248,
      "tario": 4249,
      "Ġmedia": 4250,
      "Ġoscuro": 4251,
      "eos": 4252,
      "Ġ184": 4253,
      "vada": 4254,
      "Ġidentif": 4255,
      "inta": 4256,
      "ĠHar": 4257,
      "ĠdirecciÃ³n": 4258,
      "Ġaproximadamente": 4259,
      "Bu": 4260,
      "ĠMartÃŃn": 4261,
      "Ġadi": 4262,
      "Ġmundial": 4263,
      "Ġbanco": 4264,
      "ĠatrÃ¡s": 4265,
      "ierras": 4266,
      "Ġislas": 4267,
      "Ġconce": 4268,
      "Ġgira": 4269,
      "ĠTer": 4270,
      "ĠmÃ¡gico": 4271,
      "ĠEscu": 4272,
      "Lila": 4273,
      "Ġcria": 4274,
      "Ġmantuvo": 4275,
      "Ġgustan": 4276,
      "Ġarrepen": 4277,
      "ht": 4278,
      "Ġ1990": 4279,
      "Ġapoyo": 4280,
      "ĠÃºnica": 4281,
      "vid": 4282,
      "Ġ26": 4283,
      "Ġmaterial": 4284,
      "ĠÃ¡lbum": 4285,
      "Mami": 4286,
      "Ġsuel": 4287,
      "Ġayudarme": 4288,
      "ĠdebÃŃa": 4289,
      "Ġedificio": 4290,
      "dap": 4291,
      "Ġespera": 4292,
      "Ġmirando": 4293,
      "Ġenvi": 4294,
      "Ġina": 4295,
      "Ġbocad": 4296,
      "ĠEmma": 4297,
      "istencia": 4298,
      "mental": 4299,
      "dista": 4300,
      "Ġfelizmente": 4301,
      "ĠmarrÃ³n": 4302,
      "Ġchoc": 4303,
      "Ġbote": 4304,
      "Ġcolon": 4305,
      "Ġsuficiente": 4306,
      "Ġminutos": 4307,
      "Ġespeciales": 4308,
      "uta": 4309,
      "Ġjef": 4310,
      "Ġconfun": 4311,
      "Ġrue": 4312,
      "sidad": 4313,
      "ĠSegun": 4314,
      "ĠartÃŃcu": 4315,
      "Ġganar": 4316,
      "Ġrespecto": 4317,
      "Ġbaja": 4318,
      "Ġhumanos": 4319,
      "Ġproporcion": 4320,
      "Ġfrasco": 4321,
      "ĠInglaterra": 4322,
      "Ġcues": 4323,
      "ĠGo": 4324,
      "ĠÃ¡ra": 4325,
      "Ġ21": 4326,
      "Ġsacu": 4327,
      "Ġqueso": 4328,
      "Ġcuyo": 4329,
      "Ġcompren": 4330,
      "Ġlongi": 4331,
      "ĠsÃŃmbol": 4332,
      "ut": 4333,
      "ĠtratÃ³": 4334,
      "ĠPartido": 4335,
      "Ã¡lisis": 4336,
      "Ġenfermedad": 4337,
      "Ġanun": 4338,
      "enso": 4339,
      "Ġlocal": 4340,
      "Ġbolsillo": 4341,
      "Ġbrazo": 4342,
      "ĠtelÃ©fono": 4343,
      "Ġsiguieron": 4344,
      "Pr": 4345,
      "Ġzo": 4346,
      "ĠCiudad": 4347,
      "ky": 4348,
      "Åį": 4349,
      "Ġambas": 4350,
      "Ġobs": 4351,
      "uales": 4352,
      "Ġmam": 4353,
      "Ġara": 4354,
      "ugu": 4355,
      "Ġvari": 4356,
      "bes": 4357,
      "andera": 4358,
      "ĠCre": 4359,
      "Ġcaballo": 4360,
      "ĠHen": 4361,
      "Ġsalud": 4362,
      "Ġ2008": 4363,
      "carse": 4364,
      "bra": 4365,
      "ĠformaciÃ³n": 4366,
      "Ġtormenta": 4367,
      "ĠregresÃ³": 4368,
      "Car": 4369,
      "ĠreÃŃr": 4370,
      "Ġhoja": 4371,
      "ĠsofÃ¡": 4372,
      "Ġdiversos": 4373,
      "ĠÃºltimos": 4374,
      "ĠlogrÃ³": 4375,
      "ner": 4376,
      "Ġconta": 4377,
      "Ġtecn": 4378,
      "trones": 4379,
      "Ġrug": 4380,
      "Ġacos": 4381,
      "Ã©g": 4382,
      "tadora": 4383,
      "Ġtemperatura": 4384,
      "uto": 4385,
      "Ġcondiciones": 4386,
      "Ġfra": 4387,
      "trÃŃa": 4388,
      "Ġsalieron": 4389,
      "Sus": 4390,
      "ĠRoma": 4391,
      "Ġcomunidad": 4392,
      "dal": 4393,
      "ĠbuscÃ³": 4394,
      "Ġhumano": 4395,
      "tistas": 4396,
      "ĠasegurÃ³": 4397,
      "Ġdolor": 4398,
      "ĠMÃŃa": 4399,
      "eropuerto": 4400,
      "Ġbich": 4401,
      "Ġpaci": 4402,
      "ĠRes": 4403,
      "Ġplato": 4404,
      "vuel": 4405,
      "ustra": 4406,
      "Ġfalle": 4407,
      "Ġpudieron": 4408,
      "Ġkm": 4409,
      "Ġsiesta": 4410,
      "Ġmanif": 4411,
      "Ġinstrum": 4412,
      "Ġsecreto": 4413,
      "ĠCons": 4414,
      "Ġdemo": 4415,
      "Ã¡nico": 4416,
      "Ġps": 4417,
      "quis": 4418,
      "ĠBro": 4419,
      "ĠGracias": 4420,
      "ticamente": 4421,
      "ĠdespertÃ³": 4422,
      "ean": 4423,
      "Ġmensa": 4424,
      "Ġtonto": 4425,
      "Ġcuanto": 4426,
      "Ġcompu": 4427,
      "Ġpies": 4428,
      "ĠManuel": 4429,
      "Ġdistancia": 4430,
      "Ġgeneralmente": 4431,
      "Ġobjetos": 4432,
      "ĠJapÃ³n": 4433,
      "dentes": 4434,
      "Ġenter": 4435,
      "ceso": 4436,
      "ĠChar": 4437,
      "Ġnervi": 4438,
      "Ġcueva": 4439,
      "Ġconci": 4440,
      "Ġestoy": 4441,
      "duras": 4442,
      "Ġarras": 4443,
      "Ġnubes": 4444,
      "ĠcumpleaÃ±os": 4445,
      "iver": 4446,
      "Ġequilib": 4447,
      "ĠCab": 4448,
      "Ġusu": 4449,
      "Ġmexicano": 4450,
      "ardo": 4451,
      "Ġ1999": 4452,
      "Ġecu": 4453,
      "Ġesposa": 4454,
      "ĠQuieren": 4455,
      "pes": 4456,
      "Ã±Ã³": 4457,
      "cadas": 4458,
      "Ġcomba": 4459,
      "Ġacom": 4460,
      "imos": 4461,
      "ĠSte": 4462,
      "Ġpuente": 4463,
      "Ġgustaban": 4464,
      "gia": 4465,
      "yeron": 4466,
      "Ġadap": 4467,
      "ĠmÃ¡quina": 4468,
      "arte": 4469,
      "Ġflu": 4470,
      "ĠvenÃŃa": 4471,
      "Ġmayores": 4472,
      "Ġproductor": 4473,
      "Ġservicio": 4474,
      "cidente": 4475,
      "Ġoeste": 4476,
      "Ġhijos": 4477,
      "Ġdientes": 4478,
      "uga": 4479,
      "Ġnaranja": 4480,
      "Ġrepar": 4481,
      "tum": 4482,
      "Ġmetros": 4483,
      "ĠusÃ³": 4484,
      "ĠdaÃ±o": 4485,
      "istente": 4486,
      "Ġdescansar": 4487,
      "Ġnombres": 4488,
      "Ġalegro": 4489,
      "pero": 4490,
      "197": 4491,
      "ĠTienes": 4492,
      "Bob": 4493,
      "ĠNic": 4494,
      "Ġrar": 4495,
      "ĠEnrique": 4496,
      "Ġ185": 4497,
      "Ġcalen": 4498,
      "Ġ2009": 4499,
      "Ġchar": 4500,
      "Ġmaravilloso": 4501,
      "ĠsÃŃn": 4502,
      "Ġ2005": 4503,
      "Ġpeligroso": 4504,
      "Ġservicios": 4505,
      "ĠPu": 4506,
      "ĠVir": 4507,
      "ĠatenciÃ³n": 4508,
      "Ġsaltando": 4509,
      "Ġimp": 4510,
      "Ġrecordar": 4511,
      "Ġdepor": 4512,
      "Ġrespuesta": 4513,
      "Ġ2011": 4514,
      "ĠenojÃ³": 4515,
      "frica": 4516,
      "Ã³l": 4517,
      "ĠDios": 4518,
      "Ġpoeta": 4519,
      "Ġseguridad": 4520,
      "dÃ³n": 4521,
      "san": 4522,
      "tiles": 4523,
      "ĠdÃ³lares": 4524,
      "Ġtales": 4525,
      "ismos": 4526,
      "ĠHizo": 4527,
      "Ġcrecimiento": 4528,
      "Ġcaball": 4529,
      "edor": 4530,
      "Ġaves": 4531,
      "ĠMer": 4532,
      "hu": 4533,
      "Ġdiez": 4534,
      "ĠTor": 4535,
      "Ġnecesita": 4536,
      "Ġefecto": 4537,
      "ĠPan": 4538,
      "ĠPerÃº": 4539,
      "ĠAlgunos": 4540,
      "adora": 4541,
      "Ġdiversas": 4542,
      "Ġdibujos": 4543,
      "Ġfigura": 4544,
      "ware": 4545,
      "Ġfem": 4546,
      "Ġges": 4547,
      "Ġrevis": 4548,
      "Ġcateg": 4549,
      "ĠIII": 4550,
      "ĠHum": 4551,
      "pada": 4552,
      "logo": 4553,
      "ĠquiÃ©n": 4554,
      "Ġ2003": 4555,
      "bla": 4556,
      "Ġchocola": 4557,
      "dero": 4558,
      "Ġemperador": 4559,
      "dirse": 4560,
      "tima": 4561,
      "Ġsuerte": 4562,
      "ayo": 4563,
      "Ġpuerto": 4564,
      "ĠUr": 4565,
      "Ġverano": 4566,
      "Ġdisco": 4567,
      "Ġpone": 4568,
      "Ġcosta": 4569,
      "Mia": 4570,
      "inaron": 4571,
      "Ġmiraba": 4572,
      "ĠGobierno": 4573,
      "tÃŃan": 4574,
      "ĠGra": 4575,
      "tienen": 4576,
      "ĠlÃŃder": 4577,
      "ferencia": 4578,
      "ĠReal": 4579,
      "ĠTras": 4580,
      "Ġnido": 4581,
      "Ġexcep": 4582,
      "ĠsÃ³lo": 4583,
      "ĠNav": 4584,
      "Ġpiloto": 4585,
      "ĠFel": 4586,
      "Ġsociedad": 4587,
      "enario": 4588,
      "ĠQuiere": 4589,
      "iro": 4590,
      "ĠHay": 4591,
      "Ġbotel": 4592,
      "Ġingres": 4593,
      "Ã¡cter": 4594,
      "ĠWilliam": 4595,
      "Ġllo": 4596,
      "Ġpiz": 4597,
      "olÃ³gica": 4598,
      "Ġadop": 4599,
      "ĠFil": 4600,
      "Ġmotor": 4601,
      "Ġentriste": 4602,
      "ĠprÃŃncipe": 4603,
      "volucion": 4604,
      "aje": 4605,
      "tesis": 4606,
      "ĠSegÃºn": 4607,
      "Ġcampe": 4608,
      "Ġox": 4609,
      "ĠestaciÃ³n": 4610,
      "ĠInter": 4611,
      "leza": 4612,
      "Ġperder": 4613,
      "Ġ183": 4614,
      "burgo": 4615,
      "Ġabandon": 4616,
      "Ġconc": 4617,
      "ieran": 4618,
      "ace": 4619,
      "Ġlanz": 4620,
      "Ġ1980": 4621,
      "Ġrelaciones": 4622,
      "Ġministro": 4623,
      "ejas": 4624,
      "blemente": 4625,
      "Ġindustria": 4626,
      "ĠperiÃ³": 4627,
      "Ġasocia": 4628,
      "jarse": 4629,
      "Ġadul": 4630,
      "ÃŃfico": 4631,
      "tagon": 4632,
      "Ġblanca": 4633,
      "ĠSch": 4634,
      "quÃŃa": 4635,
      "Ġteatro": 4636,
      "erosos": 4637,
      "ĠorganizaciÃ³n": 4638,
      "ĠDeseaba": 4639,
      "Ġcla": 4640,
      "ĠbÃ¡s": 4641,
      "Ġimpl": 4642,
      "Ġsimilar": 4643,
      "ames": 4644,
      "bres": 4645,
      "ĠserÃ¡": 4646,
      "Ġquienes": 4647,
      "tÃŃ": 4648,
      "didos": 4649,
      "ĠDÃŃa": 4650,
      "jados": 4651,
      "Ġmala": 4652,
      "Ġtaza": 4653,
      "Ġrespons": 4654,
      "Ġflo": 4655,
      "ĠEllos": 4656,
      "ĠcarÃ¡cter": 4657,
      "Ġtrabaj": 4658,
      "Ġ2012": 4659,
      "len": 4660,
      "Ġ29": 4661,
      "Ġmostrarle": 4662,
      "tiera": 4663,
      "diÃ³s": 4664,
      "196": 4665,
      "damos": 4666,
      "Ġincor": 4667,
      "ĠelÃ©ctri": 4668,
      "Ġafil": 4669,
      "omos": 4670,
      "icados": 4671,
      "Ġ2004": 4672,
      "11": 4673,
      "Ġdaba": 4674,
      "Ġhilo": 4675,
      "ĠDentro": 4676,
      "icidad": 4677,
      "Ġgigante": 4678,
      "Ġbandera": 4679,
      "Ġabrazan": 4680,
      "Ġromper": 4681,
      "cera": 4682,
      "jand": 4683,
      "ĠMac": 4684,
      "Ġinfer": 4685,
      "ĠPos": 4686,
      "ĠcatÃ³l": 4687,
      "ÃŃris": 4688,
      "ĠSiguiÃ³": 4689,
      "ash": 4690,
      "ĠVic": 4691,
      "Historia": 4692,
      "Ġiz": 4693,
      "Ġprov": 4694,
      "Ġpaciente": 4695,
      "ĠRom": 4696,
      "Ġinsta": 4697,
      "Ġenfr": 4698,
      "Ġcuidadosamente": 4699,
      "Ġcompeti": 4700,
      "zz": 4701,
      "ĠSim": 4702,
      "icana": 4703,
      "ĠFu": 4704,
      "Ġclub": 4705,
      "Ġrealizar": 4706,
      "teras": 4707,
      "Mar": 4708,
      "ĠRecog": 4709,
      "Ġdoctor": 4710,
      "iados": 4711,
      "ĠHer": 4712,
      "dura": 4713,
      "Ġgraba": 4714,
      "Ġaprendido": 4715,
      "Ġdisfrutar": 4716,
      "Ġcuya": 4717,
      "?\",": 4718,
      "ides": 4719,
      "wich": 4720,
      "Ġnego": 4721,
      "vieran": 4722,
      "ĠtocÃ³": 4723,
      "ance": 4724,
      "Ġactividades": 4725,
      "Ġign": 4726,
      "Ġquedaron": 4727,
      "ĠMira": 4728,
      "han": 4729,
      "rum": 4730,
      "tano": 4731,
      "ombia": 4732,
      "Ġregiones": 4733,
      "Ġhermanos": 4734,
      "Ġ40": 4735,
      "ĠllorÃ³": 4736,
      "Ġlongitud": 4737,
      "Ġnu": 4738,
      "Ġgris": 4739,
      "ĠRam": 4740,
      "Ġmodif": 4741,
      "Ġproducto": 4742,
      "CÃ³": 4743,
      "Ex": 4744,
      "ĠmÃºsico": 4745,
      "Ġobjetivo": 4746,
      "Ġreloj": 4747,
      "Ġcompor": 4748,
      "ĠInstitu": 4749,
      "berg": 4750,
      "Ġvieja": 4751,
      "Ġaccidental": 4752,
      "Ġespecie": 4753,
      "ĠarcoÃŃris": 4754,
      "Ġfen": 4755,
      "Ġtropas": 4756,
      "Ġcontribu": 4757,
      "Ġescucha": 4758,
      "ĠprÃ¡ctica": 4759,
      "ĠSegunda": 4760,
      "onte": 4761,
      "Ġcurioso": 4762,
      "ucle": 4763,
      "Ġchocolate": 4764,
      "Ġmateria": 4765,
      "Son": 4766,
      "ini": 4767,
      "Ã©ro": 4768,
      "ĠCru": 4769,
      "Ġdismin": 4770,
      "Ġsoy": 4771,
      "lÃ¡": 4772,
      "Ã¡ticos": 4773,
      "ĠmÃ¡gica": 4774,
      "Ġnumer": 4775,
      "ĠjugÃ³": 4776,
      "Ġobtener": 4777,
      "Ġmontar": 4778,
      "ĠComun": 4779,
      "Ġlenguas": 4780,
      "Ġverlo": 4781,
      "Ġcompleto": 4782,
      "ĠeconomÃŃa": 4783,
      "Ġreferencia": 4784,
      "22": 4785,
      "wa": 4786,
      "Ġcollar": 4787,
      "ĠganÃ³": 4788,
      "ĠĠĠĠĠĠĠĠ": 4789,
      "ejo": 4790,
      "Ġextran": 4791,
      "Ġempresa": 4792,
      "joso": 4793,
      "abor": 4794,
      "diciÃ³n": 4795,
      "ificaciÃ³n": 4796,
      "Ġforman": 4797,
      "Ġencontraba": 4798,
      "ĠIncluso": 4799,
      "elas": 4800,
      "Ġsaltaba": 4801,
      "Ġvariedad": 4802,
      "Ġaparece": 4803,
      "Ġclima": 4804,
      "Ġconocer": 4805,
      "ĠcompaÃ±ÃŃa": 4806,
      "Ġposteriormente": 4807,
      "Ġ2001": 4808,
      "Ġfecha": 4809,
      "Ġhierba": 4810,
      "Ġhospital": 4811,
      "ĠbÃº": 4812,
      "Ġinteg": 4813,
      "ĠllenÃ³": 4814,
      "ĠhuyÃ³": 4815,
      "ĠCos": 4816,
      "Ġespon": 4817,
      "ĠDavid": 4818,
      "Ġacar": 4819,
      "ĠEncontrÃ³": 4820,
      "Ġmami": 4821,
      "Ġcoches": 4822,
      "ĠdiversiÃ³n": 4823,
      "Ġadmi": 4824,
      "Ġllevaron": 4825,
      "icha": 4826,
      "Ġturn": 4827,
      "Ġescalera": 4828,
      "Ġcarretera": 4829,
      "Ġinform": 4830,
      "Ġelim": 4831,
      "ĠAlber": 4832,
      "Ġrecuer": 4833,
      "Ġtranquilo": 4834,
      "ks": 4835,
      "Ġsede": 4836,
      "Ġobten": 4837,
      "Ġsatis": 4838,
      "Ġapoy": 4839,
      "Ġenla": 4840,
      "celona": 4841,
      "ĠRey": 4842,
      "ĠVivÃŃa": 4843,
      "Ãºlti": 4844,
      "ĠUnido": 4845,
      "ĠPaul": 4846,
      "ĠlÃŃmi": 4847,
      "Ġsienten": 4848,
      "Ġpobre": 4849,
      "Ġdecl": 4850,
      "ilÃ³": 4851,
      "Ġrin": 4852,
      "piraciÃ³n": 4853,
      "Ġcanasta": 4854,
      "Ġdeber": 4855,
      "ĠcontinuÃ³": 4856,
      "Ġexistencia": 4857,
      "pic": 4858,
      "!\".": 4859,
      "ĠCorrieron": 4860,
      "ĠÃģn": 4861,
      "Ġincluyendo": 4862,
      "Ġtierras": 4863,
      "Ġarmas": 4864,
      "ĠQue": 4865,
      "Ġpiel": 4866,
      "Ġgriego": 4867,
      "Ġelemento": 4868,
      "25": 4869,
      "ese": 4870,
      "lados": 4871,
      "ĠJue": 4872,
      "Ġchil": 4873,
      "Ġ1970": 4874,
      "tiago": 4875,
      "Ġescul": 4876,
      "Ġsup": 4877,
      "Ġaccidentalmente": 4878,
      "ham": 4879,
      "Ġeta": 4880,
      "Ġarquitec": 4881,
      "ĠacciÃ³n": 4882,
      "Ġrocas": 4883,
      "Ġhorno": 4884,
      "tuvieron": 4885,
      "Ġromano": 4886,
      "Ġcomienza": 4887,
      "||": 4888,
      "Ġorilla": 4889,
      "Ġdiscu": 4890,
      "Ġcansado": 4891,
      "rÃ¡neo": 4892,
      "CÃ³mo": 4893,
      "ĠSac": 4894,
      "emo": 4895,
      "Ġllega": 4896,
      "rillo": 4897,
      "bano": 4898,
      "Ġramas": 4899,
      "pÃ³s": 4900,
      "Ġincluye": 4901,
      "Ġlenguaje": 4902,
      "Ġmanzanas": 4903,
      "Ġelefante": 4904,
      "Ġapa": 4905,
      "ÃŃri": 4906,
      "tex": 4907,
      "imientos": 4908,
      "Ġsiete": 4909,
      "Ġcomercial": 4910,
      "Ġactualidad": 4911,
      "Ġincluyen": 4912,
      "Ġconoce": 4913,
      "Ġbi": 4914,
      "turo": 4915,
      "Ġmeta": 4916,
      "ney": 4917,
      "ĠmontÃ³n": 4918,
      "ĠPi": 4919,
      "rasil": 4920,
      "sen": 4921,
      "Ġay": 4922,
      "abe": 4923,
      "itario": 4924,
      "ĠCastilla": 4925,
      "Ġace": 4926,
      "uelas": 4927,
      "fi": 4928,
      "estiv": 4929,
      "ĠJes": 4930,
      "ĠbotÃ³n": 4931,
      "Ġizquier": 4932,
      "ws": 4933,
      "ĠHan": 4934,
      "empla": 4935,
      "pezÃ³": 4936,
      "reo": 4937,
      "Ġdenomina": 4938,
      "demia": 4939,
      "tz": 4940,
      "ĠpareciÃ³": 4941,
      "Ġfavorita": 4942,
      "Ã¨": 4943,
      "ombi": 4944,
      "ĠTed": 4945,
      "Ġletr": 4946,
      "Ġpodido": 4947,
      "Ġgirar": 4948,
      "ĠinterÃ©s": 4949,
      "Ġagradecido": 4950,
      "ĠpelÃŃculas": 4951,
      "Ġnuestros": 4952,
      "gulo": 4953,
      "ebra": 4954,
      "antas": 4955,
      "tres": 4956,
      "Ġpodamos": 4957,
      "Ġperson": 4958,
      "Ġrecibir": 4959,
      "Ġingles": 4960,
      "ĠPremio": 4961,
      "gica": 4962,
      "wn": 4963,
      "ĠaÃ±a": 4964,
      "Ġpata": 4965,
      "Ġconsiderado": 4966,
      "ille": 4967,
      "Ġagri": 4968,
      "Ġposterior": 4969,
      "Ġdivertidas": 4970,
      "Ã¡rselo": 4971,
      "Ġmarca": 4972,
      "Ġdespidieron": 4973,
      "ĠmontaÃ±a": 4974,
      "ĠMas": 4975,
      "Ġsurg": 4976,
      "ĠAbrazÃ³": 4977,
      "Ãºcar": 4978,
      "olÃ³gicos": 4979,
      "Ġpedazo": 4980,
      "ĠcÃ¡mara": 4981,
      "Ġtratando": 4982,
      "Ġactualmente": 4983,
      "Ġtradicional": 4984,
      "ĠBur": 4985,
      "ĠDel": 4986,
      "Ġproven": 4987,
      "Ġencanta": 4988,
      "ĠÎ": 4989,
      "Ġsustitu": 4990,
      "ĠeducaciÃ³n": 4991,
      "ĠMuseo": 4992,
      "Ġgros": 4993,
      "vador": 4994,
      "garita": 4995,
      "Ġserpiente": 4996,
      "ĠAu": 4997,
      "Ġocasiones": 4998,
      "Mi": 4999,
      "Ġformar": 5000,
      "Ġayudado": 5001,
      "ĠconociÃ³": 5002,
      "ĠsÃ¡nd": 5003,
      "ĠEdu": 5004,
      "digo": 5005,
      "ĠJun": 5006,
      "ĠcerrÃ³": 5007,
      "illie": 5008,
      "Ġ2014": 5009,
      "Ġanciana": 5010,
      "Ġilum": 5011,
      "como": 5012,
      "Luc": 5013,
      "Ġvoc": 5014,
      "ĠBe": 5015,
      "ĠRich": 5016,
      "Ġ2002": 5017,
      "ĠJoe": 5018,
      "vierte": 5019,
      "Ġcray": 5020,
      "Ġreempla": 5021,
      "Ġsalu": 5022,
      "Ġliteratura": 5023,
      "Ã¡ndolo": 5024,
      "timos": 5025,
      "parse": 5026,
      "tancias": 5027,
      "Ġpelear": 5028,
      "Ã©ndo": 5029,
      "ĠFa": 5030,
      "Ġabuelo": 5031,
      "Â²": 5032,
      "Ġclaro": 5033,
      "Ġexpan": 5034,
      "tara": 5035,
      "Ġpasto": 5036,
      "ĠlÃŃneas": 5037,
      "Ġ&": 5038,
      "ĠMÃ¡s": 5039,
      "ĠHe": 5040,
      "Ġ1998": 5041,
      "vera": 5042,
      "Ġrecha": 5043,
      "Ġprom": 5044,
      "ĠMag": 5045,
      "ĠAlejand": 5046,
      "Ġcumplen": 5047,
      "ĠEstas": 5048,
      "Ġexac": 5049,
      "Ġalguna": 5050,
      "Ġayudarla": 5051,
      "Ġacerca": 5052,
      "Ġcuriosa": 5053,
      "ĠsÃ¡ndwich": 5054,
      "Ġtib": 5055,
      "ĠAz": 5056,
      "ĠPal": 5057,
      "Ġvueltas": 5058,
      "itan": 5059,
      "nic": 5060,
      "Ġsilen": 5061,
      "Ġmemor": 5062,
      "Ġplata": 5063,
      "Ġcompletamente": 5064,
      "ticia": 5065,
      "Ġgr": 5066,
      "abel": 5067,
      "Ġ1996": 5068,
      "ĠJimmy": 5069,
      "Ġbarcos": 5070,
      "Ġbalonces": 5071,
      "TambiÃ©n": 5072,
      "Ġluna": 5073,
      "chu": 5074,
      "acen": 5075,
      "Ġestados": 5076,
      "Esa": 5077,
      "ĠRusia": 5078,
      "Ġsum": 5079,
      "ĠJenny": 5080,
      "ole": 5081,
      "ĠBan": 5082,
      "ĠEspera": 5083,
      "ĠÃ¡reas": 5084,
      "Ġradi": 5085,
      "Ġredon": 5086,
      "Ġdeseo": 5087,
      "torno": 5088,
      "Ġfinan": 5089,
      "Ġfrancesa": 5090,
      "Ġcalendario": 5091,
      "olo": 5092,
      "Ġdios": 5093,
      "umen": 5094,
      "ĠAbriÃ³": 5095,
      "Ġmiembro": 5096,
      "Ġagradecieron": 5097,
      "Ġnormal": 5098,
      "iblioteca": 5099,
      "decu": 5100,
      "Ġartes": 5101,
      "ĠediciÃ³n": 5102,
      "ĠpublicÃ³": 5103,
      "ĠDecidieron": 5104,
      "yen": 5105,
      "Ġpapa": 5106,
      "Ġcampos": 5107,
      "Ġfunciones": 5108,
      "Ġbonitas": 5109,
      "Ġllorando": 5110,
      "Ġhonor": 5111,
      "80": 5112,
      "ĠDo": 5113,
      "Ġrobo": 5114,
      "âĢĵ": 5115,
      "ĠCorre": 5116,
      "vio": 5117,
      "pone": 5118,
      "Ġsentaron": 5119,
      "Ġimpresion": 5120,
      "partamento": 5121,
      "ĠSaltÃ³": 5122,
      "Ġprofundo": 5123,
      "Ġproteger": 5124,
      "busto": 5125,
      "ricos": 5126,
      "py": 5127,
      "Ġescuchado": 5128,
      "ĠveÃŃan": 5129,
      "Ġhueso": 5130,
      "deral": 5131,
      "Ġrico": 5132,
      "mios": 5133,
      "ĠTraba": 5134,
      "venciÃ³n": 5135,
      "minos": 5136,
      "uno": 5137,
      "ĠLi": 5138,
      "Ġbru": 5139,
      "ĠMc": 5140,
      "vados": 5141,
      "ĠConstitu": 5142,
      "Ġ1997": 5143,
      "Ġliter": 5144,
      "fil": 5145,
      "grafo": 5146,
      "Ġ2013": 5147,
      "Ġocupa": 5148,
      "Ġincorpor": 5149,
      "tente": 5150,
      "Ġaltura": 5151,
      "Ġcapi": 5152,
      "Ġpueda": 5153,
      "Ġnaturales": 5154,
      "Ġhielo": 5155,
      "Ġtrepar": 5156,
      "ĠConse": 5157,
      "Ġvisita": 5158,
      "ĠÃģngel": 5159,
      "ĠPiensa": 5160,
      "ĠbaÃ±": 5161,
      "Ġposi": 5162,
      "ĠelectrÃ³n": 5163,
      "ĠBarcelona": 5164,
      "ĠocurriÃ³": 5165,
      "Ġbotella": 5166,
      "Ġconcl": 5167,
      "ĠGol": 5168,
      "ples": 5169,
      "ĠSantiago": 5170,
      "ĠestÃ¡ndar": 5171,
      "ĠfÃŃsica": 5172,
      "Ġjefe": 5173,
      "Ġart": 5174,
      "Ġmismos": 5175,
      "Ġesconder": 5176,
      "lin": 5177,
      "ni": 5178,
      "Ġunidad": 5179,
      "Ġatribu": 5180,
      "Ġguer": 5181,
      "izado": 5182,
      "Ġprotagon": 5183,
      "ĠestÃ©": 5184,
      "40": 5185,
      "Ġentren": 5186,
      "Ġcasas": 5187,
      "publ": 5188,
      "ĠpÃ¡g": 5189,
      "Ġsuele": 5190,
      "iiiiiiiiiiiiiiii": 5191,
      "zando": 5192,
      "ĠCentro": 5193,
      "ĠmuÃ±eco": 5194,
      "bri": 5195,
      "Ġescudo": 5196,
      "tell": 5197,
      "rarse": 5198,
      "bida": 5199,
      "Ġdirectamente": 5200,
      "Ġnumerosos": 5201,
      "ĠacompaÃ±": 5202,
      "ys": 5203,
      "ĠallÃ¡": 5204,
      "onato": 5205,
      "Ġpersonal": 5206,
      "ĠAgar": 5207,
      "metro": 5208,
      "ĠtÃ©rminos": 5209,
      "ĠnÃºcleo": 5210,
      "Pronto": 5211,
      "ĠDomin": 5212,
      "ĠSegu": 5213,
      "ĠEd": 5214,
      "Ġllamados": 5215,
      "Ġsoleado": 5216,
      "Ġdebes": 5217,
      "Ġsuavemente": 5218,
      "ĠQuiero": 5219,
      "Ġbalde": 5220,
      "ĠinvestigaciÃ³n": 5221,
      "Ġquieres": 5222,
      "Ġponerse": 5223,
      "Ġhubo": 5224,
      "Ġpracti": 5225,
      "orÃŃas": 5226,
      "Ġconcepto": 5227,
      "Ġcohe": 5228,
      "Ġpose": 5229,
      "Ġindependencia": 5230,
      "ben": 5231,
      "Ġdiario": 5232,
      "Ġdesemp": 5233,
      "Ġejemp": 5234,
      "rÃ¡fico": 5235,
      "Ġidioma": 5236,
      "Ġconec": 5237,
      "Ġtradu": 5238,
      "Ġmarco": 5239,
      "Ġfondo": 5240,
      "su": 5241,
      "Ġdob": 5242,
      "ĠAma": 5243,
      "Ġcatal": 5244,
      "Ġcolumpi": 5245,
      "Ġayudara": 5246,
      "Cu": 5247,
      "ĠTri": 5248,
      "Ġgatito": 5249,
      "Ġefectos": 5250,
      "landÃ©s": 5251,
      "rans": 5252,
      "tentos": 5253,
      "ĠBuscÃ³": 5254,
      "ĠeconÃ³mica": 5255,
      "ĠRu": 5256,
      "Ġmatrimonio": 5257,
      "Ġtarje": 5258,
      "Ġobservar": 5259,
      "ĠdiseÃ±o": 5260,
      "dres": 5261,
      "ĠBor": 5262,
      "Ġarque": 5263,
      "Ġolla": 5264,
      "curso": 5265,
      "Ġletrero": 5266,
      "pin": 5267,
      "ĠFer": 5268,
      "Ġdispar": 5269,
      "Pro": 5270,
      "Ġechar": 5271,
      "Ġrevol": 5272,
      "ĠColombia": 5273,
      "Ġfingir": 5274,
      "Ġacarici": 5275,
      "ĠpÃ©r": 5276,
      "ĠBrasil": 5277,
      "Ġcorona": 5278,
      "Ġhorne": 5279,
      "23": 5280,
      "Ġpromo": 5281,
      "Ġimpul": 5282,
      "Ġlimpia": 5283,
      "Ġpasaron": 5284,
      "Ġcadena": 5285,
      "ĠmÃºlti": 5286,
      "teo": 5287,
      "Ġsaluda": 5288,
      "zados": 5289,
      "ĠmovÃŃa": 5290,
      "Ġbes": 5291,
      "icio": 5292,
      "ĠKen": 5293,
      "ĠespectÃ¡": 5294,
      "anismo": 5295,
      "Ġestra": 5296,
      "Ġsociales": 5297,
      "Ġusando": 5298,
      "ĠtradiciÃ³n": 5299,
      "Ġvictoria": 5300,
      "yendo": 5301,
      "ĠcomunicaciÃ³n": 5302,
      "ĠnegÃ³": 5303,
      "cara": 5304,
      "Ġcandida": 5305,
      "Ġinsecto": 5306,
      "ker": 5307,
      "alÃ³": 5308,
      "Ã±Ã³n": 5309,
      "clam": 5310,
      "Ġbastante": 5311,
      "Par": 5312,
      "rista": 5313,
      "Ġhoyo": 5314,
      "ĠEurope": 5315,
      "Ġdivis": 5316,
      "Ġaguas": 5317,
      "Ġcuchara": 5318,
      "ĠDon": 5319,
      "Ġpatos": 5320,
      "Ġarbusto": 5321,
      "ĠcampaÃ±a": 5322,
      "ĠpresiÃ³n": 5323,
      "Ġdisfrutaron": 5324,
      "Ġequipos": 5325,
      "Ġprofunda": 5326,
      "Ġdespe": 5327,
      "Ġautores": 5328,
      "ĠÃģfrica": 5329,
      "Ġalmuerzo": 5330,
      "Ġelig": 5331,
      "tÃ³m": 5332,
      "Ġsiglos": 5333,
      "Ġintentarlo": 5334,
      "Ġtema": 5335,
      "ĠaceptÃ³": 5336,
      "Ġcambios": 5337,
      "Ã¡nica": 5338,
      "empos": 5339,
      "Ġdura": 5340,
      "Ġsabe": 5341,
      "Ġrealiza": 5342,
      "Ġnube": 5343,
      "dicos": 5344,
      "ore": 5345,
      "Ġestatu": 5346,
      "ombra": 5347,
      "Ġcicl": 5348,
      "ĠLin": 5349,
      "moto": 5350,
      "Ġincen": 5351,
      "Ġcinta": 5352,
      "ĠPueden": 5353,
      "Na": 5354,
      "Ġqueda": 5355,
      "amb": 5356,
      "ĠOs": 5357,
      "ther": 5358,
      "net": 5359,
      "Ġabsol": 5360,
      "Ġherramientas": 5361,
      "Ġdeja": 5362,
      "Ã³nimo": 5363,
      "ponÃ©s": 5364,
      "Ġmostra": 5365,
      "Ġlimita": 5366,
      "ll": 5367,
      "Ġdedo": 5368,
      "ĠAp": 5369,
      "ĠBal": 5370,
      "ĠPuede": 5371,
      "Sin": 5372,
      "dÃŃan": 5373,
      "Ġventa": 5374,
      "Ġparal": 5375,
      "posi": 5376,
      "arry": 5377,
      "Ġsangre": 5378,
      "Ġpedazos": 5379,
      "Pa": 5380,
      "isla": 5381,
      "trito": 5382,
      "Ġ2015": 5383,
      "curru": 5384,
      "Timoteo": 5385,
      "ĠTur": 5386,
      "rimiento": 5387,
      "Ġmantenerse": 5388,
      "ĠAca": 5389,
      "Ġ180": 5390,
      "Ġusa": 5391,
      "ĠÃºtil": 5392,
      "Ġentender": 5393,
      "izar": 5394,
      "Ġpropios": 5395,
      "ĠcorrÃŃa": 5396,
      "Ġlimpio": 5397,
      "puestos": 5398,
      "Ġ1960": 5399,
      "Com": 5400,
      "Ġacurru": 5401,
      "Ġenvol": 5402,
      "urÃ³": 5403,
      "Ġmedios": 5404,
      "Ġburbu": 5405,
      "ires": 5406,
      "Ġadecu": 5407,
      "Ġesquina": 5408,
      "Ġcalidad": 5409,
      "ĠazÃºcar": 5410,
      "Ġsecun": 5411,
      "iguieron": 5412,
      "Ġperiodista": 5413,
      "Ġcontiene": 5414,
      "tern": 5415,
      "ĠOc": 5416,
      "tlÃ¡n": 5417,
      "Ġconquista": 5418,
      "Ġrevista": 5419,
      "Ġtorn": 5420,
      "Ġrepresent": 5421,
      "ull": 5422,
      "Ġbajar": 5423,
      "ĠIsrael": 5424,
      "Ġperdon": 5425,
      "ĠPuso": 5426,
      "Ġplaneta": 5427,
      "Ġsemana": 5428,
      "Ġentrada": 5429,
      "fos": 5430,
      "Ġlic": 5431,
      "Ġinicia": 5432,
      "24": 5433,
      "Ġcolombi": 5434,
      "ĠMay": 5435,
      "Ġaumento": 5436,
      "Ġfrutas": 5437,
      "Ġempresas": 5438,
      "?\".": 5439,
      "Ġdistintas": 5440,
      "Ġcalaba": 5441,
      "Ġcultural": 5442,
      "ĠextendiÃ³": 5443,
      "ĠEstoy": 5444,
      "Ġtej": 5445,
      "Ġbusca": 5446,
      "Ġmateriales": 5447,
      "Ġanillo": 5448,
      "ĠvolcÃ¡n": 5449,
      "Ġ1992": 5450,
      "III": 5451,
      "Ġdistintos": 5452,
      "ĠRobert": 5453,
      "Ġcercano": 5454,
      "Ġagradecida": 5455,
      "ilares": 5456,
      "ĠpartÃŃcu": 5457,
      "entas": 5458,
      "Ġamena": 5459,
      "terri": 5460,
      "Ġabraza": 5461,
      "Ġutilizado": 5462,
      "Ġdisfra": 5463,
      "Ġpueblos": 5464,
      "ĠzoolÃ³gico": 5465,
      "estival": 5466,
      "fac": 5467,
      "Ġdecep": 5468,
      "Ġabierto": 5469,
      "osofÃŃa": 5470,
      "ival": 5471,
      "Ġagarr": 5472,
      "Ġencontrarlo": 5473,
      "ĠClub": 5474,
      "ĠlÃ¡p": 5475,
      "ĠCongreso": 5476,
      "Ġutilizan": 5477,
      "Ġdesconoci": 5478,
      "Ġsuelen": 5479,
      "ĠsÃŃmbolo": 5480,
      "ÃŃl": 5481,
      "Ġcontem": 5482,
      "ĠdivisiÃ³n": 5483,
      "Ġrefle": 5484,
      "Ġmicro": 5485,
      "Ġinaug": 5486,
      "Ġneu": 5487,
      "ĠmÃ©todo": 5488,
      "rana": 5489,
      "ĠBra": 5490,
      "Ġruso": 5491,
      "Ġsalida": 5492,
      "Ġtiempos": 5493,
      "Ã¡mica": 5494,
      "Ġnucle": 5495,
      "igue": 5496,
      "izada": 5497,
      "ĠJames": 5498,
      "Ġpreguntar": 5499,
      "Ġprodujo": 5500,
      "Ġtexto": 5501,
      "ĠsonreÃŃr": 5502,
      "Ġbio": 5503,
      "ĠBea": 5504,
      "ĠHici": 5505,
      "ĠSuper": 5506,
      "ĠjaponÃ©s": 5507,
      "Ġenfer": 5508,
      "ĠLisa": 5509,
      "portun": 5510,
      "rÃ©": 5511,
      "Ġtuviera": 5512,
      "Ġpropiedades": 5513,
      "Ġvecino": 5514,
      "ipe": 5515,
      "ment": 5516,
      "ania": 5517,
      "ĠtÃŃm": 5518,
      "Ġacercaba": 5519,
      "Ġfruta": 5520,
      "Ġconstante": 5521,
      "Ġ2020": 5522,
      "Ġfuentes": 5523,
      "Ġdivertida": 5524,
      "ĠNew": 5525,
      "Ġpiscina": 5526,
      "Ġtru": 5527,
      "Ġpega": 5528,
      "ĠsoÃ±": 5529,
      "Ġresultados": 5530,
      "21": 5531,
      "Ġocho": 5532,
      "Ġpintar": 5533,
      "Ġcelebra": 5534,
      "Ġmilitares": 5535,
      "Ġrepro": 5536,
      "ĠGeneral": 5537,
      "Ġabrigo": 5538,
      "rus": 5539,
      "ĠtÃ©": 5540,
      "ĠAus": 5541,
      "ĠPel": 5542,
      "ĠsentÃŃan": 5543,
      "Ġinfan": 5544,
      "Ġmordis": 5545,
      "Ġbuenas": 5546,
      "'s": 5547,
      "int": 5548,
      "ĠdiseÃ±": 5549,
      "ĠCen": 5550,
      "ĠMil": 5551,
      "ĠRÃŃo": 5552,
      "TomÃ¡s": 5553,
      "Ġelegido": 5554,
      "icul": 5555,
      "ĠConsejo": 5556,
      "Em": 5557,
      "rantes": 5558,
      "ĠPablo": 5559,
      "ĠManch": 5560,
      "Ġconsecuencia": 5561,
      "into": 5562,
      "Ġmunicipal": 5563,
      "Ġtratamiento": 5564,
      "Ġcomercio": 5565,
      "Ġalfombra": 5566,
      "Ġconcentra": 5567,
      "queta": 5568,
      "Ġmediados": 5569,
      "Ġ2016": 5570,
      "ĠMed": 5571,
      "Ġvolaba": 5572,
      "Ġ1995": 5573,
      "Ġ2018": 5574,
      "Ġador": 5575,
      "Ġsele": 5576,
      "Ġanteriores": 5577,
      "Ġ1994": 5578,
      "Ġerror": 5579,
      "ĠrÃŃen": 5580,
      "Ġaca": 5581,
      "Ġobstante": 5582,
      "dam": 5583,
      "ĠperdiÃ³": 5584,
      "ĠEr": 5585,
      "ispo": 5586,
      "Ġjus": 5587,
      "Ġfrontera": 5588,
      "tn": 5589,
      "Ġaeropuerto": 5590,
      "Ã³vil": 5591,
      "Ġsuje": 5592,
      "Ġcantando": 5593,
      "Ġterminaron": 5594,
      "Ġgalleta": 5595,
      "Ch": 5596,
      "Ġfib": 5597,
      "Ġprotes": 5598,
      "ĠrealizÃ³": 5599,
      "ĠCatal": 5600,
      "Ġcuidadoso": 5601,
      "ĠcÃ¡lida": 5602,
      "ftware": 5603,
      "ux": 5604,
      "Ġ+": 5605,
      "abezas": 5606,
      "Ġvideo": 5607,
      "Ġx": 5608,
      "inte": 5609,
      "Ġotor": 5610,
      "Ġove": 5611,
      "Ġoportun": 5612,
      "Ġmiel": 5613,
      "ĠcreÃ³": 5614,
      "Ã³so": 5615,
      "ĠJorge": 5616,
      "Ġabog": 5617,
      "Ġmejorar": 5618,
      "ĠesperÃ³": 5619,
      "jeras": 5620,
      "undaciÃ³n": 5621,
      "ĠfenÃ³m": 5622,
      "Ġrit": 5623,
      "andy": 5624,
      "Ġlocales": 5625,
      "Ġprovincias": 5626,
      "Ġpicnic": 5627,
      "ĠbÃºho": 5628,
      "inario": 5629,
      "Ġaltas": 5630,
      "dimiento": 5631,
      "ĠMen": 5632,
      "60": 5633,
      "ĠPon": 5634,
      "Ġmulti": 5635,
      "ume": 5636,
      "Ġcangre": 5637,
      "Ġrecom": 5638,
      "Ġaplaudieron": 5639,
      "ĠGon": 5640,
      "rup": 5641,
      "Ġinmediato": 5642,
      "Ġbocadillos": 5643,
      "ges": 5644,
      "Ġalcal": 5645,
      "ĠhabrÃŃa": 5646,
      "ĠLeo": 5647,
      "Ġ2019": 5648,
      "Ġpira": 5649,
      "ionales": 5650,
      "pecabezas": 5651,
      "umas": 5652,
      "Ġvivieron": 5653,
      "ĠGarcÃŃa": 5654,
      "tÃ©n": 5655,
      "Ġgal": 5656,
      "Ġpate": 5657,
      "ĠEmily": 5658,
      "Ġoccidental": 5659,
      "ĠdescubriÃ³": 5660,
      "Ġguardar": 5661,
      "imismo": 5662,
      "ĠPuerto": 5663,
      "Ġreglas": 5664,
      "Ġ31": 5665,
      "ĠrÃ¡pida": 5666,
      "Ġrompecabezas": 5667,
      "Ġesperando": 5668,
      "cultura": 5669,
      "ĊĠ": 5670,
      "Ġentus": 5671,
      "Ġ1993": 5672,
      "Ġborde": 5673,
      "rida": 5674,
      "Ġgo": 5675,
      "ise": 5676,
      "Ġ()": 5677,
      "ĠhacÃŃan": 5678,
      "Ġcarga": 5679,
      "Ġcrisis": 5680,
      "Ġgobernador": 5681,
      "ĠGeorge": 5682,
      "Luego": 5683,
      "ĠLan": 5684,
      "ĠanÃ¡lisis": 5685,
      "ĠHabÃŃan": 5686,
      "ony": 5687,
      "ĠLey": 5688,
      "Ġobservaba": 5689,
      "Ġsuficientemente": 5690,
      "enca": 5691,
      "chi": 5692,
      "ĠPh": 5693,
      "ĠBre": 5694,
      "Ġtercera": 5695,
      "ĠtÃ©cnicas": 5696,
      "Ġdando": 5697,
      "Ã¡ndez": 5698,
      "Ġvenir": 5699,
      "ĠSen": 5700,
      "ĠVan": 5701,
      "ĠmaÃŃz": 5702,
      "Ã¡pidamente": 5703,
      "Ġideas": 5704,
      "Ġpersonajes": 5705,
      "Ġelegante": 5706,
      "Ġzanahorias": 5707,
      "lia": 5708,
      "Ġ1989": 5709,
      "Ġprocesos": 5710,
      "ijo": 5711,
      "tible": 5712,
      "Ġposee": 5713,
      "ington": 5714,
      "Ġpeso": 5715,
      "Ġhumana": 5716,
      "Ġlanza": 5717,
      "teros": 5718,
      "ĠNeces": 5719,
      "Ġrefug": 5720,
      "Ġtitu": 5721,
      "Ġadqui": 5722,
      "Ġniveles": 5723,
      "Ġguitarra": 5724,
      "Ġcuel": 5725,
      "tig": 5726,
      "Ġantiguos": 5727,
      "Ġcircun": 5728,
      "ĠLondres": 5729,
      "Ġposibilidad": 5730,
      "Ġterre": 5731,
      "ĠfilÃ³so": 5732,
      "Ġpersonaje": 5733,
      "ĠTeddy": 5734,
      "Ay": 5735,
      "cien": 5736,
      "Ã³nica": 5737,
      "use": 5738,
      "tore": 5739,
      "Ġemocionante": 5740,
      "ĠWil": 5741,
      "Ġ1991": 5742,
      "Molly": 5743,
      "ĠsalÃŃa": 5744,
      "Ġries": 5745,
      "davÃŃa": 5746,
      "Ġcontentos": 5747,
      "Ġmed": 5748,
      "Ġarru": 5749,
      "ĠHon": 5750,
      "ĠespecÃŃf": 5751,
      "fonso": 5752,
      "ĠInstituto": 5753,
      "ĠcÃ©": 5754,
      "ĠLor": 5755,
      "Ġacab": 5756,
      "Ġpelaje": 5757,
      "Ġcriatura": 5758,
      "Ġnumerosas": 5759,
      "Ġvoy": 5760,
      "vento": 5761,
      "Ġ60": 5762,
      "Ġterritorios": 5763,
      "ĠCopa": 5764,
      "Ġextremo": 5765,
      "anti": 5766,
      "Ġriendo": 5767,
      "Ġfrecuencia": 5768,
      "ĠPrimera": 5769,
      "ĠEdad": 5770,
      "ĠDu": 5771,
      "Ġcamisa": 5772,
      "Ġherman": 5773,
      "Am": 5774,
      "jara": 5775,
      "ere": 5776,
      "Ġmetro": 5777,
      "poco": 5778,
      "Ġmusical": 5779,
      "Sal": 5780,
      "ĠÃŃn": 5781,
      "Ġconvierte": 5782,
      "ĠTÃº": 5783,
      "Ġhaya": 5784,
      "Ġpensar": 5785,
      "Ġamplia": 5786,
      "Ġsonidos": 5787,
      "Ġestadounidenses": 5788,
      "cita": 5789,
      "Ġpatas": 5790,
      "Ġargu": 5791,
      "Ġexplorando": 5792,
      "Ġinferior": 5793,
      "pira": 5794,
      "iller": 5795,
      "ĠÃĵ": 5796,
      "ĠdÃ©bil": 5797,
      "ĠjudÃŃos": 5798,
      "Ġveg": 5799,
      "viÃ©tica": 5800,
      "Ġcortar": 5801,
      "ĠAndr": 5802,
      "Ġconocimiento": 5803,
      "Ġdeliciosos": 5804,
      "Ġclases": 5805,
      "Ġjaula": 5806,
      "Ġdeten": 5807,
      "esiÃ³n": 5808,
      "ĠespÃŃri": 5809,
      "Ġexterior": 5810,
      "Ġtomaron": 5811,
      "ĠtÃŃp": 5812,
      "Ġfacil": 5813,
      "ood": 5814,
      "Ġhones": 5815,
      "Ġtercer": 5816,
      "Ġamarilla": 5817,
      "ĠdevolviÃ³": 5818,
      "Ġautom": 5819,
      "195": 5820,
      "Ġpaloma": 5821,
      "ĠMedi": 5822,
      "ĠalejÃ³": 5823,
      "Ġalimentos": 5824,
      "mita": 5825,
      "ime": 5826,
      "bios": 5827,
      "EstÃ¡s": 5828,
      "Ġcristal": 5829,
      "Ġdecepcion": 5830,
      "rismo": 5831,
      "erme": 5832,
      "peraciÃ³n": 5833,
      "Ġciencia": 5834,
      "tomo": 5835,
      "ĠBos": 5836,
      "Ġemi": 5837,
      "Ġtrom": 5838,
      "ĠbritÃ¡nica": 5839,
      "Ġprima": 5840,
      "itud": 5841,
      "Ã³f": 5842,
      "rama": 5843,
      "Entre": 5844,
      "ĠArm": 5845,
      "Ġpropiedad": 5846,
      "ĠJake": 5847,
      "leta": 5848,
      "ÃŃsimo": 5849,
      "ĠâĢĵ": 5850,
      "Ġelegir": 5851,
      "ĠentristeciÃ³": 5852,
      "fas": 5853,
      "ĠmetiÃ³": 5854,
      "Ġmedicina": 5855,
      "Ġsabio": 5856,
      "idi": 5857,
      "erales": 5858,
      "ĠpermitiÃ³": 5859,
      "Ġolvidar": 5860,
      "Ġafirma": 5861,
      "Ġzanahoria": 5862,
      "Ġconfiable": 5863,
      "Ġartifici": 5864,
      "Oye": 5865,
      "Tien": 5866,
      "ĠaraÃ±a": 5867,
      "Ġseman": 5868,
      "icadas": 5869,
      "Ġproto": 5870,
      "Ġdirigida": 5871,
      "Ġconflicto": 5872,
      "jame": 5873,
      "Ġcuarto": 5874,
      "Ġselva": 5875,
      "teles": 5876,
      "leo": 5877,
      "Ġnacimiento": 5878,
      "Ġlibertad": 5879,
      "Ġopin": 5880,
      "Ġignor": 5881,
      "Ġrobot": 5882,
      "ĠvÃŃ": 5883,
      "ĠEj": 5884,
      "Ġdescen": 5885,
      "Ġdespla": 5886,
      "rasile": 5887,
      "Ġcartas": 5888,
      "Ġfamoso": 5889,
      "ĠkilÃ³": 5890,
      "Ġamistoso": 5891,
      "ind": 5892,
      "iverso": 5893,
      "mens": 5894,
      "Ġpeludo": 5895,
      "Ġasustados": 5896,
      "Ġpartidos": 5897,
      "Seg": 5898,
      "jÃ³n": 5899,
      "remos": 5900,
      "Ġaleja": 5901,
      "ĠDem": 5902,
      "tencia": 5903,
      "Ġverla": 5904,
      "ĠAllÃŃ": 5905,
      "uestra": 5906,
      "Ġtransporte": 5907,
      "Ã©roe": 5908,
      "Ġdejando": 5909,
      "Ġviene": 5910,
      "Ġmarcha": 5911,
      "ĠChris": 5912,
      "Ġformado": 5913,
      "Ġcaminaban": 5914,
      "cilla": 5915,
      "Ġobserva": 5916,
      "Ġcuidadosa": 5917,
      "peci": 5918,
      "ĠJean": 5919,
      "Ġexig": 5920,
      "Ġartista": 5921,
      "Ġguion": 5922,
      "ĠJul": 5923,
      "Ġfundamental": 5924,
      "ĠespectÃ¡culo": 5925,
      "Ese": 5926,
      "Ġrebo": 5927,
      "tamientos": 5928,
      "Ġreser": 5929,
      "Ġcampana": 5930,
      "ĠFueron": 5931,
      "pirÃ³": 5932,
      "ĠPala": 5933,
      "Ġacciones": 5934,
      "Ġcrecer": 5935,
      "ĠpolÃŃticos": 5936,
      "Ġmonedas": 5937,
      "ĠFelipe": 5938,
      "Ġmordisco": 5939,
      "Ġfas": 5940,
      "Ġescala": 5941,
      "Ġcereb": 5942,
      "Ġfrances": 5943,
      "Ġprueba": 5944,
      "Ġsalvaje": 5945,
      "29": 5946,
      "Ġlobo": 5947,
      "Ġpocos": 5948,
      "ĠcÃ³digo": 5949,
      "ÃŃda": 5950,
      "Ġrestos": 5951,
      "Ġpreguntaron": 5952,
      "Ġsentimos": 5953,
      "SegÃºn": 5954,
      "americ": 5955,
      "ĠEse": 5956,
      "ilio": 5957,
      "ĠValle": 5958,
      "Ġquitar": 5959,
      "ĠraÃŃz": 5960,
      "Ġintercam": 5961,
      "Ġcontrario": 5962,
      "ĠeconÃ³mico": 5963,
      "Ġego": 5964,
      "ele": 5965,
      "Ġsopl": 5966,
      "puedo": 5967,
      "Ġfemen": 5968,
      "ĠNos": 5969,
      "ĠNue": 5970,
      "Ġtrasla": 5971,
      "Ġmac": 5972,
      "Ġdicha": 5973,
      "adÃ¡": 5974,
      "ĠfÃŃsico": 5975,
      "Ġdispu": 5976,
      "Ġcercan": 5977,
      "Ġcreado": 5978,
      "gipto": 5979,
      "Ġcent": 5980,
      "Ġrevel": 5981,
      "Ġrodilla": 5982,
      "Ġinterac": 5983,
      "ederaciÃ³n": 5984,
      "ĠPin": 5985,
      "Ġcarne": 5986,
      "Ġpoderoso": 5987,
      "Ġatrapado": 5988,
      "Ġmensaje": 5989,
      "rosa": 5990,
      "Ġpico": 5991,
      "anÃŃa": 5992,
      "anca": 5993,
      "Ġlam": 5994,
      "Ġsean": 5995,
      "ĠAires": 5996,
      "landes": 5997,
      "iforn": 5998,
      "Ġfuturo": 5999,
      "Ġdescubrir": 6000,
      "Ġsostuvo": 6001,
      "Ġoscura": 6002,
      "ĠAgarrÃ³": 6003,
      "vadas": 6004,
      "ĠrÃŃos": 6005,
      "Ġplano": 6006,
      "Ġderecha": 6007,
      "iores": 6008,
      "Ġsucio": 6009,
      "Ġinvas": 6010,
      "Ġhabla": 6011,
      "cionalmente": 6012,
      "Ã±aba": 6013,
      "Ġchis": 6014,
      "ĠPaÃŃs": 6015,
      "uye": 6016,
      "Ġbasura": 6017,
      "Ġutilizar": 6018,
      "Ġ179": 6019,
      "istad": 6020,
      "ĠMargarita": 6021,
      "Ġusaba": 6022,
      "Ġponen": 6023,
      "Ġ1979": 6024,
      "Ġnega": 6025,
      "ĠAlejandro": 6026,
      "Ġdetener": 6027,
      "Ġregu": 6028,
      "bita": 6029,
      "Ġrota": 6030,
      "Ġapres": 6031,
      "Ġescrito": 6032,
      "Ġpesado": 6033,
      "Ġganado": 6034,
      "Ġresolver": 6035,
      "28": 6036,
      "Ġfis": 6037,
      "ĠMit": 6038,
      "ĠconsiguiÃ³": 6039,
      "puestas": 6040,
      "ustria": 6041,
      "ĠCruz": 6042,
      "reros": 6043,
      "Ġconsol": 6044,
      "Ġ1982": 6045,
      "Ġenojados": 6046,
      "ĠgolpeÃ³": 6047,
      "bÃºs": 6048,
      "Ġesque": 6049,
      "ĠfÃ³s": 6050,
      "Ġhormiga": 6051,
      "TA": 6052,
      "ĠpÃºblica": 6053,
      "gados": 6054,
      "Ġ1984": 6055,
      "Ġtemas": 6056,
      "Ġmoderno": 6057,
      "Ġfinanci": 6058,
      "Ġarma": 6059,
      "Ġamigable": 6060,
      "Ġsoldados": 6061,
      "inastÃŃa": 6062,
      "Ġsombra": 6063,
      "Ġruidoso": 6064,
      "ĠHacen": 6065,
      "Ġrecuperar": 6066,
      "Vaya": 6067,
      "izaciones": 6068,
      "Ġmovimientos": 6069,
      "Ġhuevos": 6070,
      "Ġizquierda": 6071,
      "Ġcomieron": 6072,
      "ĠAlfonso": 6073,
      "villa": 6074,
      "Ġdon": 6075,
      "Ġtrabajos": 6076,
      "mado": 6077,
      "Ġconden": 6078,
      "tenta": 6079,
      "ĠFlor": 6080,
      "Ġmasco": 6081,
      "Ġnombrado": 6082,
      "ĠmatemÃ¡ticas": 6083,
      "viendo": 6084,
      "torn": 6085,
      "ĠSamuel": 6086,
      "Ġprogramas": 6087,
      "Ġataque": 6088,
      "Ġcharco": 6089,
      "tuales": 6090,
      "ezuela": 6091,
      "ĠVi": 6092,
      "ĠVie": 6093,
      "Ġresca": 6094,
      "Ġ80": 6095,
      "Ġalum": 6096,
      "Ġ2017": 6097,
      "ĠbalÃ³n": 6098,
      "Ġmusul": 6099,
      "tyle": 6100,
      "inal": 6101,
      "194": 6102,
      "Ġfalta": 6103,
      "Ġpizza": 6104,
      "ĠegoÃŃs": 6105,
      "Ġflex": 6106,
      "ĠPac": 6107,
      "tens": 6108,
      "ĠVa": 6109,
      "Ġcoron": 6110,
      "Ġbuf": 6111,
      "Ġimportaba": 6112,
      "Ġdeliciosas": 6113,
      "ĠCuba": 6114,
      "Ġrebel": 6115,
      "Ġlanzar": 6116,
      "Ġmoderna": 6117,
      "Como": 6118,
      "Tras": 6119,
      "Ġsaco": 6120,
      "Ġdeslizarse": 6121,
      "ĠBuenos": 6122,
      "27": 6123,
      "ecciÃ³n": 6124,
      "inados": 6125,
      "Ġusado": 6126,
      "ĠTodo": 6127,
      "Ã³logo": 6128,
      "ĠÃ¡rabe": 6129,
      "Ġmisteri": 6130,
      "Ġpresentan": 6131,
      "arrÃ³n": 6132,
      "Ġpesca": 6133,
      "Ġinteresante": 6134,
      "Ġunif": 6135,
      "bado": 6136,
      "Ġregal": 6137,
      "Ġpolvo": 6138,
      "Ġproducir": 6139,
      "Ġescapar": 6140,
      "Ġpalacio": 6141,
      "Ġcrayones": 6142,
      "istir": 6143,
      "Ġdefini": 6144,
      "Ġpruebas": 6145,
      "Ġtemporada": 6146,
      "tÃ©l": 6147,
      "Ġpesada": 6148,
      "ĠcÃŃrculo": 6149,
      "Ġaspecto": 6150,
      "Ġdedos": 6151,
      "istiÃ³": 6152,
      "ĠHoy": 6153,
      "Ġvuelve": 6154,
      "Ġlevantar": 6155,
      "ĠtÃºn": 6156,
      "didas": 6157,
      "Ġdesp": 6158,
      "Ġtecho": 6159,
      "Ġ1986": 6160,
      "Ġenem": 6161,
      "ĠDie": 6162,
      "Ġexist": 6163,
      "ĠenseÃ±ar": 6164,
      "sh": 6165,
      "Ġclar": 6166,
      "iras": 6167,
      "dador": 6168,
      "Ġacceso": 6169,
      "Ġsitio": 6170,
      "Ġimper": 6171,
      "Ġacercarse": 6172,
      "ĠMur": 6173,
      "quia": 6174,
      "Ġsintiera": 6175,
      "ĠmoviÃ³": 6176,
      "ĠapariciÃ³n": 6177,
      "tiende": 6178,
      "Ġcalabaza": 6179,
      "sula": 6180,
      "ĠlÃ¡m": 6181,
      "ĠAragÃ³n": 6182,
      "izan": 6183,
      "Ġverdes": 6184,
      "Ġasintieron": 6185,
      "Ġesperaba": 6186,
      "Ġregistra": 6187,
      "Ġedificios": 6188,
      "Ġ2021": 6189,
      "garon": 6190,
      "Ġdecre": 6191,
      "ĠEspon": 6192,
      "Ġpagar": 6193,
      "ulos": 6194,
      "Ġfueran": 6195,
      "Ġsolar": 6196,
      "ĠCompar": 6197,
      "Ġtibur": 6198,
      "Ġsilencio": 6199,
      "Ġcohete": 6200,
      "blo": 6201,
      "Ġfro": 6202,
      "Ġbeso": 6203,
      "Ġjugador": 6204,
      "Ãºme": 6205,
      "ĠFor": 6206,
      "reno": 6207,
      "Ġ1973": 6208,
      "josa": 6209,
      "iensan": 6210,
      "Ġball": 6211,
      "ĠOri": 6212,
      "QuiÃ©n": 6213,
      "ĠmÃ¡ximo": 6214,
      "ĠRichard": 6215,
      "mula": 6216,
      "ari": 6217,
      "Ġjoy": 6218,
      "Ġcoinci": 6219,
      "Ġvalores": 6220,
      "ĠdistribuciÃ³n": 6221,
      "Ġnutri": 6222,
      "Cada": 6223,
      "edes": 6224,
      "Ġalterna": 6225,
      "elada": 6226,
      "ĠWal": 6227,
      "Ã¡rsela": 6228,
      "Ġencen": 6229,
      "Ġpron": 6230,
      "olÃ³gicas": 6231,
      "Ġpublicado": 6232,
      "her": 6233,
      "charon": 6234,
      "ivas": 6235,
      "ĠTengo": 6236,
      "Ġ1950": 6237,
      "ĠexpresiÃ³n": 6238,
      "Ġbrasile": 6239,
      "Ġestante": 6240,
      "peta": 6241,
      "Ġvistazo": 6242,
      "Tengo": 6243,
      "ĠkilÃ³metros": 6244,
      "Ã¡g": 6245,
      "Ġinus": 6246,
      "Ġmedir": 6247,
      "Ġvalle": 6248,
      "Ġcomunes": 6249,
      "ĠmolÃ©": 6250,
      "vor": 6251,
      "Ġprado": 6252,
      "uncia": 6253,
      "Ġesos": 6254,
      "ĠEgipto": 6255,
      "Ġbola": 6256,
      "Ġolas": 6257,
      "ĠdivirtiÃ©ndose": 6258,
      "Ġnecesario": 6259,
      "Ġ1985": 6260,
      "Ġlucha": 6261,
      "ĠObser": 6262,
      "Ġhip": 6263,
      "Ã©ticos": 6264,
      "Ġtrajo": 6265,
      "ĠTenemos": 6266,
      "apones": 6267,
      "ĠautobÃºs": 6268,
      "Ġarroyo": 6269,
      "mith": 6270,
      "fra": 6271,
      "Ġpist": 6272,
      "Ġjab": 6273,
      "ural": 6274,
      "bun": 6275,
      "nie": 6276,
      "Ġdom": 6277,
      "Ġbre": 6278,
      "Ġasoci": 6279,
      "ivamente": 6280,
      "Ġconcier": 6281,
      "cidas": 6282,
      "Ġunidades": 6283,
      "Ġregular": 6284,
      "Ġartistas": 6285,
      "Ġequival": 6286,
      "Ġcontacto": 6287,
      "amble": 6288,
      "ĠLlor": 6289,
      "Ġdelf": 6290,
      "Ġperros": 6291,
      "ĠUno": 6292,
      "ĠAlgunas": 6293,
      "ĠHis": 6294,
      "Ġaviones": 6295,
      "ĠartÃŃculo": 6296,
      "Ã©gimen": 6297,
      "Ġarquitectura": 6298,
      "Ġcuello": 6299,
      "mu": 6300,
      "ĠÃ©s": 6301,
      "ĠreligiÃ³n": 6302,
      "ctores": 6303,
      "Ġescondite": 6304,
      "ĠHicieron": 6305,
      "ĠmÃŃn": 6306,
      "Ġcho": 6307,
      "ĠsensaciÃ³n": 6308,
      "Ġtos": 6309,
      "Ġnoches": 6310,
      "ĠagitÃ³": 6311,
      "193": 6312,
      "Ġamistad": 6313,
      "Ġvaria": 6314,
      "Ġcansada": 6315,
      "ĠatÃ³m": 6316,
      "entaciÃ³n": 6317,
      "tirÃ³": 6318,
      "Ġintegra": 6319,
      "Ġâ": 6320,
      "Ġsonriendo": 6321,
      "Ġmapa": 6322,
      "Ġobtuvo": 6323,
      "ĠAnd": 6324,
      "Ġtorno": 6325,
      "Ġdefen": 6326,
      "Ġfotos": 6327,
      "Ġllover": 6328,
      "dÃ©m": 6329,
      "iri": 6330,
      "way": 6331,
      "Ġjapones": 6332,
      "Ġnadando": 6333,
      "Ġsexual": 6334,
      "Ġetapa": 6335,
      "ĠBern": 6336,
      "Ġcable": 6337,
      "ĠespaÃ±oles": 6338,
      "Ġmuertos": 6339,
      "Ġdificul": 6340,
      "Ġbalance": 6341,
      "Ġleyes": 6342,
      "Ġcambiar": 6343,
      "Ġexplo": 6344,
      "Ġritmo": 6345,
      "estas": 6346,
      "Ella": 6347,
      "Ġllamaba": 6348,
      "Ġhermosas": 6349,
      "culares": 6350,
      "Ġaquellos": 6351,
      "Ġtravieso": 6352,
      "ĠvÃŃa": 6353,
      "ĠâĢĺ": 6354,
      "Ġpreocupada": 6355,
      "grim": 6356,
      "ĠSil": 6357,
      "Ġbene": 6358,
      "ĠPlan": 6359,
      "Ġhaberse": 6360,
      "ĠfilosofÃŃa": 6361,
      "lamento": 6362,
      "ĠofreciÃ³": 6363,
      "Ġcangrejo": 6364,
      "ĠTro": 6365,
      "Ġhipo": 6366,
      "Ġneer": 6367,
      "Ġexperiencia": 6368,
      "26": 6369,
      "iencias": 6370,
      "Ġang": 6371,
      "ĠIndia": 6372,
      "Ġsentarse": 6373,
      "Ġ2022": 6374,
      "ĠadministraciÃ³n": 6375,
      "ĠGritÃ³": 6376,
      "Jo": 6377,
      "zones": 6378,
      "ĠtirÃ³": 6379,
      "Ġfantas": 6380,
      "Ġhacerla": 6381,
      "ĠcomprÃ³": 6382,
      "alizar": 6383,
      "Ġ178": 6384,
      "Ġmezcla": 6385,
      "Ġrecursos": 6386,
      "mÃ¡n": 6387,
      "Ġmando": 6388,
      "Ã¡i": 6389,
      "Ã©tri": 6390,
      "ĠselecciÃ³n": 6391,
      "cran": 6392,
      "ventos": 6393,
      "Ġ1988": 6394,
      "Ġ1975": 6395,
      "Ġpantalla": 6396,
      "Ġmemoria": 6397,
      "Ġentusias": 6398,
      "Ġ<": 6399,
      "Ġdesem": 6400,
      "venes": 6401,
      "Ġcontenido": 6402,
      "Ġcierto": 6403,
      "ĠdesapareciÃ³": 6404,
      "ĠtÃºnel": 6405,
      "oras": 6406,
      "ĠLÃ³": 6407,
      "ĠBas": 6408,
      "Ġespar": 6409,
      "Ġexpor": 6410,
      "ĠRÃ¡pidamente": 6411,
      "Ġverduras": 6412,
      "Ġinternacionales": 6413,
      "ĠVolviÃ³": 6414,
      "Ġrefrigerador": 6415,
      "mm": 6416,
      "ĠaÃ©": 6417,
      "Ġalmo": 6418,
      "Ġquis": 6419,
      "Ġapenas": 6420,
      "Ġbarri": 6421,
      "ĠevoluciÃ³n": 6422,
      "Ġabre": 6423,
      "ĠhÃºme": 6424,
      "Ġvid": 6425,
      "ĠgustarÃŃa": 6426,
      "Ġllegada": 6427,
      "Ġgrado": 6428,
      "ĠMedia": 6429,
      "Ġaltos": 6430,
      "iertos": 6431,
      "ÃŃnsula": 6432,
      "Ġasiento": 6433,
      "Ġsoftware": 6434,
      "ecieron": 6435,
      "Ġescenario": 6436,
      "Ġpresente": 6437,
      "ity": 6438,
      "Ġbeber": 6439,
      "Ven": 6440,
      "Ġsusur": 6441,
      "Ġveh": 6442,
      "ĠentendÃŃa": 6443,
      "Ġequilibrio": 6444,
      "jus": 6445,
      "laron": 6446,
      "Ġaterri": 6447,
      "Ġplu": 6448,
      "ĠMiraron": 6449,
      "emas": 6450,
      "ĠLee": 6451,
      "Ġ1983": 6452,
      "Ġtronco": 6453,
      "Ġraro": 6454,
      "Ġmerm": 6455,
      "Ġlej": 6456,
      "ondequiera": 6457,
      "ĠvacÃŃo": 6458,
      "Ġhal": 6459,
      "Ġansi": 6460,
      "ĠdecisiÃ³n": 6461,
      "Ġvivir": 6462,
      "hibi": 6463,
      "ĠPeter": 6464,
      "Ġtig": 6465,
      "Ġdesarrollar": 6466,
      "Ġdestacan": 6467,
      "Ġterremoto": 6468,
      "Jos": 6469,
      "ricas": 6470,
      "Ġdesf": 6471,
      "Ġgrave": 6472,
      "ĠCorren": 6473,
      "Ġ1930": 6474,
      "Ġocupada": 6475,
      "ĠtÃ©cnica": 6476,
      "Ġinsectos": 6477,
      "ĠConstituciÃ³n": 6478,
      "NU": 6479,
      "iona": 6480,
      "Ġvitore": 6481,
      "Ġsacar": 6482,
      "Ġinicio": 6483,
      "ianos": 6484,
      "Ã³venes": 6485,
      "Ġalivia": 6486,
      "cher": 6487,
      "Ġprol": 6488,
      "Tommy": 6489,
      "Ġplumas": 6490,
      "Ġesfuerzo": 6491,
      "Ġpacientes": 6492,
      "ĠcategorÃŃa": 6493,
      "au": 6494,
      "Ġstyle": 6495,
      "ÃŃna": 6496,
      "Ġrepubl": 6497,
      "Ġaprendieron": 6498,
      "Ġsuaves": 6499,
      "Ġsenta": 6500,
      "Ġlab": 6501,
      "Ġescla": 6502,
      "Ġsabor": 6503,
      "Ġtabla": 6504,
      "Ġ70": 6505,
      "Ġdivertidos": 6506,
      "Ġinvierno": 6507,
      "ure": 6508,
      "aste": 6509,
      "Ġportug": 6510,
      "ĠestableciÃ³": 6511,
      "Ġbelleza": 6512,
      "igna": 6513,
      "ĠAlex": 6514,
      "ĠÃ³pera": 6515,
      "ĠparticipaciÃ³n": 6516,
      "SA": 6517,
      "The": 6518,
      "ĠlingÃ¼": 6519,
      "Ġcis": 6520,
      "Ġcomiendo": 6521,
      "ĠjarrÃ³n": 6522,
      "Ġcae": 6523,
      "Ġresbal": 6524,
      "erman": 6525,
      "ave": 6526,
      "ĠtrabajÃ³": 6527,
      "Ġ1981": 6528,
      "Ġ1945": 6529,
      "Ġestablecer": 6530,
      "Ġcircu": 6531,
      "ĠseÃ±alÃ³": 6532,
      "mentar": 6533,
      "Ġhabilidad": 6534,
      "Ġama": 6535,
      "Ġdisc": 6536,
      "Ġpresion": 6537,
      "Ġposteriores": 6538,
      "ĠcaminÃ³": 6539,
      "ĠHace": 6540,
      "ĠRecogiÃ³": 6541,
      "fera": 6542,
      "Ġtum": 6543,
      "iense": 6544,
      "Ġdestino": 6545,
      "ĠJac": 6546,
      "yuda": 6547,
      "ĠalcanzÃ³": 6548,
      "ĠcrÃŃtica": 6549,
      "olÃŃ": 6550,
      "Ġestuvieron": 6551,
      "Ġnecesidad": 6552,
      "ĠpolÃŃticas": 6553,
      "valu": 6554,
      "Ġbenefici": 6555,
      "Ġmelo": 6556,
      "Ġdimin": 6557,
      "Ġalmoh": 6558,
      "llo": 6559,
      "ĠtÃŃo": 6560,
      "ĠAra": 6561,
      "ĠIV": 6562,
      "Ġraton": 6563,
      "ĠMartin": 6564,
      "Ġdefensa": 6565,
      "ĠhistÃ³rico": 6566,
      "eal": 6567,
      "ong": 6568,
      "Ġhomb": 6569,
      "Ġnacionales": 6570,
      "Ġvalientes": 6571,
      "ĠGonz": 6572,
      "Pap": 6573,
      "cionar": 6574,
      "ĠpÃ©rdida": 6575,
      "Ġreti": 6576,
      "Ġasiente": 6577,
      "ĠemociÃ³n": 6578,
      "Ġtemb": 6579,
      "Ġpropias": 6580,
      "ĠplÃ¡": 6581,
      "ĠcuÃ¡nto": 6582,
      "istros": 6583,
      "Ġimpac": 6584,
      "Ġpensaba": 6585,
      "menes": 6586,
      "Ġmunicipios": 6587,
      "ĠEstu": 6588,
      "ĠLou": 6589,
      "ĠTuvieron": 6590,
      "Ġferro": 6591,
      "70": 6592,
      "Ġgritaron": 6593,
      "Ġindica": 6594,
      "Ġdisculpas": 6595,
      "ĠEsperaba": 6596,
      "Soy": 6597,
      "jera": 6598,
      "ericano": 6599,
      "Ġtemplo": 6600,
      "Ġpaisa": 6601,
      "ĠpartÃŃculas": 6602,
      "Ġestr": 6603,
      "ĠIS": 6604,
      "Ġ1987": 6605,
      "Ġperfecta": 6606,
      "Ġsemanas": 6607,
      "Ab": 6608,
      "cÃ³n": 6609,
      "Ġmel": 6610,
      "Ġmul": 6611,
      "copio": 6612,
      "Ġresistencia": 6613,
      "key": 6614,
      "ĠVenezuela": 6615,
      "ĠrepresentaciÃ³n": 6616,
      "Ġqueremos": 6617,
      "tologÃŃa": 6618,
      "ĠfrÃŃa": 6619,
      "Ġfase": 6620,
      "ÃŃsticos": 6621,
      "ĠAnti": 6622,
      "Ġabogado": 6623,
      "Per": 6624,
      "Ġconcha": 6625,
      "ĠMos": 6626,
      "ĠmuriÃ³": 6627,
      "Ġconsu": 6628,
      "Ġvecinos": 6629,
      "ĠquÃŃmica": 6630,
      "rich": 6631,
      "ĠEscri": 6632,
      "Ġreno": 6633,
      "ĠprotecciÃ³n": 6634,
      "Ã©is": 6635,
      "Ġpaque": 6636,
      "ĠRex": 6637,
      "Ġtomado": 6638,
      "ĠlastimÃ³": 6639,
      "entÃŃa": 6640,
      "Ġamamos": 6641,
      "Ġespal": 6642,
      "Ġquie": 6643,
      "ĠAsia": 6644,
      "ĠPaz": 6645,
      "ĠjÃ³venes": 6646,
      "ĠNor": 6647,
      "Ġapla": 6648,
      "Ġmiran": 6649,
      "Jug": 6650,
      "Ġvolviera": 6651,
      "Ġpicante": 6652,
      "Ġtarjeta": 6653,
      "ID": 6654,
      "paron": 6655,
      "Ġpiensa": 6656,
      "Ġintentaron": 6657,
      "Ġterminado": 6658,
      "Ġcorreo": 6659,
      "Ġestructuras": 6660,
      "Ġrueda": 6661,
      "ĠLÃ³pez": 6662,
      "Ġparedes": 6663,
      "bito": 6664,
      "Ġencantaban": 6665,
      "ive": 6666,
      "Ġalegraron": 6667,
      "Ãºsque": 6668,
      "Ġtortug": 6669,
      "ĠcontinuaciÃ³n": 6670,
      "ĠlÃŃqu": 6671,
      "ĠtecnologÃŃa": 6672,
      "Ġbicho": 6673,
      "ĠAcademia": 6674,
      "esÃŃa": 6675,
      "Ġvon": 6676,
      "LucÃŃa": 6677,
      "Ġdejado": 6678,
      "olas": 6679,
      "ĠFo": 6680,
      "Ġcorriente": 6681,
      "Ġrecib": 6682,
      "ĠTuvo": 6683,
      "ĠMiran": 6684,
      "sor": 6685,
      "ĠmÃŃo": 6686,
      "Ġnor": 6687,
      "Ġseco": 6688,
      "Ġfol": 6689,
      "ĠBlan": 6690,
      "Ġlograr": 6691,
      "Ġenfermedades": 6692,
      "Ġescaleras": 6693,
      "imas": 6694,
      "izÃ³": 6695,
      "Aunque": 6696,
      "Bien": 6697,
      "tÃ©": 6698,
      "ĠCul": 6699,
      "Ġpreten": 6700,
      "Ġescuelas": 6701,
      "ĠParecÃŃa": 6702,
      "Ġambiente": 6703,
      "Ġsecundar": 6704,
      "Ġmermelada": 6705,
      "Ġaliv": 6706,
      "ili": 6707,
      "Ġcaras": 6708,
      "ĠInf": 6709,
      "ĠIndepen": 6710,
      "ĠaplicaciÃ³n": 6711,
      "st": 6712,
      "Ġespada": 6713,
      "Ġagreg": 6714,
      "Ġrecibe": 6715,
      "IB": 6716,
      "dice": 6717,
      "Ġdejaron": 6718,
      "est": 6719,
      "ĠSmith": 6720,
      "Ġolor": 6721,
      "Ġconocidos": 6722,
      "ĠextensiÃ³n": 6723,
      "Cam": 6724,
      "ĠMic": 6725,
      "ĠVolÃ³": 6726,
      "Ġpopulares": 6727,
      "ĠÃ¡ngel": 6728,
      "Ġ1974": 6729,
      "Ġsimilares": 6730,
      "Ġoperaciones": 6731,
      "ĠCharles": 6732,
      "ĠAustral": 6733,
      "mall": 6734,
      "misiÃ³n": 6735,
      "tÃºa": 6736,
      "Ġesas": 6737,
      "Ġdic": 6738,
      "Ġdipl": 6739,
      "Ġgara": 6740,
      "ĠEspaÃ±": 6741,
      "Ġcastell": 6742,
      "Ġfabrica": 6743,
      "Ġaman": 6744,
      "ĠrÃ©gimen": 6745,
      "ĠÃ¡m": 6746,
      "ĠKar": 6747,
      "itaria": 6748,
      "Ġestudiar": 6749,
      "ĠCentral": 6750,
      "ĠvehÃŃcu": 6751,
      "gÃ¼": 6752,
      "ĠbÃºsque": 6753,
      "Ġtratado": 6754,
      "ĠclasificaciÃ³n": 6755,
      "Ġcomportamiento": 6756,
      "li": 6757,
      "Ġlabor": 6758,
      "Ġdiag": 6759,
      "ĠTodavÃŃa": 6760,
      "ĠestarÃŃa": 6761,
      "Ġdinosa": 6762,
      "Ġacus": 6763,
      "Ġpieza": 6764,
      "ĠcomposiciÃ³n": 6765,
      "Ġprobablemente": 6766,
      "ĠreacciÃ³n": 6767,
      "Ġvela": 6768,
      "Ġcongel": 6769,
      "Ġprop": 6770,
      "cÃ³mo": 6771,
      "ĠOrden": 6772,
      "Ġcompuesto": 6773,
      "Ġsosteniendo": 6774,
      "uÃ±a": 6775,
      "Ġded": 6776,
      "ÃŃnas": 6777,
      "tinas": 6778,
      "Ġdeterm": 6779,
      "alista": 6780,
      "ĠTrans": 6781,
      "terrÃ¡neo": 6782,
      "Ġsalvar": 6783,
      "Ġmanda": 6784,
      "Ġpreguntas": 6785,
      "Ġterres": 6786,
      "ĠdisfrutÃ³": 6787,
      "raelÃŃ": 6788,
      "Ġreales": 6789,
      "Ġcasco": 6790,
      "Ġdisposi": 6791,
      "ĠWa": 6792,
      "Ġplatos": 6793,
      "Ġconvirtieron": 6794,
      "crata": 6795,
      "ĠespÃŃritu": 6796,
      "drÃ¡": 6797,
      "eando": 6798,
      "ĠInd": 6799,
      "tinos": 6800,
      "ĠNaciones": 6801,
      "Ġindustrial": 6802,
      "Ġestim": 6803,
      "ĠMÃ¡": 6804,
      "ĠMarcos": 6805,
      "ĠCasa": 6806,
      "Ġcolumpiarse": 6807,
      "yn": 6808,
      "ĠPen": 6809,
      "ĠBru": 6810,
      "Ġtubo": 6811,
      "Ġinfl": 6812,
      "ĠvivÃŃan": 6813,
      "Ġhablando": 6814,
      "bana": 6815,
      "rome": 6816,
      "ÃŃgeno": 6817,
      "Ġentidad": 6818,
      "Ġrequier": 6819,
      "ĠDondequiera": 6820,
      "Ġexpul": 6821,
      "taria": 6822,
      "porÃ¡n": 6823,
      "Ġtampoco": 6824,
      "Ġpiano": 6825,
      "Ġ1976": 6826,
      "Ġminerales": 6827,
      "Ġdoble": 6828,
      "amÃ©rica": 6829,
      "Ġgar": 6830,
      "Ġtax": 6831,
      "Ġ1978": 6832,
      "ĠlÃ¡grim": 6833,
      "ĠlÃ¡grimas": 6834,
      "Ġtasa": 6835,
      "ĠPÃ©": 6836,
      "Ġlogra": 6837,
      "Ġtengas": 6838,
      "ĠSaliÃ³": 6839,
      "Ġactuar": 6840,
      "Ġcep": 6841,
      "ĠperiÃ³dico": 6842,
      "Ġriesgo": 6843,
      "itaba": 6844,
      "Ġsentado": 6845,
      "ĠlatÃŃn": 6846,
      "Ġperez": 6847,
      "Ġabrieron": 6848,
      "ĠNobel": 6849,
      "Ġcalif": 6850,
      "Algun": 6851,
      "mol": 6852,
      "orado": 6853,
      "Ġflau": 6854,
      "Ġdicta": 6855,
      "Ġbiblioteca": 6856,
      "Ġojo": 6857,
      "Ġdesas": 6858,
      "ĠencontrÃ©": 6859,
      "ubio": 6860,
      "Ġperteneci": 6861,
      "Ġforta": 6862,
      "ĠfilÃ³sofo": 6863,
      "Hay": 6864,
      "onÃŃa": 6865,
      "ĠdiÃ¡": 6866,
      "Ġacce": 6867,
      "Ã¡ndole": 6868,
      "ĠaplaudiÃ³": 6869,
      "culas": 6870,
      "Ġtijeras": 6871,
      "ĠRevoluciÃ³n": 6872,
      "ĠvisiÃ³n": 6873,
      "ĠcÃŃrculos": 6874,
      "Ġcaballero": 6875,
      "cla": 6876,
      "Ġcontex": 6877,
      "Ġcaz": 6878,
      "Ġbasada": 6879,
      "Ġexamen": 6880,
      "uros": 6881,
      "Ġlocaliz": 6882,
      "ĠCampe": 6883,
      "Ġdescubrimiento": 6884,
      "Ġoficiales": 6885,
      "Ġcruz": 6886,
      "Ġcocinar": 6887,
      "amblea": 6888,
      "mÃ¡tica": 6889,
      "Ġversiones": 6890,
      "Ġconfir": 6891,
      "Ġutilizando": 6892,
      "Ġgrosero": 6893,
      "78": 6894,
      "gin": 6895,
      "Ġcorrecto": 6896,
      "ĠoperaciÃ³n": 6897,
      "Ġinver": 6898,
      "Ġpeligro": 6899,
      "ĠsÃ¡": 6900,
      "Ġesco": 6901,
      "Ġcontaba": 6902,
      "Ġexam": 6903,
      "ĠHam": 6904,
      "Ġsolici": 6905,
      "Ġweb": 6906,
      "Ġbufanda": 6907,
      "Ġec": 6908,
      "ganizaciÃ³n": 6909,
      "ĠSanto": 6910,
      "ĠGuad": 6911,
      "Ġargentina": 6912,
      "Ġcomputadora": 6913,
      "Ġchileno": 6914,
      "hab": 6915,
      "Ġhalla": 6916,
      "Ġbac": 6917,
      "Ġplaza": 6918,
      "ĠindÃŃ": 6919,
      "Ã§": 6920,
      "ĠcÃ¡n": 6921,
      "Ġfus": 6922,
      "ienten": 6923,
      "Ġespejo": 6924,
      "egio": 6925,
      "Ġfines": 6926,
      "Ġcintur": 6927,
      "ĠCÃ³r": 6928,
      "Ġllamar": 6929,
      "Ġcoco": 6930,
      "Ġfamilias": 6931,
      "Ġluch": 6932,
      "ĠPodÃŃa": 6933,
      "Ġocupado": 6934,
      "gor": 6935,
      "Ġuniverso": 6936,
      "Ġleal": 6937,
      "Ġaplicaciones": 6938,
      "Ġfactores": 6939,
      "Dis": 6940,
      "Mu": 6941,
      "Ġrepe": 6942,
      "Ġano": 6943,
      "ĠVas": 6944,
      "ĠsoluciÃ³n": 6945,
      "ĠgeneraciÃ³n": 6946,
      "Ġconform": 6947,
      "Ġciclo": 6948,
      "Ġoportunidad": 6949,
      "ĠbÃºsqueda": 6950,
      "35": 6951,
      "varon": 6952,
      "Ġef": 6953,
      "lez": 6954,
      "Ġrealizado": 6955,
      "fru": 6956,
      "tÃº": 6957,
      "ĠAy": 6958,
      "Ġpeg": 6959,
      "Ġexitos": 6960,
      "Ġ1948": 6961,
      "Ġnegra": 6962,
      "Ġdistingu": 6963,
      "Ġsituado": 6964,
      "Ġcarbono": 6965,
      "ĠegoÃŃsta": 6966,
      "Tu": 6967,
      "eÃ³": 6968,
      "ordÃ³": 6969,
      "Ġconcre": 6970,
      "Ġmang": 6971,
      "ĠWin": 6972,
      "Ġbuscaba": 6973,
      "Ġgritar": 6974,
      "ĠguardÃ³": 6975,
      "ĠdefiniciÃ³n": 6976,
      "Ġsemillas": 6977,
      "fÃ©": 6978,
      "ford": 6979,
      "uana": 6980,
      "Ġteniendo": 6981,
      "ĠHel": 6982,
      "ĠmuchÃŃsimo": 6983,
      "Ġcarrito": 6984,
      "Ġavergonzado": 6985,
      "ichael": 6986,
      "Ġtop": 6987,
      "ĠVilla": 6988,
      "Ġromana": 6989,
      "ĠFrank": 6990,
      "Ġsignificado": 6991,
      "ĠharÃŃa": 6992,
      "ĠCÃ¡": 6993,
      "Ãºl": 6994,
      "lesias": 6995,
      "Ġ1977": 6996,
      "ĠdÃ©cadas": 6997,
      "Ġocurre": 6998,
      "stein": 6999,
      "mentaciÃ³n": 7000,
      "ifornia": 7001,
      "aboraciÃ³n": 7002,
      "ella": 7003,
      "didad": 7004,
      "ĠoÃŃr": 7005,
      "Ġcaba": 7006,
      "Ġtram": 7007,
      "Ġpuertas": 7008,
      "tomos": 7009,
      "Ġpresidencia": 7010,
      "Ġtrabajadores": 7011,
      "Pre": 7012,
      "cipl": 7013,
      "iosos": 7014,
      "ĠdivertÃŃan": 7015,
      "Ġ1968": 7016,
      "Ġmascul": 7017,
      "Ġrespectivamente": 7018,
      "idu": 7019,
      "lÃ¡m": 7020,
      "Ġdedic": 7021,
      "Ġcentros": 7022,
      "ĠenseÃ±Ã³": 7023,
      "Ġaris": 7024,
      "Ġoper": 7025,
      "Ġmuerto": 7026,
      "ĠsonrÃŃen": 7027,
      "ĠcientÃŃfico": 7028,
      "ĠMartÃŃnez": 7029,
      "citos": 7030,
      "Ġtarea": 7031,
      "ĠFred": 7032,
      "rue": 7033,
      "Ġcomienzo": 7034,
      "ĠpenÃŃnsula": 7035,
      "Ġsatisfe": 7036,
      "ĠlÃ¡piz": 7037,
      "Ġencog": 7038,
      "tiza": 7039,
      "ĠOro": 7040,
      "Ġpertenece": 7041,
      "ĠComunidad": 7042,
      "ĠlÃŃmite": 7043,
      "Ġburbujas": 7044,
      "ku": 7045,
      "rey": 7046,
      "Ġsugi": 7047,
      "ienda": 7048,
      "trales": 7049,
      "versiÃ³n": 7050,
      "Ġhistoriador": 7051,
      "Ġalmacen": 7052,
      "Ġprofesor": 7053,
      "Ġexclus": 7054,
      "plas": 7055,
      "ĠSÃ³lo": 7056,
      "Ġfelicidad": 7057,
      "ĠpresentÃ³": 7058,
      "Ġllegado": 7059,
      "cripciÃ³n": 7060,
      "Ġ1967": 7061,
      "Ġlastimado": 7062,
      "ĠcolecciÃ³n": 7063,
      "amientos": 7064,
      "ĠEdi": 7065,
      "Ġdivertir": 7066,
      "Ġmonum": 7067,
      "cepciÃ³n": 7068,
      "Ġ1972": 7069,
      "crip": 7070,
      "Ġantiguas": 7071,
      "tugal": 7072,
      "Ġcombate": 7073,
      "Ġcolombiano": 7074,
      "picos": 7075,
      "ĠdinastÃŃa": 7076,
      "erÃ³n": 7077,
      "Ġpris": 7078,
      "domin": 7079,
      "Ġsuma": 7080,
      "ĠLuna": 7081,
      "turi": 7082,
      "Ġancho": 7083,
      "Ġromanos": 7084,
      "Ġazules": 7085,
      "Ġtemperaturas": 7086,
      "Ġoriental": 7087,
      "taÃ±a": 7088,
      "Ġquedaba": 7089,
      "Ġpuedan": 7090,
      "Ġsobrevi": 7091,
      "Ġgenera": 7092,
      "Ġmalos": 7093,
      "Ġ150": 7094,
      "Ġaprove": 7095,
      "ĠIsabel": 7096,
      "Ġmuseo": 7097,
      "tulos": 7098,
      "Ġempa": 7099,
      "Ġalimentar": 7100,
      "Ġabsor": 7101,
      "Ġapor": 7102,
      "doba": 7103,
      "ticias": 7104,
      "capa": 7105,
      "pados": 7106,
      "Ġprofesional": 7107,
      "Ġinstituciones": 7108,
      "Ġacogedor": 7109,
      "ĠradiaciÃ³n": 7110,
      "PapÃ¡": 7111,
      "Ġola": 7112,
      "ĠCO": 7113,
      "vita": 7114,
      "Ġcaminaron": 7115,
      "Ġmomentos": 7116,
      "ĠSoviÃ©tica": 7117,
      "ĠexpansiÃ³n": 7118,
      "Ġinusual": 7119,
      "BS": 7120,
      "cuela": 7121,
      "ĠsatÃ©l": 7122,
      "Ġ1969": 7123,
      "Ġarquite": 7124,
      "Ġprogres": 7125,
      "tÃ¡l": 7126,
      "ĠSusie": 7127,
      "Ġpreocupado": 7128,
      "Ġoficina": 7129,
      "ĠcolocÃ³": 7130,
      "ĠBolivia": 7131,
      "ĠmÃ©todos": 7132,
      "ĠcabaÃ±a": 7133,
      "ĠhÃ©roe": 7134,
      "Ġfero": 7135,
      "usal": 7136,
      "Ġllevado": 7137,
      "ĠelecciÃ³n": 7138,
      "Ġ90": 7139,
      "ĠoxÃŃgeno": 7140,
      "Ġespalda": 7141,
      "of": 7142,
      "Ġpac": 7143,
      "one": 7144,
      "Ġtendr": 7145,
      "Ġveter": 7146,
      "Ġdescubierto": 7147,
      "ĠFernÃ¡ndez": 7148,
      "Ġmuestran": 7149,
      "Ġdominio": 7150,
      "ualidad": 7151,
      "Ġsome": 7152,
      "Ġtambor": 7153,
      "Ġespacial": 7154,
      "Ġinmig": 7155,
      "Ġeti": 7156,
      "Ġcomerciales": 7157,
      "Ġtradicionales": 7158,
      "Ġdesaparecido": 7159,
      "ĠLlam": 7160,
      "ĠHistoria": 7161,
      "ĠquitÃ³": 7162,
      "Ġgraci": 7163,
      "regor": 7164,
      "Ġconsiderada": 7165,
      "Ġmante": 7166,
      "amanca": 7167,
      "ogrÃ¡f": 7168,
      "Ġhechos": 7169,
      "Ġtranspor": 7170,
      "Ġprobarlo": 7171,
      "ĠharÃ¡": 7172,
      "Ġagricultura": 7173,
      "align": 7174,
      "Ġsober": 7175,
      "Ġsiguen": 7176,
      "Ġsubieron": 7177,
      "bert": 7178,
      "Ġadultos": 7179,
      "ĠLen": 7180,
      "Ġgl": 7181,
      "ĠBri": 7182,
      "terias": 7183,
      "Ġatrac": 7184,
      "Ġ1940": 7185,
      "Ġhuir": 7186,
      "ĠdeclarÃ³": 7187,
      "Ġinstrumentos": 7188,
      "Ġsar": 7189,
      "Ġasc": 7190,
      "Ġprepara": 7191,
      "Ġpudieran": 7192,
      "Ġnormalmente": 7193,
      "grÃ¡fica": 7194,
      "ĠmamÃ¡s": 7195,
      "Ġflauta": 7196,
      "Ã³tesis": 7197,
      "Ġmutu": 7198,
      "ĠCanadÃ¡": 7199,
      "ungrÃŃa": 7200,
      "ĠEuropea": 7201,
      "OS": 7202,
      "ick": 7203,
      "Ġorques": 7204,
      "Ġtransmi": 7205,
      "Ġactuales": 7206,
      "Ã¡ndola": 7207,
      "Ġgaraje": 7208,
      "Ġcombus": 7209,
      "Ġinde": 7210,
      "Ġexpe": 7211,
      "ĠrespiraciÃ³n": 7212,
      "Ġescena": 7213,
      "uraciÃ³n": 7214,
      "iosa": 7215,
      "unciÃ³": 7216,
      "Ġentorno": 7217,
      "Ġhun": 7218,
      "rican": 7219,
      "oles": 7220,
      "Ġ1920": 7221,
      "Ġmotivo": 7222,
      "ĠOtros": 7223,
      "Ġdensidad": 7224,
      "istema": 7225,
      "ĠmÃ¡r": 7226,
      "ĠjabÃ³n": 7227,
      "Ġjal": 7228,
      "Ġtrabajaron": 7229,
      "Ġproducen": 7230,
      "Ġcomerci": 7231,
      "Ġcompleta": 7232,
      "polit": 7233,
      "Ġtransform": 7234,
      "Ġtigre": 7235,
      "uras": 7236,
      "rador": 7237,
      "Ġvolumen": 7238,
      "Ġdesarrolla": 7239,
      "ĠGrande": 7240,
      "Ġlastimar": 7241,
      "ĠGrecia": 7242,
      "Ġpsic": 7243,
      "ĠVirgen": 7244,
      "ĠtiburÃ³n": 7245,
      "Da": 7246,
      "ĠJuntos": 7247,
      "Ġoruga": 7248,
      "Ġmojado": 7249,
      "ĠagrÃŃ": 7250,
      "Ġgrita": 7251,
      "Ġbasado": 7252,
      "Ġeuropeos": 7253,
      "fortun": 7254,
      "AdemÃ¡s": 7255,
      "Ayuda": 7256,
      "Man": 7257,
      "form": 7258,
      "timo": 7259,
      "ridos": 7260,
      "ĠTes": 7261,
      "Ġperm": 7262,
      "Ġaccidente": 7263,
      "Ġobispo": 7264,
      "Ġrefiere": 7265,
      "Ġintentaba": 7266,
      "Ġesconderse": 7267,
      "Ġdeman": 7268,
      "Ġrele": 7269,
      "Ġtopo": 7270,
      "Ġabejas": 7271,
      "Ġmagia": 7272,
      "ĠautÃ³n": 7273,
      "Ġgrieg": 7274,
      "Ġurban": 7275,
      "ashington": 7276,
      "pÃ³sito": 7277,
      "Ġrecomp": 7278,
      "Ġfranceses": 7279,
      "pica": 7280,
      "Ġseca": 7281,
      "leto": 7282,
      "entaron": 7283,
      "inato": 7284,
      "Ġmedidas": 7285,
      "Ġsendero": 7286,
      "Ġciervo": 7287,
      "âĢĿ,": 7288,
      "Ġcristianos": 7289,
      "ĠmÃºltiples": 7290,
      "65": 7291,
      "Ġ:": 7292,
      "Ġeventos": 7293,
      "arro": 7294,
      "estruc": 7295,
      "ezol": 7296,
      "Ġmetales": 7297,
      "ĠSonrÃŃ": 7298,
      "lula": 7299,
      "Ġcuadro": 7300,
      "Ġmaravillosa": 7301,
      "Ġrodeaba": 7302,
      "Ġcomponentes": 7303,
      "ĠCosta": 7304,
      "ĠlÃ¡s": 7305,
      "ortun": 7306,
      "ĠTi": 7307,
      "Ġcorto": 7308,
      "Ġrock": 7309,
      "ĠbajÃ³": 7310,
      "Ġconvertirse": 7311,
      "scar": 7312,
      "dol": 7313,
      "Ġala": 7314,
      "Ġperrito": 7315,
      "ĠcambiÃ³": 7316,
      "Ġasegurarse": 7317,
      "Ġaspectos": 7318,
      "Deb": 7319,
      "ciles": 7320,
      "tudes": 7321,
      "Ġcanad": 7322,
      "Ġcomenzado": 7323,
      "Ġaventur": 7324,
      "oroeste": 7325,
      "ĠPacÃŃfico": 7326,
      "we": 7327,
      "Ġais": 7328,
      "Ġarbus": 7329,
      "Ġimporta": 7330,
      "rores": 7331,
      "ĠuniÃ³": 7332,
      "ĠPier": 7333,
      "Ġnueve": 7334,
      "Ġconsigo": 7335,
      "ĠCorea": 7336,
      "Ġfrustra": 7337,
      "Ġasustaron": 7338,
      "Ġ1964": 7339,
      "Ġrelativamente": 7340,
      "Ġhiciste": 7341,
      "ĠiniciÃ³": 7342,
      "Ġmaestro": 7343,
      "Ġconvertir": 7344,
      "usalÃ©n": 7345,
      "ÃŃfer": 7346,
      "Ġfri": 7347,
      "dea": 7348,
      "Ġelectrones": 7349,
      "Ġhiciera": 7350,
      "Ġconvertido": 7351,
      "ĠreuniÃ³n": 7352,
      "ĠempujÃ³": 7353,
      "brica": 7354,
      "Ġdrama": 7355,
      "ense": 7356,
      "Ġalign": 7357,
      "Ġpayas": 7358,
      "ĠÃ¡tomos": 7359,
      "Ġcierta": 7360,
      "ĠmontaÃ±as": 7361,
      "ĠtÃŃa": 7362,
      "Ġdiam": 7363,
      "Ġbara": 7364,
      "Ġ(\"": 7365,
      "Ġrum": 7366,
      "ĠIr": 7367,
      "Ġvolun": 7368,
      "Ġagre": 7369,
      "ĠinterpretaciÃ³n": 7370,
      "Ã³rmula": 7371,
      "Ġdenominado": 7372,
      "arÃ¡": 7373,
      "Ġamigas": 7374,
      "pular": 7375,
      "Tienes": 7376,
      "encial": 7377,
      "ĠRosa": 7378,
      "idal": 7379,
      "ĠisraelÃŃ": 7380,
      "Ġescondido": 7381,
      "Ġmezclar": 7382,
      "ĠBrown": 7383,
      "DÃ³nde": 7384,
      "Ġatas": 7385,
      "ĠnaciÃ³n": 7386,
      "Ġconde": 7387,
      "ĠcaÃŃda": 7388,
      "Ġmag": 7389,
      "Ġsencil": 7390,
      "ĠPortugal": 7391,
      "Ġconducir": 7392,
      "Ġsignificaba": 7393,
      "Ġejerci": 7394,
      "Ġdurm": 7395,
      "Ġpistola": 7396,
      "Ġratoncito": 7397,
      "Ġevento": 7398,
      "Ġcajas": 7399,
      "ĠUnidas": 7400,
      "Ġbayas": 7401,
      "Ġcerrar": 7402,
      "ĠSalamanca": 7403,
      "Ġconstruido": 7404,
      "ĠJose": 7405,
      "ianza": 7406,
      "Ġreinado": 7407,
      "trato": 7408,
      "Ġ1971": 7409,
      "ĠXV": 7410,
      "Ġorganizar": 7411,
      "ĠThomas": 7412,
      "illermo": 7413,
      "NE": 7414,
      "Ġgranero": 7415,
      "ĠtendrÃŃa": 7416,
      "Ġcree": 7417,
      "ĠValencia": 7418,
      "Prim": 7419,
      "Ġdetal": 7420,
      "erse": 7421,
      "Ġalar": 7422,
      "Ġdesign": 7423,
      "ĠmisiÃ³n": 7424,
      "ĠnaciÃ³": 7425,
      "Ġbuscaron": 7426,
      "Ġdiferencias": 7427,
      "Ġenfo": 7428,
      "Ġepiso": 7429,
      "ĠJuegos": 7430,
      "Ġaliviado": 7431,
      "75": 7432,
      "ĠuniÃ³n": 7433,
      "Ġgla": 7434,
      "diera": 7435,
      "Ġasum": 7436,
      "tarios": 7437,
      "ĠFri": 7438,
      "Ġintentando": 7439,
      "ĠdenominaciÃ³n": 7440,
      "Ġmueve": 7441,
      "Ġmascota": 7442,
      "tades": 7443,
      "tita": 7444,
      "ĠMel": 7445,
      "Ġtrapo": 7446,
      "ting": 7447,
      "ĠpertenecÃŃa": 7448,
      "ĠMichael": 7449,
      "igas": 7450,
      "Ġletra": 7451,
      "Ġpros": 7452,
      "ĠdesarrollÃ³": 7453,
      "ĠRod": 7454,
      "Ġnavegar": 7455,
      "cracia": 7456,
      "Ġingenier": 7457,
      "45": 7458,
      "Lle": 7459,
      "Ġreform": 7460,
      "ĠTratado": 7461,
      "caban": 7462,
      "Âª": 7463,
      "Ġpista": 7464,
      "inaria": 7465,
      "ĠoposiciÃ³n": 7466,
      "Ġdescar": 7467,
      "ĠGab": 7468,
      "ĠsueÃ±os": 7469,
      "ĠfÃ¡cilmente": 7470,
      "Ġdemostra": 7471,
      "ĠCÃ³rdoba": 7472,
      "ede": 7473,
      "oll": 7474,
      "Ġinci": 7475,
      "Ġcubo": 7476,
      "ĠvolvÃŃa": 7477,
      "Ġescrib": 7478,
      "ĠponÃŃa": 7479,
      "Ġ1936": 7480,
      "Ġintento": 7481,
      "Ġestima": 7482,
      "Corrieron": 7483,
      "ĠJesÃºs": 7484,
      "Ġclave": 7485,
      "ĠWashington": 7486,
      "Ġtorres": 7487,
      "ĠvolverÃŃa": 7488,
      "Ġherido": 7489,
      "Ġampliamente": 7490,
      "Ġfiguras": 7491,
      "Ġhuevo": 7492,
      "ĠsonreÃŃa": 7493,
      "Ġgrues": 7494,
      "Ġdisfraz": 7495,
      "Ġlados": 7496,
      "Ġunir": 7497,
      "Ġvuelo": 7498,
      "olina": 7499,
      "Ġletras": 7500,
      "Ġafortun": 7501,
      "Ġcurso": 7502,
      "ĠJerusalÃ©n": 7503,
      "ĠhidrÃ³": 7504,
      "Ġdiscutir": 7505,
      "JosÃ©": 7506,
      "Ġbis": 7507,
      "Ġtengan": 7508,
      "Ġimportar": 7509,
      "Ġconex": 7510,
      "Ġ1965": 7511,
      "Ġhuman": 7512,
      "ĠSintiÃ³": 7513,
      "ĠplÃ¡s": 7514,
      "ĠtriÃ¡n": 7515,
      "Ġcontinuaron": 7516,
      "Ġexactamente": 7517,
      "Ġdiplom": 7518,
      "oraba": 7519,
      "Ġconsiste": 7520,
      "ĠÃ¡cido": 7521,
      "Ġbienes": 7522,
      "Ġluces": 7523,
      "Ġmusic": 7524,
      "Ġtonta": 7525,
      "Ġtrono": 7526,
      "Ġfracas": 7527,
      "ĠSacÃ³": 7528,
      "Ġhornear": 7529,
      "Ya": 7530,
      "bara": 7531,
      "ds": 7532,
      "oros": 7533,
      "tedr": 7534,
      "Ġconchas": 7535,
      "todo": 7536,
      "ĠSoy": 7537,
      "Ġcomenzaba": 7538,
      "itz": 7539,
      "Ġvenezol": 7540,
      "Ġcelebrar": 7541,
      "Ġfirm": 7542,
      "Ġhierro": 7543,
      "ĠcampeÃ³n": 7544,
      "Ġreprodu": 7545,
      "Ġabierta": 7546,
      "Ġadm": 7547,
      "Ġ1946": 7548,
      "Ġsostener": 7549,
      "Ġinfantil": 7550,
      "Ġballena": 7551,
      "gÃ©n": 7552,
      "eria": 7553,
      "ÃŃvar": 7554,
      "ĠpatrÃ³n": 7555,
      "Ġactiv": 7556,
      "Ġtratar": 7557,
      "ibe": 7558,
      "Ġdistrito": 7559,
      "Ġagru": 7560,
      "Ġcompartieron": 7561,
      "Ġdevolver": 7562,
      "Ġegip": 7563,
      "ĠHungrÃŃa": 7564,
      "Ġoficialmente": 7565,
      "Ġcapaz": 7566,
      "Ġresponsable": 7567,
      "ulo": 7568,
      "Ġlogrado": 7569,
      "tendiÃ³": 7570,
      "ĠKim": 7571,
      "Ġusan": 7572,
      "Ġpidieron": 7573,
      "Ġterror": 7574,
      "ĠParque": 7575,
      "Ġdesarrollado": 7576,
      "Ġfiestas": 7577,
      "Ġdisfrutando": 7578,
      "tadores": 7579,
      "Ġderram": 7580,
      "ĠanunciÃ³": 7581,
      "ĠAustralia": 7582,
      "Ġarbustos": 7583,
      "ĠMis": 7584,
      "Ġpoema": 7585,
      "Ġacel": 7586,
      "ĠEnron": 7587,
      "Ġgenerales": 7588,
      "Ġmorado": 7589,
      "Ġalemana": 7590,
      "Ġeduca": 7591,
      "ĠopiniÃ³n": 7592,
      "Ġgaran": 7593,
      "Ġllamadas": 7594,
      "Ġbaile": 7595,
      "Ġduque": 7596,
      "Ġtareas": 7597,
      "Ġculturales": 7598,
      "right": 7599,
      "Ġpantal": 7600,
      "Ġaproba": 7601,
      "ĠproteÃŃnas": 7602,
      "Ġmicros": 7603,
      "Ġescuchan": 7604,
      "ometrÃŃa": 7605,
      "ĠPerÃ³n": 7606,
      "Ġhidro": 7607,
      "ĠcapitÃ¡n": 7608,
      "ĠAug": 7609,
      "Ġocul": 7610,
      "ĠJus": 7611,
      "Ġreconoc": 7612,
      "ĠtropezÃ³": 7613,
      "Ġciertos": 7614,
      "Ġarreglarlo": 7615,
      "ĠSabÃŃan": 7616,
      "Ġlicencia": 7617,
      "Ġprimavera": 7618,
      "Ja": 7619,
      "ant": 7620,
      "ĠreÃŃa": 7621,
      "Ġcuentan": 7622,
      "ĠBill": 7623,
      "Ġchimen": 7624,
      "ĠRafa": 7625,
      "guez": 7626,
      "fin": 7627,
      "forma": 7628,
      "Ġcita": 7629,
      "Ġhas": 7630,
      "Ġsucia": 7631,
      "Ġcau": 7632,
      "Ġrojas": 7633,
      "ock": 7634,
      "Ġpinturas": 7635,
      "Ġsapo": 7636,
      "ciosos": 7637,
      "Ġequivo": 7638,
      "Ġexplos": 7639,
      "ĠDiego": 7640,
      "Dentro": 7641,
      "ars": 7642,
      "Ġasen": 7643,
      "Ġtraer": 7644,
      "deras": 7645,
      "Ġcanal": 7646,
      "Ġrica": 7647,
      "Ġorgullo": 7648,
      "Ġhoriz": 7649,
      "Ġdestaca": 7650,
      "ĠCristo": 7651,
      "ĠPÃ©rez": 7652,
      "Jimmy": 7653,
      "gro": 7654,
      "gadas": 7655,
      "lando": 7656,
      "Ġladr": 7657,
      "Ã±ar": 7658,
      "ĠrÃ¡": 7659,
      "Ġcerdo": 7660,
      "Ġintenta": 7661,
      "Ġglobos": 7662,
      "Ġdescribe": 7663,
      "ĠBush": 7664,
      "âĢĶ,": 7665,
      "Ġbomberos": 7666,
      "Ġdesempe": 7667,
      "bando": 7668,
      "dill": 7669,
      "Ã©jame": 7670,
      "ĠToma": 7671,
      "Escu": 7672,
      "Ġadver": 7673,
      "genas": 7674,
      "idencia": 7675,
      "Ġtemprano": 7676,
      "Ġamplio": 7677,
      "Ġmexicana": 7678,
      "ĠmÃ¡xima": 7679,
      "erÃŃas": 7680,
      "ĠLiga": 7681,
      "Ġretro": 7682,
      "Ġsolamente": 7683,
      "Ġpapeles": 7684,
      "ĠpublicaciÃ³n": 7685,
      "Ġcuidadosos": 7686,
      "Ġreligioso": 7687,
      "Ac": 7688,
      "pales": 7689,
      "icaron": 7690,
      "ĠAustria": 7691,
      "toral": 7692,
      "tÃ¡r": 7693,
      "Ġhumo": 7694,
      "ĠlÃ¡mpara": 7695,
      "ĠhipÃ³tesis": 7696,
      "ctur": 7697,
      "ju": 7698,
      "Ġdial": 7699,
      "Ġascen": 7700,
      "Ġrata": 7701,
      "Ġ35": 7702,
      "Ġpoblaciones": 7703,
      "Ġviajar": 7704,
      "ĠescondiÃ³": 7705,
      "ĠcientÃŃficos": 7706,
      "Ġexclam": 7707,
      "dÃŃ": 7708,
      "Ġaro": 7709,
      "teb": 7710,
      "illar": 7711,
      "Ġpermitir": 7712,
      "Ġtotalmente": 7713,
      "ĠEncontraron": 7714,
      "ĠEsperaban": 7715,
      "Ġaustral": 7716,
      "Ġarrepentidos": 7717,
      "Ġsaludar": 7718,
      "Ġincendio": 7719,
      "ĠfenÃ³meno": 7720,
      "Ġmanguera": 7721,
      "48": 7722,
      "ĠreÃŃan": 7723,
      "Ġmedie": 7724,
      "Ġmagnitud": 7725,
      "ĠelÃ©ctrica": 7726,
      "ĠacadÃ©m": 7727,
      "Ġmantequilla": 7728,
      "ĠhÃºn": 7729,
      "parte": 7730,
      "Ġbases": 7731,
      "Ġtranquila": 7732,
      "ĠcÃ©lula": 7733,
      "Ġtortuga": 7734,
      "ĠcinturÃ³n": 7735,
      "ĠsugiriÃ³": 7736,
      "Ġdepartamento": 7737,
      "osex": 7738,
      "tiz": 7739,
      "Ġgall": 7740,
      "diz": 7741,
      "entarse": 7742,
      "Ġdesay": 7743,
      "Ġexter": 7744,
      "ulares": 7745,
      "Ġarcilla": 7746,
      "Ġcorren": 7747,
      "Ġvendedor": 7748,
      "Ġbonitos": 7749,
      "Ġculp": 7750,
      "ĠÃºltimas": 7751,
      "Ġoscuridad": 7752,
      "Ġcubierta": 7753,
      "ĠCalifornia": 7754,
      "ĠhistÃ³rica": 7755,
      "Ġpegamento": 7756,
      "Ġferoz": 7757,
      "sburgo": 7758,
      "Ġdimens": 7759,
      "Ġcamiones": 7760,
      "Ġacaba": 7761,
      "quel": 7762,
      "tios": 7763,
      "Ġinvol": 7764,
      "eografÃŃa": 7765,
      "Ġcelular": 7766,
      "Ġinicial": 7767,
      "ĠconocÃŃa": 7768,
      "Ġprecipi": 7769,
      "Ġejemplos": 7770,
      "Ġasquer": 7771,
      "Ġorbi": 7772,
      "rupo": 7773,
      "itty": 7774,
      "Ġacercaron": 7775,
      "Ġcolorido": 7776,
      "ĠPuedo": 7777,
      "Ġtocarlo": 7778,
      "Ġsituada": 7779,
      "Ġcontexto": 7780,
      "!\",": 7781,
      "itÃ©": 7782,
      "Ġencontrarla": 7783,
      "Ġnuestras": 7784,
      "ĠladrÃ³": 7785,
      "ĠcontemporÃ¡n": 7786,
      "36": 7787,
      "San": 7788,
      "ej": 7789,
      "Ġatar": 7790,
      "cate": 7791,
      "ĠFundaciÃ³n": 7792,
      "ĠHor": 7793,
      "Ġdisol": 7794,
      "Ġrodar": 7795,
      "itando": 7796,
      "Ġtoro": 7797,
      "Ġaparecen": 7798,
      "Ġ1949": 7799,
      "Ġordenado": 7800,
      "Ġrecuerda": 7801,
      "Tra": 7802,
      "Ġhola": 7803,
      "olin": 7804,
      "Ġestamos": 7805,
      "ĠOriente": 7806,
      "Ġaquella": 7807,
      "Ġimprim": 7808,
      "ĠrindiÃ³": 7809,
      "ĠNuevo": 7810,
      "Ġcocodri": 7811,
      "99": 7812,
      "Ġlento": 7813,
      "ilia": 7814,
      "quinas": 7815,
      "Ġestaciones": 7816,
      "Ġrecomen": 7817,
      "Ġconsideran": 7818,
      "Ġatraparla": 7819,
      "ĠdeberÃŃan": 7820,
      "ĠbrasileÃ±o": 7821,
      "Ã¡ce": 7822,
      "ĠNorm": 7823,
      "Ġseres": 7824,
      "Ġpasos": 7825,
      "Ġempi": 7826,
      "Ġhaberlo": 7827,
      "190": 7828,
      "Ġtrigo": 7829,
      "Ġpromedio": 7830,
      "Ġfuncionar": 7831,
      "ĠmatemÃ¡tico": 7832,
      "ĠBolÃŃvar": 7833,
      "lÃŃn": 7834,
      "tier": 7835,
      "Ġgoma": 7836,
      "Ġincon": 7837,
      "derico": 7838,
      "ĠatrapÃ³": 7839,
      "Ġarroz": 7840,
      "Ġestatua": 7841,
      "ĠinvasiÃ³n": 7842,
      "mica": 7843,
      "uss": 7844,
      "cionario": 7845,
      "Ġtoalla": 7846,
      "Ġbotones": 7847,
      "Ġ1962": 7848,
      "Ġestablece": 7849,
      "Ġcruzar": 7850,
      "Ġvaso": 7851,
      "erdo": 7852,
      "Ġsug": 7853,
      "dias": 7854,
      "ĠPiensan": 7855,
      "Ġproclam": 7856,
      "ĠHu": 7857,
      "Ġirre": 7858,
      "Ġdebemos": 7859,
      "Ġsepara": 7860,
      "Ġenlace": 7861,
      "tona": 7862,
      "ann": 7863,
      "org": 7864,
      "ĠhÃ¡": 7865,
      "ĠSr": 7866,
      "Ġdecidido": 7867,
      "Ġ1947": 7868,
      "Ġhotel": 7869,
      "Ġnecesitan": 7870,
      "ĠartÃŃculos": 7871,
      "Ġpluma": 7872,
      "Ġconsumo": 7873,
      "tedral": 7874,
      "jor": 7875,
      "ĠlÃ³": 7876,
      "inan": 7877,
      "Ġfle": 7878,
      "Ġnoble": 7879,
      "Encon": 7880,
      "tomas": 7881,
      "Ġabrirla": 7882,
      "Ġfresco": 7883,
      "ĠUsÃ³": 7884,
      "Ġchimenea": 7885,
      "mal": 7886,
      "sal": 7887,
      "ward": 7888,
      "erta": 7889,
      "Ġcrom": 7890,
      "Ġvec": 7891,
      "amo": 7892,
      "entando": 7893,
      "terios": 7894,
      "idado": 7895,
      "ĠayudarÃ©": 7896,
      "ĠCha": 7897,
      "ĠcaracterÃŃstica": 7898,
      "ĠPensaba": 7899,
      "Ġlanzamiento": 7900,
      "Justo": 7901,
      "fes": 7902,
      "ciado": 7903,
      "Ġentraron": 7904,
      "ĠAri": 7905,
      "ĠRub": 7906,
      "Ġformando": 7907,
      "Ġ1966": 7908,
      "Ġvapor": 7909,
      "Ġerrores": 7910,
      "Ġhomosex": 7911,
      "ĠAzul": 7912,
      "ĠPalacio": 7913,
      "37": 7914,
      "AC": 7915,
      "Ca": 7916,
      "crÃ¡": 7917,
      "usta": 7918,
      "ecre": 7919,
      "Ġdestin": 7920,
      "ĠpoesÃŃa": 7921,
      "iev": 7922,
      "Ġescas": 7923,
      "alax": 7924,
      "Ġciertas": 7925,
      "Ġcineasta": 7926,
      "ĠEduardo": 7927,
      "Sally": 7928,
      "Ġ*": 7929,
      "Ġelabor": 7930,
      "ĠsoltÃ³": 7931,
      "Ġmantiene": 7932,
      "rupciÃ³n": 7933,
      "ĠMario": 7934,
      "ĠBobby": 7935,
      "Ġconsiderable": 7936,
      "Ġconsejo": 7937,
      "Ġaburrido": 7938,
      "Ġdesastre": 7939,
      "Ġsecu": 7940,
      "izados": 7941,
      "tora": 7942,
      "Ġron": 7943,
      "Ġsale": 7944,
      "Ġmorder": 7945,
      "reras": 7946,
      "Ġcuchillo": 7947,
      "Ġtemblar": 7948,
      "Ġajus": 7949,
      "Ġfrag": 7950,
      "Ġglu": 7951,
      "eles": 7952,
      "ĠPam": 7953,
      "ugo": 7954,
      "dencias": 7955,
      "Ġmartillo": 7956,
      "presiÃ³n": 7957,
      "Ġromp": 7958,
      "Ġbaloncestista": 7959,
      "tlÃ¡ntico": 7960,
      "ĠAndrÃ©s": 7961,
      "ĠEjÃ©rcito": 7962,
      "mer": 7963,
      "ĠsÃ³l": 7964,
      "Ġllamas": 7965,
      "Ġcargar": 7966,
      "Ġauton": 7967,
      "Ġvarita": 7968,
      "Ġescritorio": 7969,
      "Ġmiles": 7970,
      "ĠceÃ±o": 7971,
      "ĠcarbÃ³n": 7972,
      "Ġrefrigerio": 7973,
      "Ġenviar": 7974,
      "Amy": 7975,
      "Falle": 7976,
      "unta": 7977,
      "omba": 7978,
      "laga": 7979,
      "ĠAir": 7980,
      "Ġusarlo": 7981,
      "Ġmalas": 7982,
      "Ġexplicar": 7983,
      "Ġitaliana": 7984,
      "ĠManchitas": 7985,
      "ĠÃĵscar": 7986,
      "Ġlav": 7987,
      "Ġenv": 7988,
      "ĠPIB": 7989,
      "Ġabund": 7990,
      "plan": 7991,
      "ith": 7992,
      "Ġ1952": 7993,
      "Ġinglesa": 7994,
      "Ġcerebro": 7995,
      "Ġentr": 7996,
      "ticiÃ³n": 7997,
      "Ġgim": 7998,
      "ĠAD": 7999,
      "ĠIl": 8000,
      "Ġsovi": 8001,
      "conte": 8002,
      "Ġplante": 8003,
      "Ġreligiosa": 8004,
      "ĠcatÃ³lica": 8005,
      "tear": 8006,
      "ĠvÃŃas": 8007,
      "Ġfar": 8008,
      "jed": 8009,
      "Ġgradu": 8010,
      "ĠUS": 8011,
      "Ġlargas": 8012,
      "Ġdefens": 8013,
      "Ġempujar": 8014,
      "ĠrÃŃe": 8015,
      "MarÃŃa": 8016,
      "Î±": 8017,
      "Ġlun": 8018,
      "icarse": 8019,
      "Ġamaban": 8020,
      "pers": 8021,
      "Ġcuerpos": 8022,
      "ĠPhil": 8023,
      "ĠdelfÃŃn": 8024,
      "ĠDos": 8025,
      "Ġpermit": 8026,
      "Ġservir": 8027,
      "Ġmenores": 8028,
      "ĠÃºnicamente": 8029,
      "Ġdisponible": 8030,
      "Ġpotencia": 8031,
      "ĠRamÃ³n": 8032,
      "gano": 8033,
      "tie": 8034,
      "ĠAf": 8035,
      "amÃ¡n": 8036,
      "ĠexposiciÃ³n": 8037,
      "gaciones": 8038,
      "Ġseguros": 8039,
      "Ġbox": 8040,
      "Ġescritura": 8041,
      "Ġneum": 8042,
      "ĠGuillermo": 8043,
      "Ġmolesta": 8044,
      "Ġaverigu": 8045,
      "ĠneerlandÃ©s": 8046,
      "Ġbrin": 8047,
      "Ġempac": 8048,
      "Ġcalce": 8049,
      "Ġcostum": 8050,
      "arquÃŃa": 8051,
      "recciÃ³n": 8052,
      "ĠentregÃ³": 8053,
      "Ġcerrada": 8054,
      "Ġbrillar": 8055,
      "ets": 8056,
      "Ġhuesos": 8057,
      "BC": 8058,
      "ĠLad": 8059,
      "ĠBla": 8060,
      "Ġmeter": 8061,
      "Ġdiscipl": 8062,
      "Ġinstal": 8063,
      "Ġruedas": 8064,
      "Ġingresos": 8065,
      "ĠmolÃ©culas": 8066,
      "Fran": 8067,
      "tte": 8068,
      "unciÃ³n": 8069,
      "Ġestren": 8070,
      "Ġviera": 8071,
      "olÃ¡s": 8072,
      "Ġotom": 8073,
      "ĠCla": 8074,
      "oby": 8075,
      "Ġfamosa": 8076,
      "Ġcompuestos": 8077,
      "AdiÃ³s": 8078,
      "gando": 8079,
      "Ġcontaron": 8080,
      "Ãºr": 8081,
      "tarlo": 8082,
      "Ġllevan": 8083,
      "tional": 8084,
      "cola": 8085,
      "selo": 8086,
      "samente": 8087,
      "Ġaga": 8088,
      "Ġcero": 8089,
      "Ġlagar": 8090,
      "ĠSel": 8091,
      "ĠDebido": 8092,
      "thur": 8093,
      "Ġculto": 8094,
      "Ġredonda": 8095,
      "ĠMittens": 8096,
      "90": 8097,
      "ivi": 8098,
      "ĠtrÃ¡fico": 8099,
      "ienta": 8100,
      "ĠDar": 8101,
      "Ġradic": 8102,
      "Ġmismas": 8103,
      "ĠAlicia": 8104,
      "Ġchino": 8105,
      "Ġ1961": 8106,
      "Ġpermiten": 8107,
      "Ġuniversidad": 8108,
      "Ġpierna": 8109,
      "Ġlabora": 8110,
      "ĠRafael": 8111,
      "hua": 8112,
      "timas": 8113,
      "Ġgana": 8114,
      "Ġcorpor": 8115,
      "ĠAsocia": 8116,
      "Ġdefine": 8117,
      "Ġingre": 8118,
      "Ġpulm": 8119,
      "ĠHacÃŃa": 8120,
      "Ġchapo": 8121,
      "Ġdesfile": 8122,
      "Ġcisne": 8123,
      "Ġalmohada": 8124,
      "Ba": 8125,
      "vino": 8126,
      "Ġenca": 8127,
      "ĠEE": 8128,
      "ĠTar": 8129,
      "ĠsalÃ³n": 8130,
      "EstÃ¡n": 8131,
      "Ġ1959": 8132,
      "Ġfuncionamiento": 8133,
      "Ġcompuesta": 8134,
      "ĠautomÃ³vil": 8135,
      "ĠÃ¡mbito": 8136,
      "Ġpena": 8137,
      "ĠEle": 8138,
      "Ġreco": 8139,
      "Ġtorpe": 8140,
      "Ġterrible": 8141,
      "Ġnecesitaban": 8142,
      "Ġenfermo": 8143,
      "ĠexclamÃ³": 8144,
      "mac": 8145,
      "tidas": 8146,
      "Ġsed": 8147,
      "Ġdiciendo": 8148,
      "Ġcompl": 8149,
      "ĠMetro": 8150,
      "crito": 8151,
      "ĠGuar": 8152,
      "ĠMonte": 8153,
      "Ġconstituye": 8154,
      "tle": 8155,
      "ĠcrÃ³n": 8156,
      "ĠCiv": 8157,
      "igh": 8158,
      "Ġnoctur": 8159,
      "adero": 8160,
      "Ġimple": 8161,
      "ĠKo": 8162,
      "icÃ³p": 8163,
      "Ġcebol": 8164,
      "Ġdenominada": 8165,
      "Ġdepende": 8166,
      "contecimientos": 8167,
      "Cl": 8168,
      "denes": 8169,
      "Ġbandas": 8170,
      "Ġtela": 8171,
      "Ġdestacar": 8172,
      "Ġturno": 8173,
      "Ġciclista": 8174,
      "Ġvitorearon": 8175,
      "Ġarquitecto": 8176,
      "66": 8177,
      "BN": 8178,
      "Deci": 8179,
      "dÃ©": 8180,
      "Ġmemb": 8181,
      "alu": 8182,
      "Ġhice": 8183,
      "Ġreca": 8184,
      "Ġanual": 8185,
      "Ġcabra": 8186,
      "ĠfrÃ¡g": 8187,
      "Ġprofundidad": 8188,
      "Ġpasajeros": 8189,
      "ĠDanubio": 8190,
      "Ġsaludable": 8191,
      "Ġaplaud": 8192,
      "Acontecimientos": 8193,
      "Ġses": 8194,
      "Ã©la": 8195,
      "alizado": 8196,
      "ĠasombrÃ³": 8197,
      "ĠPregun": 8198,
      "Ġtextos": 8199,
      "Ġviolencia": 8200,
      "ĠÃ¡rabes": 8201,
      "ĠBretaÃ±a": 8202,
      "Ġvege": 8203,
      "38": 8204,
      "dra": 8205,
      "pico": 8206,
      "Ã¤": 8207,
      "ĠSta": 8208,
      "uerzos": 8209,
      "Ġverse": 8210,
      "ormes": 8211,
      "ĠOn": 8212,
      "Ġ1963": 8213,
      "Ġmodelos": 8214,
      "Quieren": 8215,
      "Ġderrota": 8216,
      "tronomÃŃa": 8217,
      "Ġarchivo": 8218,
      "Ġbruja": 8219,
      "ĠbaÃ±era": 8220,
      "bunal": 8221,
      "untamiento": 8222,
      "Ġfic": 8223,
      "Ġgiras": 8224,
      "chan": 8225,
      "Ġprecio": 8226,
      "Ġtrabajando": 8227,
      "Ġsentim": 8228,
      "Ġ500": 8229,
      "Ġestudiantes": 8230,
      "Ġlinterna": 8231,
      "Ġreconocimiento": 8232,
      "fortunadamente": 8233,
      "Ġinvoluc": 8234,
      "74": 8235,
      "Ġdeba": 8236,
      "Ġnoroeste": 8237,
      "trol": 8238,
      "ĠFÃºtbol": 8239,
      "Ġjudi": 8240,
      "ĠcondiciÃ³n": 8241,
      "Ġambien": 8242,
      "Ġusuario": 8243,
      "Ġaliviada": 8244,
      "Ġpayaso": 8245,
      "Jen": 8246,
      "rÃ¡s": 8247,
      "Ġeu": 8248,
      "enio": 8249,
      "Ġrusa": 8250,
      "Ġllan": 8251,
      "ĠLeon": 8252,
      "Ġespacios": 8253,
      "Ġescrita": 8254,
      "ĠCarta": 8255,
      "Ġfederal": 8256,
      "Ġmanifesta": 8257,
      "Ġproviene": 8258,
      "ĠGonzÃ¡": 8259,
      "Ġpermiso": 8260,
      "orl": 8261,
      "ĠhablÃ³": 8262,
      "Ġastero": 8263,
      "ĠduraciÃ³n": 8264,
      "Ġvender": 8265,
      "Ġdormido": 8266,
      "Ġempezaron": 8267,
      "Ġlistos": 8268,
      "Ġsello": 8269,
      "ĠclÃ¡sico": 8270,
      "Ġben": 8271,
      "quie": 8272,
      "podemos": 8273,
      "naval": 8274,
      "inoc": 8275,
      "Ġ1958": 8276,
      "Ġescritora": 8277,
      "ĠeligiÃ³": 8278,
      "ĠGonzÃ¡lez": 8279,
      "ĠÃ¡s": 8280,
      "ĠenviÃ³": 8281,
      "Ġgerm": 8282,
      "Ġimperio": 8283,
      "uyeron": 8284,
      "ĠnadÃ³": 8285,
      "zamiento": 8286,
      "ilos": 8287,
      "icando": 8288,
      "ĠrevoluciÃ³n": 8289,
      "Ġaconte": 8290,
      "ĠVI": 8291,
      "Ġtraje": 8292,
      "avier": 8293,
      "Ġcalles": 8294,
      "Ġtrabajaba": 8295,
      "Ġfundador": 8296,
      "Ġterreno": 8297,
      "Ġdeclara": 8298,
      "Ġregalos": 8299,
      "eto": 8300,
      "Ġcontras": 8301,
      "isterio": 8302,
      "dito": 8303,
      "ĠEsa": 8304,
      "Ġextin": 8305,
      "Ġtrataba": 8306,
      "ĠĠĠ": 8307,
      "Ġsucedido": 8308,
      "Ġventanas": 8309,
      "ĠfundaciÃ³n": 8310,
      "ĠseÃ±alando": 8311,
      "ĠacostÃ³": 8312,
      "ĠsÃŃntomas": 8313,
      "bro": 8314,
      "uelos": 8315,
      "Ġquin": 8316,
      "Ġpensamiento": 8317,
      "ĠSalvador": 8318,
      "Ġcantidades": 8319,
      "ĠDisfru": 8320,
      "Ġnervioso": 8321,
      "Ġcastellano": 8322,
      "udas": 8323,
      "alÃŃ": 8324,
      "Ġneo": 8325,
      "olia": 8326,
      "Ã±ado": 8327,
      "ĠTre": 8328,
      "Ġexcel": 8329,
      "Ġcaza": 8330,
      "Ġcorta": 8331,
      "Ġautomo": 8332,
      "Ġbarrio": 8333,
      "Ġformada": 8334,
      "ĠhelicÃ³p": 8335,
      "Ġasombroso": 8336,
      "Ġcurva": 8337,
      "Jill": 8338,
      "inada": 8339,
      "Ġsupon": 8340,
      "diza": 8341,
      "Ġperseguir": 8342,
      "Ġcarros": 8343,
      "ville": 8344,
      "Ġdiamante": 8345,
      "Ġnoticias": 8346,
      "ĠDere": 8347,
      "Ġemig": 8348,
      "Ġespague": 8349,
      "ĠAsamblea": 8350,
      "ĠTex": 8351,
      "Ġautoridades": 8352,
      "Ġensu": 8353,
      "ĠmostrÃ¡rselo": 8354,
      "Ġcercana": 8355,
      "lle": 8356,
      "Ġ$": 8357,
      "Ġrevolucion": 8358,
      "Ġimpos": 8359,
      "ĠAsimismo": 8360,
      "Ġinfra": 8361,
      "Ġcomunidades": 8362,
      "Ġolvidaron": 8363,
      "Ġderiva": 8364,
      "ĠpÃ¡gina": 8365,
      "iiiiiiiiiiiiiiiiiiiiiiiiiiiiiiii": 8366,
      "Ġpaquete": 8367,
      "Ġcanadiense": 8368,
      "So": 8369,
      "vu": 8370,
      "lador": 8371,
      "trina": 8372,
      "Ġjugadores": 8373,
      "Ġpocas": 8374,
      "Ġtantas": 8375,
      "ĠIba": 8376,
      "identes": 8377,
      "Ġpoderes": 8378,
      "Ġcansados": 8379,
      "Ġninguno": 8380,
      "ĠAlberto": 8381,
      "Ġmandato": 8382,
      "FA": 8383,
      "af": 8384,
      "ĠSor": 8385,
      "Ġleo": 8386,
      "cionado": 8387,
      "adura": 8388,
      "ĠserÃŃan": 8389,
      "ĠencantÃ³": 8390,
      "venida": 8391,
      "ĠAlfre": 8392,
      "ĠÃģl": 8393,
      "ĠSofÃŃa": 8394,
      "sell": 8395,
      "Ġajed": 8396,
      "ĠcÃº": 8397,
      "Ġestorn": 8398,
      "Ġcorri": 8399,
      "ibu": 8400,
      "Ġempren": 8401,
      "trÃ³leo": 8402,
      "Ġ45": 8403,
      "Ġ1944": 8404,
      "Ġ1956": 8405,
      "Ġaumentar": 8406,
      "ĠDeseaban": 8407,
      "Ġfresca": 8408,
      "Ġmusicales": 8409,
      "Ġepi": 8410,
      "pertura": 8411,
      "Ġdirecta": 8412,
      "Ġcontinente": 8413,
      "Ġcomplejo": 8414,
      "Ġheridos": 8415,
      "Ġ1929": 8416,
      "Ġproyectos": 8417,
      "Ġurugu": 8418,
      "ĠdiseÃ±a": 8419,
      "QuerÃŃa": 8420,
      "rol": 8421,
      "Ġconsegu": 8422,
      "Ġdipu": 8423,
      "arones": 8424,
      "ecÃŃan": 8425,
      "Ġpredomin": 8426,
      "Ġmarin": 8427,
      "Ġsacerdo": 8428,
      "ĠMuchos": 8429,
      "ĠgestiÃ³n": 8430,
      "Ġprovinci": 8431,
      "Ġbaloncesto": 8432,
      "Ġagarrar": 8433,
      ".:": 8434,
      "rÃŃo": 8435,
      "Ġcontam": 8436,
      "ĠBon": 8437,
      "ĠGuer": 8438,
      "ĠformÃ³": 8439,
      "Ġjuegan": 8440,
      "Ġsucede": 8441,
      "Ġataques": 8442,
      "âĢĿ.": 8443,
      "Ġoveja": 8444,
      "33": 8445,
      "rosas": 8446,
      "ski": 8447,
      "ÃŃdos": 8448,
      "Ġselec": 8449,
      "Ġretor": 8450,
      "Ġrara": 8451,
      "Ġabor": 8452,
      "talidad": 8453,
      "trop": 8454,
      "Ġcomenzar": 8455,
      "ĠTodas": 8456,
      "Ġhumor": 8457,
      "Ġtriun": 8458,
      "Ġprofundamente": 8459,
      "ĠDomingo": 8460,
      "vÃ©": 8461,
      "Ã³nico": 8462,
      "ish": 8463,
      "Ġrega": 8464,
      "ĠNeg": 8465,
      "ĠFl": 8466,
      "pardo": 8467,
      "ĠRed": 8468,
      "Ġenojar": 8469,
      "Ġcuervo": 8470,
      "ĠZo": 8471,
      "Ġrendirse": 8472,
      "Ġfirma": 8473,
      "ĠgÃ©neros": 8474,
      "ĠPutin": 8475,
      "Ġnuclear": 8476,
      "ĠlamiÃ³": 8477,
      "tibles": 8478,
      "Ġamabilidad": 8479,
      "ĠJord": 8480,
      "ĠVar": 8481,
      "Ġcobre": 8482,
      "Ġrepresentan": 8483,
      "Ġorganismos": 8484,
      "Ġinicialmente": 8485,
      "Ġpertenecen": 8486,
      "Ġinvestig": 8487,
      "Ġatleta": 8488,
      "44": 8489,
      "zi": 8490,
      "Ġalber": 8491,
      "ĠSierra": 8492,
      "Ġrecep": 8493,
      "Ġcuyos": 8494,
      "Ġtanta": 8495,
      "Ġconsul": 8496,
      "Ġcompas": 8497,
      "Ġpensaron": 8498,
      "ĠPopular": 8499,
      "Ġensal": 8500,
      "Ġcaballos": 8501,
      "Ġidiomas": 8502,
      "Ġherramienta": 8503,
      "ĠLima": 8504,
      "ĠSco": 8505,
      "iguen": 8506,
      "Ġmonos": 8507,
      "Ġseguido": 8508,
      "Ġgrifo": 8509,
      "ologÃŃas": 8510,
      "ĠclÃŃn": 8511,
      "Ġcorresponde": 8512,
      "Ġlegisla": 8513,
      "ĠEsperan": 8514,
      "ĠcombinaciÃ³n": 8515,
      "ĠPosteriormente": 8516,
      "Ġlater": 8517,
      "Ġvice": 8518,
      "Ġanteriormente": 8519,
      "ĠHol": 8520,
      "Ġobed": 8521,
      "Ġreyes": 8522,
      "Ġnave": 8523,
      "Ġenfermera": 8524,
      "Ġcaptura": 8525,
      "ĠprovocÃ³": 8526,
      "ĠsacudiÃ³": 8527,
      "yan": 8528,
      "art": 8529,
      "tamo": 8530,
      "ĠsecciÃ³n": 8531,
      "Ã©rico": 8532,
      "ĠPri": 8533,
      "ĠPÃŃo": 8534,
      "ĠsuspirÃ³": 8535,
      "portes": 8536,
      "Ġciudadanos": 8537,
      "Ġesperanza": 8538,
      "Ġreconstru": 8539,
      "Ġfactor": 8540,
      "Ġpiernas": 8541,
      "ĠEsponjoso": 8542,
      "ĠEspaÃ±ola": 8543,
      "Ġlava": 8544,
      "Ġfeo": 8545,
      "usos": 8546,
      "ĠpropÃ³sito": 8547,
      "ĠNemo": 8548,
      "rÃŃguez": 8549,
      "Ġ1932": 8550,
      "Ġ1928": 8551,
      "ĠBruce": 8552,
      "politana": 8553,
      "ok": 8554,
      "Ġul": 8555,
      "Ġdetuvieron": 8556,
      "ĠSpi": 8557,
      "isiones": 8558,
      "Ġcanta": 8559,
      "tillos": 8560,
      "Ġ300": 8561,
      "Ġhabitual": 8562,
      "ĠpÃºblicas": 8563,
      "ĠconcentraciÃ³n": 8564,
      "Ġmutuamente": 8565,
      "ĠRodrÃŃguez": 8566,
      "Ġpantalones": 8567,
      "gena": 8568,
      "pano": 8569,
      "urio": 8570,
      "ĠpÃ©": 8571,
      "Ġalter": 8572,
      "Ġperf": 8573,
      "ĠteÃ³": 8574,
      "Ġlibres": 8575,
      "vantes": 8576,
      "Ġponiendo": 8577,
      "ĠOriental": 8578,
      "Ġimpacto": 8579,
      "ĠcÃ¡ncer": 8580,
      "85": 8581,
      "his": 8582,
      "entaba": 8583,
      "icis": 8584,
      "Ġestuvieran": 8585,
      "alizada": 8586,
      "ĠlimÃ³n": 8587,
      "Ġ1951": 8588,
      "Ġ1955": 8589,
      "Ġhere": 8590,
      "Ġdisculparse": 8591,
      "kov": 8592,
      "Ġintelec": 8593,
      "Ġusuarios": 8594,
      "ĠLoren": 8595,
      "Ġtrampa": 8596,
      "76": 8597,
      "ae": 8598,
      "jam": 8599,
      "Ġpales": 8600,
      "Ġlavar": 8601,
      "ĠAten": 8602,
      "Ġcavar": 8603,
      "grama": 8604,
      "ĠJackson": 8605,
      "Ġviven": 8606,
      "Ġnuevamente": 8607,
      "Ġlargos": 8608,
      "Ġrecordaba": 8609,
      "ĠRojo": 8610,
      "Ġonda": 8611,
      "Ġquisiera": 8612,
      "titos": 8613,
      "istÃ¡n": 8614,
      "Ġbron": 8615,
      "Ġtenga": 8616,
      "Ġtrenes": 8617,
      "Ġcumplir": 8618,
      "Ġrespetar": 8619,
      "Ġentrenador": 8620,
      "Ġrefugio": 8621,
      "Ġhermanito": 8622,
      "Ġcazador": 8623,
      "ĠAsociaciÃ³n": 8624,
      "95": 8625,
      "enda": 8626,
      "ĠTam": 8627,
      "ĠKing": 8628,
      "Ġorganizaciones": 8629,
      "ĠFederico": 8630,
      "ze": 8631,
      "ĠSar": 8632,
      "Ġcuchar": 8633,
      "ĠcartÃ³n": 8634,
      "ÃŃsica": 8635,
      "ĠSub": 8636,
      "ĠconstruyÃ³": 8637,
      "Ġvotos": 8638,
      "ĠNicolÃ¡s": 8639,
      "Ġtejido": 8640,
      "ĠPaÃŃses": 8641,
      "Ġcocodrilo": 8642,
      "ĠADN": 8643,
      "ĠCivil": 8644,
      "iares": 8645,
      "Ġsaltaron": 8646,
      "Ġescuchaba": 8647,
      "Ġescritos": 8648,
      "ĠPatri": 8649,
      "manes": 8650,
      "Ġ1942": 8651,
      "ĠSuecia": 8652,
      "Ġdialec": 8653,
      "Comen": 8654,
      "jaban": 8655,
      "zgo": 8656,
      "Ġdarse": 8657,
      "uemos": 8658,
      "undo": 8659,
      "Ġtirar": 8660,
      "left": 8661,
      "ĠMich": 8662,
      "ight": 8663,
      "Ġinquie": 8664,
      "ĠEscuela": 8665,
      "Ġpasteles": 8666,
      "ĊĊĊĊ": 8667,
      "Ġgata": 8668,
      "ĠCarl": 8669,
      "Ġalemanes": 8670,
      "Ġaumenta": 8671,
      "hol": 8672,
      "pade": 8673,
      "Ġbajas": 8674,
      "ĠKitty": 8675,
      "idiendo": 8676,
      "posiciones": 8677,
      "Ġnecesitas": 8678,
      "Ġutilizada": 8679,
      "Ġ1943": 8680,
      "emato": 8681,
      "Ġparticularmente": 8682,
      "ĠActualmente": 8683,
      "Ġvacaciones": 8684,
      "Ġleones": 8685,
      "ĠDiv": 8686,
      "vido": 8687,
      "ĠGro": 8688,
      "Ġhacerse": 8689,
      "graf": 8690,
      "Ġtoman": 8691,
      "ĠbastÃ³n": 8692,
      "Ġ1939": 8693,
      "ĠEscuchÃ³": 8694,
      "ĠMayor": 8695,
      "Ġevolucion": 8696,
      "ĠadiÃ³s": 8697,
      "Ġmig": 8698,
      "Ġhuel": 8699,
      "entre": 8700,
      "paba": 8701,
      "Ġatraves": 8702,
      "Ġrecibido": 8703,
      "ĠtransmisiÃ³n": 8704,
      "Ġcultiv": 8705,
      "ĠdirigiÃ³": 8706,
      "Ġdescanso": 8707,
      "ĠcientÃŃfica": 8708,
      "Ġindividuos": 8709,
      "Ġescondidas": 8710,
      "ĠInternet": 8711,
      "ĠlÃŃquido": 8712,
      "64": 8713,
      "CA": 8714,
      "dando": 8715,
      "Ġsuena": 8716,
      "toci": 8717,
      "Ġbello": 8718,
      "Ġpropuesta": 8719,
      "ĠFing": 8720,
      "Ġconsum": 8721,
      "Ġgentil": 8722,
      "tienden": 8723,
      "Ġhumil": 8724,
      "Ġjazz": 8725,
      "ĠDaniel": 8726,
      "puedes": 8727,
      "ĠclÃ¡sica": 8728,
      "ĠBella": 8729,
      "Buen": 8730,
      "ĠtriÃ¡ngulo": 8731,
      "Ġsul": 8732,
      "ĠKe": 8733,
      "Ġpalos": 8734,
      "Ġencontraban": 8735,
      "ĠBajos": 8736,
      "ĠpÃ¡ginas": 8737,
      "Ġingredientes": 8738,
      "entales": 8739,
      "omor": 8740,
      "ĠAquÃŃ": 8741,
      "Ġnieb": 8742,
      "Ġsobres": 8743,
      "Ġagradecidos": 8744,
      "Ġsabiendo": 8745,
      "mentales": 8746,
      "Ġasombrado": 8747,
      "ĠpÃºblicos": 8748,
      "Ġinstrumento": 8749,
      "ĠexcepciÃ³n": 8750,
      "ĠÃģngeles": 8751,
      "Ġdesayuno": 8752,
      "cÃŃan": 8753,
      "pr": 8754,
      "tuviera": 8755,
      "ĠBr": 8756,
      "idores": 8757,
      "itaron": 8758,
      "Ġgriega": 8759,
      "ĠextraÃ±a": 8760,
      "Ġtembl": 8761,
      "ĠmecÃ¡nico": 8762,
      "orld": 8763,
      "84": 8764,
      "Ġdem": 8765,
      "Ġbille": 8766,
      "ĠincÃ³mo": 8767,
      "Ġrojos": 8768,
      "ĠcansÃ³": 8769,
      "Ġcomienzan": 8770,
      ";\"": 8771,
      "uano": 8772,
      "Ãģ": 8773,
      "Ġdetec": 8774,
      "tÃ³ma": 8775,
      "ĠJan": 8776,
      "ĠcompartiÃ³": 8777,
      "Ġmeridi": 8778,
      "Ġciviles": 8779,
      "Ġhablaron": 8780,
      "ÃŃferos": 8781,
      "cialmente": 8782,
      "tea": 8783,
      "Ġredes": 8784,
      "ĠBun": 8785,
      "Ġacto": 8786,
      "ĠJohan": 8787,
      "Ġpublicada": 8788,
      "Ġdivide": 8789,
      "Ġidentidad": 8790,
      "Ġacoged": 8791,
      "Ġinaugura": 8792,
      "ĠĠĊ": 8793,
      "amentos": 8794,
      "Ġgalax": 8795,
      "Ġacero": 8796,
      "Ġordin": 8797,
      "ĠpÃ¡l": 8798,
      "ockey": 8799,
      "Ġobservaron": 8800,
      "Ġcriaturas": 8801,
      "br": 8802,
      "nol": 8803,
      "well": 8804,
      "risas": 8805,
      "Ġmodos": 8806,
      "ĠConf": 8807,
      "Ġzum": 8808,
      "Ġrepresentar": 8809,
      "ĠBobo": 8810,
      "Ġmole": 8811,
      "Ġharina": 8812,
      "ĠgeogrÃ¡f": 8813,
      "Ġdioses": 8814,
      "''": 8815,
      "Vol": 8816,
      "ji": 8817,
      "eramente": 8818,
      "quito": 8819,
      "rilla": 8820,
      "Ġpresentes": 8821,
      "Ġfamiliar": 8822,
      "ĠcÃ³moda": 8823,
      "Ġ1957": 8824,
      "Ġ1924": 8825,
      "ĠfÃ¡brica": 8826,
      "Tenemos": 8827,
      "ĠCampeonato": 8828,
      "ĠindÃŃgenas": 8829,
      "ĠJoseph": 8830,
      "32": 8831,
      "34": 8832,
      "ĠAtlÃ¡ntico": 8833,
      "igan": 8834,
      "Ġparaguas": 8835,
      "ĠpetrÃ³leo": 8836,
      "Ġposibles": 8837,
      "ĠXI": 8838,
      "ĠentendiÃ³": 8839,
      "Ġubicado": 8840,
      "ĠJerry": 8841,
      "39": 8842,
      "55": 8843,
      "ites": 8844,
      "inten": 8845,
      "Ã©ticas": 8846,
      "Ġpareja": 8847,
      "Ġayudaron": 8848,
      "Ġconocidas": 8849,
      "Ġorganismo": 8850,
      "Ġ1937": 8851,
      "Ġdeseaba": 8852,
      "Ġilustra": 8853,
      "Ġsientan": 8854,
      "Ġguitarrista": 8855,
      "Ġniebla": 8856,
      "UU": 8857,
      "Ġsierra": 8858,
      "chada": 8859,
      "ĠgruÃ±Ã³n": 8860,
      "ĠFederal": 8861,
      "ĠlÃŃmites": 8862,
      "ĠacurrucÃ³": 8863,
      "ĠhidrÃ³geno": 8864,
      "Î¿": 8865,
      "table": 8866,
      "Ġ(),": 8867,
      "Ġasienten": 8868,
      "ĠOtras": 8869,
      "ĠbritÃ¡nicos": 8870,
      "ĠExtendiÃ³": 8871,
      "hat": 8872,
      "Ġsectores": 8873,
      "ĠNavarra": 8874,
      "ĠsaludÃ³": 8875,
      "ĠMÃ¡laga": 8876,
      "ĠladrÃ³n": 8877,
      "31": 8878,
      "ĠTol": 8879,
      "ĠCD": 8880,
      "iertas": 8881,
      "Ġpremios": 8882,
      "Ġemerg": 8883,
      "Ġpeleando": 8884,
      "Ġfuertemente": 8885,
      "Ġpelotas": 8886,
      "ĠPat": 8887,
      "Ġparticipar": 8888,
      "Ġrelacionados": 8889,
      "ĠHenry": 8890,
      "ĠIndependencia": 8891,
      "alismo": 8892,
      "ĠTerm": 8893,
      "ĠastrÃ³n": 8894,
      "Ġactiva": 8895,
      "Ġhecha": 8896,
      "lÃŃm": 8897,
      "Ġ1934": 8898,
      "ĠresultÃ³": 8899,
      "Ġfrecuentemente": 8900,
      "Ġcompetencia": 8901,
      "Ġbombar": 8902,
      "ĠISBN": 8903,
      "MP": 8904,
      "centa": 8905,
      "kin": 8906,
      "sie": 8907,
      "wood": 8908,
      "Äģ": 8909,
      "rak": 8910,
      "Ġguan": 8911,
      "guar": 8912,
      "ĠJulio": 8913,
      "Ġpatin": 8914,
      "Ġsop": 8915,
      "ĠcomparaciÃ³n": 8916,
      "Ġdirecto": 8917,
      "Ġautoridad": 8918,
      "Ã³stico": 8919,
      "ĠnÃºcleos": 8920,
      "ĠvÃŃc": 8921,
      "Ġvidrio": 8922,
      "ĠplÃ¡tano": 8923,
      "Ġcromos": 8924,
      "vuÃ©l": 8925,
      "roma": 8926,
      "sin": 8927,
      "Ġline": 8928,
      "Ġsh": 8929,
      "Ġdigi": 8930,
      "Ġobtiene": 8931,
      "ĠIntenta": 8932,
      "ĠolÃŃa": 8933,
      "Ġ1953": 8934,
      "Ġ1954": 8935,
      "Ġtocarla": 8936,
      "ĠÃ³p": 8937,
      "Ġreferirse": 8938,
      "Ġposeen": 8939,
      "ĠfabricaciÃ³n": 8940,
      "talos": 8941,
      "ĠestÃ³ma": 8942,
      "Ġdiscos": 8943,
      "its": 8944,
      "ĠactuaciÃ³n": 8945,
      "Ġregresar": 8946,
      "ĠJohnny": 8947,
      "Ġofrece": 8948,
      "Ser": 8949,
      "ĠLim": 8950,
      "eladas": 8951,
      "dita": 8952,
      "chez": 8953,
      "Ġestadio": 8954,
      "Ġcarreras": 8955,
      "ĠOlÃŃm": 8956,
      "ĠpersiguiÃ³": 8957,
      "rosos": 8958,
      "Ġtapa": 8959,
      "Ġdoce": 8960,
      "Ġreducir": 8961,
      "ĠBerlÃŃn": 8962,
      "Ġingeniero": 8963,
      "Ġavergonzada": 8964,
      "Ġpromesa": 8965,
      "Ġimpuls": 8966,
      "Å«": 8967,
      "Ġmito": 8968,
      "timiento": 8969,
      "Ġprove": 8970,
      "ĠMagn": 8971,
      "ĠQuijo": 8972,
      "Ġresulta": 8973,
      "Ġnarra": 8974,
      "Ġpirata": 8975,
      "TÃº": 8976,
      "gues": 8977,
      "ĠAyu": 8978,
      "Ġ(Â«": 8979,
      "Ġ1941": 8980,
      "Ġgolf": 8981,
      "Ġdeterminar": 8982,
      "ĠLiber": 8983,
      "ĠVicente": 8984,
      "ĠtÃŃmida": 8985,
      "Ġculpable": 8986,
      "ĠfusiÃ³n": 8987,
      "Ġcontro": 8988,
      "Ã©ter": 8989,
      "Ġaltitud": 8990,
      "igos": 8991,
      "Ġmodes": 8992,
      "Ġcif": 8993,
      "Ġcereal": 8994,
      "ĠbuzÃ³n": 8995,
      "ĠDejÃ³": 8996,
      "Ġexplica": 8997,
      "vangel": 8998,
      "Ġcuerdas": 8999,
      "Ġcaracteriza": 9000,
      "colo": 9001,
      "Ġgriegos": 9002,
      "iesta": 9003,
      "zco": 9004,
      "Ġmente": 9005,
      "talo": 9006,
      "inf": 9007,
      "ugh": 9008,
      "Ġpropa": 9009,
      "ĠVuel": 9010,
      "Ġregla": 9011,
      "Ġbosques": 9012,
      "ĠCaminÃ³": 9013,
      "Ġdormida": 9014,
      "Ġconserva": 9015,
      "Ġextrem": 9016,
      "Ġsentada": 9017,
      "Ġperezoso": 9018,
      "Ġorquesta": 9019,
      "nal": 9020,
      "ĠTru": 9021,
      "Ġsiquiera": 9022,
      "Ġ1922": 9023,
      "Ġasombro": 9024,
      "ĠsirviÃ³": 9025,
      "ĠQuijote": 9026,
      "Ġdeporte": 9027,
      "Ġase": 9028,
      "ĠStar": 9029,
      "deos": 9030,
      "Ġ1918": 9031,
      "tilidad": 9032,
      "Ġrealizan": 9033,
      "Ġordenada": 9034,
      "Ġ1925": 9035,
      "Ġ1927": 9036,
      "Ġlograron": 9037,
      "Ġvinieron": 9038,
      "cero": 9039,
      "Ġcac": 9040,
      "Ġreda": 9041,
      "ĠDen": 9042,
      "tanos": 9043,
      "Ġpresentar": 9044,
      "Ġestufa": 9045,
      "ĠfundÃ³": 9046,
      "eatro": 9047,
      "Ġvuelto": 9048,
      "ĠEmpu": 9049,
      "Ġparecen": 9050,
      "Ġ1914": 9051,
      "ĠprÃ¡cticamente": 9052,
      "Ġbailando": 9053,
      "Ġavestru": 9054,
      "77": 9055,
      "Otros": 9056,
      "dillas": 9057,
      "ster": 9058,
      "Ġune": 9059,
      "Ġgi": 9060,
      "Ã©u": 9061,
      "Ġpatri": 9062,
      "deros": 9063,
      "Ġprensa": 9064,
      "Ġ1938": 9065,
      "Ġconflictos": 9066,
      "Ġimplica": 9067,
      "Ġdinosaurio": 9068,
      "ĠagachÃ³": 9069,
      "Ġleopardo": 9070,
      "Neces": 9071,
      "cy": 9072,
      "orde": 9073,
      "Ġtinta": 9074,
      "imno": 9075,
      "Ġlec": 9076,
      "Ġlechu": 9077,
      "ĠEsco": 9078,
      "ĠGer": 9079,
      "ĠcafÃ©": 9080,
      "Ġpasta": 9081,
      "Ġgatos": 9082,
      "garo": 9083,
      "ĠcÃ³modo": 9084,
      "Ġvivo": 9085,
      "Ġmineral": 9086,
      "Ġ1933": 9087,
      "ĠOrganizaciÃ³n": 9088,
      "Ġduele": 9089,
      "Ġdocumentos": 9090,
      "ĠCataluÃ±a": 9091,
      "Ġentusiasmo": 9092,
      "Ġcombustible": 9093,
      "Ob": 9094,
      "ipi": 9095,
      "estado": 9096,
      "Ġelog": 9097,
      "roa": 9098,
      "inaciones": 9099,
      "Ġguste": 9100,
      "oraciones": 9101,
      "Ġturismo": 9102,
      "Ġvive": 9103,
      "Ġsombreros": 9104,
      "Ġconfundido": 9105,
      "Ġaceite": 9106,
      "ĠcatalÃ¡n": 9107,
      "Ġejercicio": 9108,
      "hel": 9109,
      "ĠBerm": 9110,
      "Ġmedic": 9111,
      "Ġprevi": 9112,
      "dum": 9113,
      "Ġrayos": 9114,
      "Ġcerem": 9115,
      "Ġllevarlo": 9116,
      "Ġclara": 9117,
      "Ġ1931": 9118,
      "Ġtesoros": 9119,
      "Ġcuadrado": 9120,
      "grÃ¡fico": 9121,
      "Ġinstalaciones": 9122,
      "Ġflexible": 9123,
      "mes": 9124,
      "Ġdor": 9125,
      "ĠCiencias": 9126,
      "ĠJef": 9127,
      "Ġorg": 9128,
      "Ġllegando": 9129,
      "Ġtenerlo": 9130,
      "alidades": 9131,
      "Ġrecorrido": 9132,
      "Ġllevarla": 9133,
      "ĠCerrÃ³": 9134,
      "ĠPlata": 9135,
      "Ġvariable": 9136,
      "Ġsec": 9137,
      "Ġbl": 9138,
      "iros": 9139,
      "ĠVien": 9140,
      "Ġcaro": 9141,
      "Ġramita": 9142,
      "ĠMarco": 9143,
      "Ġruta": 9144,
      "Ġfundada": 9145,
      "Ġeuropeo": 9146,
      "feo": 9147,
      "jal": 9148,
      "pp": 9149,
      "ĠCin": 9150,
      "Ġespiri": 9151,
      "Ġactos": 9152,
      "Ġcaca": 9153,
      "Ġverti": 9154,
      "EspaÃ±a": 9155,
      "Ġpreguntaba": 9156,
      "aliza": 9157,
      "Ġveinte": 9158,
      "Ġrique": 9159,
      "ĠmecÃ¡nica": 9160,
      "ĠSociedad": 9161,
      "ĠecuaciÃ³n": 9162,
      "Ġfantasma": 9163,
      "Ġpaisaje": 9164,
      "Ġlaboratorio": 9165,
      "CO": 9166,
      "Ġvilla": 9167,
      "ĠStan": 9168,
      "iada": 9169,
      "bidas": 9170,
      "Ġpatito": 9171,
      "Ġoreja": 9172,
      "Ġverlos": 9173,
      "Ġflamen": 9174,
      "ĠArte": 9175,
      "ĠreciÃ©n": 9176,
      "Ġusarla": 9177,
      "Ġcontarle": 9178,
      "Ġ2023": 9179,
      "Ġimpresionante": 9180,
      "Ġdesconocido": 9181,
      "Ġjaponesa": 9182,
      "Ġveterinario": 9183,
      "68": 9184,
      "idor": 9185,
      "tana": 9186,
      "uma": 9187,
      "dows": 9188,
      "ĠRica": 9189,
      "ullÃ³": 9190,
      "Ġnuez": 9191,
      "Ġdiscurso": 9192,
      "Ġhacerte": 9193,
      "Ġrealizada": 9194,
      "ĠRadio": 9195,
      "ĠcrÃŃtico": 9196,
      "Ġbocadillo": 9197,
      "Ġflujo": 9198,
      "ĠPreguntÃ³": 9199,
      "Ġensalada": 9200,
      "bero": 9201,
      "ĠFestival": 9202,
      "cesiÃ³n": 9203,
      "Ġmotoci": 9204,
[...]
